const unsigned char tf_model[] DATA_ALIGN_ATTRIBUTE = {
  0x1C, 0x00, 0x00, 0x00, 0x54, 0x46, 0x4C, 0x33, 0x00, 0x00,
  0x12, 0x00, 0x1C, 0x00, 0x04, 0x00, 0x08, 0x00, 0x0C, 0x00,
  0x10, 0x00, 0x14, 0x00, 0x00, 0x00, 0x18, 0x00, 0x12, 0x00,
  0x00, 0x00, 0x03, 0x00, 0x00, 0x00, 0x14, 0x00, 0x00, 0x00,
  0x28, 0x00, 0x00, 0x00, 0xC4, 0x00, 0x00, 0x00, 0x28, 0x00,
  0x00, 0x00, 0x6C, 0x00, 0x00, 0x00, 0x05, 0x00, 0x00, 0x00,
  0xD4, 0x05, 0x00, 0x00, 0x24, 0x05, 0x00, 0x00, 0x98, 0x02,
  0x00, 0x00, 0x08, 0x02, 0x00, 0x00, 0x90, 0x01, 0x00, 0x00,
  0x01, 0x00, 0x00, 0x00, 0xC0, 0x00, 0x00, 0x00, 0x11, 0x00,
  0x00, 0x00, 0xB4, 0x2D, 0x00, 0x00, 0xB0, 0x2D, 0x00, 0x00,
  0xC4, 0x2C, 0x00, 0x00, 0x28, 0x2C, 0x00, 0x00, 0x94, 0x2B,
  0x00, 0x00, 0x1C, 0x2B, 0x00, 0x00, 0xAC, 0x1C, 0x00, 0x00,
  0x34, 0x15, 0x00, 0x00, 0xBC, 0x06, 0x00, 0x00, 0x90, 0x2D,
  0x00, 0x00, 0x8C, 0x2D, 0x00, 0x00, 0x88, 0x2D, 0x00, 0x00,
  0x84, 0x2D, 0x00, 0x00, 0x80, 0x2D, 0x00, 0x00, 0x7C, 0x2D,
  0x00, 0x00, 0x78, 0x2D, 0x00, 0x00, 0x38, 0x00, 0x00, 0x00,
  0x01, 0x00, 0x00, 0x00, 0x0C, 0x00, 0x00, 0x00, 0x08, 0x00,
  0x0C, 0x00, 0x04, 0x00, 0x08, 0x00, 0x08, 0x00, 0x00, 0x00,
  0x08, 0x00, 0x00, 0x00, 0x10, 0x00, 0x00, 0x00, 0x13, 0x00,
  0x00, 0x00, 0x6D, 0x69, 0x6E, 0x5F, 0x72, 0x75, 0x6E, 0x74,
  0x69, 0x6D, 0x65, 0x5F, 0x76, 0x65, 0x72, 0x73, 0x69, 0x6F,
  0x6E, 0x00, 0xB2, 0xD3, 0xFF, 0xFF, 0x04, 0x00, 0x00, 0x00,
  0x10, 0x00, 0x00, 0x00, 0x31, 0x2E, 0x35, 0x2E, 0x30, 0x00,
  0x00, 0x00, 0x00, 0x00, 0x00, 0x00, 0x00, 0x00, 0x00, 0x00,
  0x0F, 0x00, 0x00, 0x00, 0x4D, 0x4C, 0x49, 0x52, 0x20, 0x43,
  0x6F, 0x6E, 0x76, 0x65, 0x72, 0x74, 0x65, 0x64, 0x2E, 0x00,
  0x00, 0x00, 0x0E, 0x00, 0x18, 0x00, 0x04, 0x00, 0x08, 0x00,
  0x0C, 0x00, 0x10, 0x00, 0x14, 0x00, 0x0E, 0x00, 0x00, 0x00,
  0x14, 0x00, 0x00, 0x00, 0x50, 0x00, 0x00, 0x00, 0x54, 0x00,
  0x00, 0x00, 0x5C, 0x00, 0x00, 0x00, 0x78, 0x00, 0x00, 0x00,
  0x0F, 0x00, 0x00, 0x00, 0xA4, 0x2C, 0x00, 0x00, 0x28, 0x2C,
  0x00, 0x00, 0x8C, 0x2B, 0x00, 0x00, 0xF8, 0x2A, 0x00, 0x00,
  0x70, 0x2A, 0x00, 0x00, 0xF8, 0x29, 0x00, 0x00, 0x78, 0x1B,
  0x00, 0x00, 0x08, 0x14, 0x00, 0x00, 0xCC, 0x04, 0x00, 0x00,
  0x1C, 0x04, 0x00, 0x00, 0xD0, 0x02, 0x00, 0x00, 0x30, 0x02,
  0x00, 0x00, 0x88, 0x01, 0x00, 0x00, 0xF8, 0x00, 0x00, 0x00,
  0x80, 0x00, 0x00, 0x00, 0x01, 0x00, 0x00, 0x00, 0x00, 0x00,
  0x00, 0x00, 0x02, 0x00, 0x00, 0x00, 0x09, 0x00, 0x00, 0x00,
  0x0E, 0x00, 0x00, 0x00, 0x07, 0x00, 0x00, 0x00, 0x38, 0x04,
  0x00, 0x00, 0x8C, 0x03, 0x00, 0x00, 0x60, 0x02, 0x00, 0x00,
  0xBC, 0x01, 0x00, 0x00, 0x24, 0x01, 0x00, 0x00, 0x84, 0x00,
  0x00, 0x00, 0x10, 0x00, 0x00, 0x00, 0x04, 0x00, 0x00, 0x00,
  0x6D, 0x61, 0x69, 0x6E, 0x00, 0x00, 0x00, 0x00, 0x6E, 0xFE,
  0xFF, 0xFF, 0x00, 0x00, 0x00, 0x09, 0x04, 0x00, 0x00, 0x00,
  0x1C, 0x00, 0x00, 0x00, 0x10, 0x00, 0x00, 0x00, 0x04, 0x00,
  0x00, 0x00, 0xA2, 0xD4, 0xFF, 0xFF, 0x00, 0x00, 0x80, 0x3F,
  0x01, 0x00, 0x00, 0x00, 0x0E, 0x00, 0x00, 0x00, 0x01, 0x00,
  0x00, 0x00, 0x0D, 0x00, 0x00, 0x00, 0xD6, 0xFB, 0xFF, 0xFF,
  0x00, 0x00, 0x00, 0x19, 0x01, 0x00, 0x00, 0x00, 0x22, 0xD4,
  0xFF, 0xFF, 0x10, 0x00, 0x00, 0x00, 0x0F, 0x00, 0x00, 0x00,
  0x14, 0x00, 0x00, 0x00, 0x20, 0x00, 0x00, 0x00, 0x02, 0x00,
  0x00, 0x00, 0x01, 0x00, 0x00, 0x00, 0x0A, 0x00, 0x00, 0x00,
  0x0A, 0x00, 0x00, 0x00, 0x49, 0x64, 0x65, 0x6E, 0x74, 0x69,
  0x74, 0x79, 0x5F, 0x31, 0x00, 0x00, 0x0C, 0xD4, 0xFF, 0xFF,
  0xDE, 0xFE, 0xFF, 0xFF, 0x00, 0x00, 0x00, 0x08, 0x03, 0x00,
  0x00, 0x00, 0x18, 0x00, 0x00, 0x00, 0x0C, 0x00, 0x00, 0x00,
  0x04, 0x00, 0x00, 0x00, 0x28, 0xD4, 0xFF, 0xFF, 0x01, 0x00,
  0x00, 0x00, 0x0D, 0x00, 0x00, 0x00, 0x03, 0x00, 0x00, 0x00,
  0x0C, 0x00, 0x00, 0x00, 0x05, 0x00, 0x00, 0x00, 0x03, 0x00,
  0x00, 0x00, 0x4A, 0xFC, 0xFF, 0xFF, 0x00, 0x00, 0x00, 0x09,
  0x01, 0x00, 0x00, 0x00, 0x96, 0xD4, 0xFF, 0xFF, 0x10, 0x00,
  0x00, 0x00, 0x0E, 0x00, 0x00, 0x00, 0x14, 0x00, 0x00, 0x00,
  0x3C, 0x00, 0x00, 0x00, 0x02, 0x00, 0x00, 0x00, 0x01, 0x00,
  0x00, 0x00, 0x0A, 0x00, 0x00, 0x00, 0x26, 0x00, 0x00, 0x00,
  0x6D, 0x6F, 0x64, 0x65, 0x6C, 0x5F, 0x31, 0x30, 0x2F, 0x6D,
  0x6F, 0x64, 0x65, 0x6C, 0x5F, 0x34, 0x2F, 0x65, 0x78, 0x69,
  0x74, 0x32, 0x2F, 0x64, 0x65, 0x6E, 0x73, 0x65, 0x5F, 0x31,
  0x2F, 0x42, 0x69, 0x61, 0x73, 0x41, 0x64, 0x64, 0x00, 0x00,
  0xEC, 0xD4, 0xFF, 0xFF, 0x00, 0x00, 0x0A, 0x00, 0x10, 0x00,
  0x04, 0x00, 0x08, 0x00, 0x0C, 0x00, 0x0A, 0x00, 0x00, 0x00,
  0x02, 0x00, 0x00, 0x00, 0x10, 0x00, 0x00, 0x00, 0x04, 0x00,
  0x00, 0x00, 0x01, 0x00, 0x00, 0x00, 0x0C, 0x00, 0x00, 0x00,
  0x02, 0x00, 0x00, 0x00, 0x0B, 0x00, 0x00, 0x00, 0x04, 0x00,
  0x00, 0x00, 0xD6, 0xFC, 0xFF, 0xFF, 0x00, 0x00, 0x00, 0x16,
  0x01, 0x00, 0x00, 0x00, 0x22, 0xD5, 0xFF, 0xFF, 0x10, 0x00,
  0x00, 0x00, 0x0D, 0x00, 0x00, 0x00, 0x14, 0x00, 0x00, 0x00,
  0x40, 0x00, 0x00, 0x00, 0x02, 0x00, 0x00, 0x00, 0x01, 0x00,
  0x00, 0x00, 0x5A, 0x00, 0x00, 0x00, 0x28, 0x00, 0x00, 0x00,
  0x6D, 0x6F, 0x64, 0x65, 0x6C, 0x5F, 0x31, 0x30, 0x2F, 0x6D,
  0x6F, 0x64, 0x65, 0x6C, 0x5F, 0x34, 0x2F, 0x65, 0x78, 0x69,
  0x74, 0x32, 0x2F, 0x66, 0x6C, 0x61, 0x74, 0x74, 0x65, 0x6E,
  0x5F, 0x31, 0x2F, 0x52, 0x65, 0x73, 0x68, 0x61, 0x70, 0x65,
  0x00, 0x00, 0x00, 0x00, 0x7C, 0xD5, 0xFF, 0xFF, 0x00, 0x00,
  0x0E, 0x00, 0x18, 0x00, 0x08, 0x00, 0x0C, 0x00, 0x10, 0x00,
  0x07, 0x00, 0x14, 0x00, 0x0E, 0x00, 0x00, 0x00, 0x00, 0x00,
  0x00, 0x05, 0x01, 0x00, 0x00, 0x00, 0x2C, 0x00, 0x00, 0x00,
  0x20, 0x00, 0x00, 0x00, 0x04, 0x00, 0x00, 0x00, 0x36, 0xFE,
  0xFF, 0xFF, 0x02, 0x00, 0x00, 0x00, 0x02, 0x00, 0x00, 0x00,
  0x02, 0x00, 0x00, 0x00, 0x02, 0x00, 0x00, 0x00, 0x00, 0x00,
  0x00, 0x01, 0x01, 0x00, 0x00, 0x00, 0x0B, 0x00, 0x00, 0x00,
  0x01, 0x00, 0x00, 0x00, 0x0A, 0x00, 0x00, 0x00, 0xC6, 0xD5,
  0xFF, 0xFF, 0x10, 0x00, 0x00, 0x00, 0x0C, 0x00, 0x00, 0x00,
  0x1C, 0x00, 0x00, 0x00, 0x4C, 0x00, 0x00, 0x00, 0x04, 0x00,
  0x00, 0x00, 0x01, 0x00, 0x00, 0x00, 0x03, 0x00, 0x00, 0x00,
  0x03, 0x00, 0x00, 0x00, 0x0A, 0x00, 0x00, 0x00, 0x2E, 0x00,
  0x00, 0x00, 0x6D, 0x6F, 0x64, 0x65, 0x6C, 0x5F, 0x31, 0x30,
  0x2F, 0x6D, 0x6F, 0x64, 0x65, 0x6C, 0x5F, 0x34, 0x2F, 0x65,
  0x78, 0x69, 0x74, 0x32, 0x2F, 0x6D, 0x61, 0x78, 0x5F, 0x70,
  0x6F, 0x6F, 0x6C, 0x69, 0x6E, 0x67, 0x32, 0x64, 0x5F, 0x33,
  0x2F, 0x4D, 0x61, 0x78, 0x50, 0x6F, 0x6F, 0x6C, 0x00, 0x00,
  0xDC, 0xD5, 0xFF, 0xFF, 0x3E, 0xFE, 0xFF, 0xFF, 0x00, 0x00,
  0x00, 0x01, 0x24, 0x00, 0x00, 0x00, 0x18, 0x00, 0x00, 0x00,
  0x04, 0x00, 0x00, 0x00, 0x30, 0xFE, 0xFF, 0xFF, 0x01, 0x00,
  0x00, 0x00, 0x01, 0x00, 0x00, 0x00, 0x00, 0x00, 0x00, 0x01,
  0x01, 0x00, 0x00, 0x00, 0x0A, 0x00, 0x00, 0x00, 0x03, 0x00,
  0x00, 0x00, 0x09, 0x00, 0x00, 0x00, 0x07, 0x00, 0x00, 0x00,
  0x02, 0x00, 0x00, 0x00, 0x62, 0xD6, 0xFF, 0xFF, 0x10, 0x00,
  0x00, 0x00, 0x0B, 0x00, 0x00, 0x00, 0x1C, 0x00, 0x00, 0x00,
  0xC8, 0x00, 0x00, 0x00, 0x04, 0x00, 0x00, 0x00, 0x01, 0x00,
  0x00, 0x00, 0x07, 0x00, 0x00, 0x00, 0x07, 0x00, 0x00, 0x00,
  0x0A, 0x00, 0x00, 0x00, 0xAA, 0x00, 0x00, 0x00, 0x6D, 0x6F,
  0x64, 0x65, 0x6C, 0x5F, 0x31, 0x30, 0x2F, 0x6D, 0x6F, 0x64,
  0x65, 0x6C, 0x5F, 0x34, 0x2F, 0x65, 0x78, 0x69, 0x74, 0x32,
  0x2F, 0x63, 0x6F, 0x6E, 0x76, 0x32, 0x64, 0x5F, 0x33, 0x2F,
  0x52, 0x65, 0x6C, 0x75, 0x3B, 0x6D, 0x6F, 0x64, 0x65, 0x6C,
  0x5F, 0x31, 0x30, 0x2F, 0x6D, 0x6F, 0x64, 0x65, 0x6C, 0x5F,
  0x34, 0x2F, 0x65, 0x78, 0x69, 0x74, 0x32, 0x2F, 0x63, 0x6F,
  0x6E, 0x76, 0x32, 0x64, 0x5F, 0x33, 0x2F, 0x42, 0x69, 0x61,
  0x73, 0x41, 0x64, 0x64, 0x3B, 0x6D, 0x6F, 0x64, 0x65, 0x6C,
  0x5F, 0x31, 0x30, 0x2F, 0x6D, 0x6F, 0x64, 0x65, 0x6C, 0x5F,
  0x34, 0x2F, 0x65, 0x78, 0x69, 0x74, 0x32, 0x2F, 0x63, 0x6F,
  0x6E, 0x76, 0x32, 0x64, 0x5F, 0x33, 0x2F, 0x43, 0x6F, 0x6E,
  0x76, 0x32, 0x44, 0x3B, 0x6D, 0x6F, 0x64, 0x65, 0x6C, 0x5F,
  0x31, 0x30, 0x2F, 0x6D, 0x6F, 0x64, 0x65, 0x6C, 0x5F, 0x34,
  0x2F, 0x65, 0x78, 0x69, 0x74, 0x32, 0x2F, 0x63, 0x6F, 0x6E,
  0x76, 0x32, 0x64, 0x5F, 0x33, 0x2F, 0x42, 0x69, 0x61, 0x73,
  0x41, 0x64, 0x64, 0x2F, 0x52, 0x65, 0x61, 0x64, 0x56, 0x61,
  0x72, 0x69, 0x61, 0x62, 0x6C, 0x65, 0x4F, 0x70, 0x00, 0x00,
  0x44, 0xD7, 0xFF, 0xFF, 0x00, 0x00, 0x0E, 0x00, 0x1A, 0x00,
  0x08, 0x00, 0x0C, 0x00, 0x10, 0x00, 0x07, 0x00, 0x14, 0x00,
  0x0E, 0x00, 0x00, 0x00, 0x00, 0x00, 0x00, 0x05, 0x01, 0x00,
  0x00, 0x00, 0x3C, 0x00, 0x00, 0x00, 0x30, 0x00, 0x00, 0x00,
  0x14, 0x00, 0x00, 0x00, 0x00, 0x00, 0x0E, 0x00, 0x18, 0x00,
  0x17, 0x00, 0x10, 0x00, 0x0C, 0x00, 0x08, 0x00, 0x04, 0x00,
  0x0E, 0x00, 0x00, 0x00, 0x02, 0x00, 0x00, 0x00, 0x02, 0x00,
  0x00, 0x00, 0x02, 0x00, 0x00, 0x00, 0x02, 0x00, 0x00, 0x00,
  0x00, 0x00, 0x00, 0x01, 0x01, 0x00, 0x00, 0x00, 0x09, 0x00,
  0x00, 0x00, 0x01, 0x00, 0x00, 0x00, 0x08, 0x00, 0x00, 0x00,
  0x5E, 0xFF, 0xFF, 0xFF, 0x00, 0x00, 0x00, 0x11, 0x01, 0x00,
  0x00, 0x00, 0xAA, 0xD7, 0xFF, 0xFF, 0x10, 0x00, 0x00, 0x00,
  0x0A, 0x00, 0x00, 0x00, 0x1C, 0x00, 0x00, 0x00, 0x28, 0x00,
  0x00, 0x00, 0x04, 0x00, 0x00, 0x00, 0x01, 0x00, 0x00, 0x00,
  0x07, 0x00, 0x00, 0x00, 0x07, 0x00, 0x00, 0x00, 0x0A, 0x00,
  0x00, 0x00, 0x08, 0x00, 0x00, 0x00, 0x49, 0x64, 0x65, 0x6E,
  0x74, 0x69, 0x74, 0x79, 0x00, 0x00, 0x00, 0x00, 0xEC, 0xD7,
  0xFF, 0xFF, 0x00, 0x00, 0x0E, 0x00, 0x14, 0x00, 0x00, 0x00,
  0x08, 0x00, 0x0C, 0x00, 0x07, 0x00, 0x10, 0x00, 0x0E, 0x00,
  0x00, 0x00, 0x00, 0x00, 0x00, 0x01, 0x30, 0x00, 0x00, 0x00,
  0x24, 0x00, 0x00, 0x00, 0x10, 0x00, 0x00, 0x00, 0x0C, 0x00,
  0x10, 0x00, 0x00, 0x00, 0x04, 0x00, 0x08, 0x00, 0x0F, 0x00,
  0x0C, 0x00, 0x00, 0x00, 0x01, 0x00, 0x00, 0x00, 0x01, 0x00,
  0x00, 0x00, 0x00, 0x00, 0x00, 0x01, 0x01, 0x00, 0x00, 0x00,
  0x08, 0x00, 0x00, 0x00, 0x03, 0x00, 0x00, 0x00, 0x00, 0x00,
  0x00, 0x00, 0x06, 0x00, 0x00, 0x00, 0x01, 0x00, 0x00, 0x00,
  0x00, 0x00, 0x0A, 0x00, 0x0C, 0x00, 0x07, 0x00, 0x00, 0x00,
  0x08, 0x00, 0x0A, 0x00, 0x00, 0x00, 0x00, 0x00, 0x00, 0x03,
  0x01, 0x00, 0x00, 0x00, 0x56, 0xD8, 0xFF, 0xFF, 0x10, 0x00,
  0x00, 0x00, 0x09, 0x00, 0x00, 0x00, 0x1C, 0x00, 0x00, 0x00,
  0x08, 0x01, 0x00, 0x00, 0x04, 0x00, 0x00, 0x00, 0x01, 0x00,
  0x00, 0x00, 0x0E, 0x00, 0x00, 0x00, 0x0E, 0x00, 0x00, 0x00,
  0x0A, 0x00, 0x00, 0x00, 0xE9, 0x00, 0x00, 0x00, 0x6D, 0x6F,
  0x64, 0x65, 0x6C, 0x5F, 0x31, 0x30, 0x2F, 0x6D, 0x6F, 0x64,
  0x65, 0x6C, 0x5F, 0x33, 0x2F, 0x62, 0x61, 0x73, 0x65, 0x5F,
  0x6D, 0x6F, 0x64, 0x65, 0x6C, 0x32, 0x2F, 0x63, 0x6F, 0x6E,
  0x76, 0x32, 0x64, 0x5F, 0x32, 0x2F, 0x52, 0x65, 0x6C, 0x75,
  0x3B, 0x6D, 0x6F, 0x64, 0x65, 0x6C, 0x5F, 0x31, 0x30, 0x2F,
  0x6D, 0x6F, 0x64, 0x65, 0x6C, 0x5F, 0x33, 0x2F, 0x62, 0x61,
  0x73, 0x65, 0x5F, 0x6D, 0x6F, 0x64, 0x65, 0x6C, 0x32, 0x2F,
  0x63, 0x6F, 0x6E, 0x76, 0x32, 0x64, 0x5F, 0x32, 0x2F, 0x42,
  0x69, 0x61, 0x73, 0x41, 0x64, 0x64, 0x3B, 0x6D, 0x6F, 0x64,
  0x65, 0x6C, 0x5F, 0x31, 0x30, 0x2F, 0x6D, 0x6F, 0x64, 0x65,
  0x6C, 0x5F, 0x34, 0x2F, 0x65, 0x78, 0x69, 0x74, 0x32, 0x2F,
  0x63, 0x6F, 0x6E, 0x76, 0x32, 0x64, 0x5F, 0x33, 0x2F, 0x43,
  0x6F, 0x6E, 0x76, 0x32, 0x44, 0x3B, 0x6D, 0x6F, 0x64, 0x65,
  0x6C, 0x5F, 0x31, 0x30, 0x2F, 0x6D, 0x6F, 0x64, 0x65, 0x6C,
  0x5F, 0x33, 0x2F, 0x62, 0x61, 0x73, 0x65, 0x5F, 0x6D, 0x6F,
  0x64, 0x65, 0x6C, 0x32, 0x2F, 0x63, 0x6F, 0x6E, 0x76, 0x32,
  0x64, 0x5F, 0x32, 0x2F, 0x43, 0x6F, 0x6E, 0x76, 0x32, 0x44,
  0x3B, 0x6D, 0x6F, 0x64, 0x65, 0x6C, 0x5F, 0x31, 0x30, 0x2F,
  0x6D, 0x6F, 0x64, 0x65, 0x6C, 0x5F, 0x33, 0x2F, 0x62, 0x61,
  0x73, 0x65, 0x5F, 0x6D, 0x6F, 0x64, 0x65, 0x6C, 0x32, 0x2F,
  0x63, 0x6F, 0x6E, 0x76, 0x32, 0x64, 0x5F, 0x32, 0x2F, 0x42,
  0x69, 0x61, 0x73, 0x41, 0x64, 0x64, 0x2F, 0x52, 0x65, 0x61,
  0x64, 0x56, 0x61, 0x72, 0x69, 0x61, 0x62, 0x6C, 0x65, 0x4F,
  0x70, 0x00, 0x00, 0x00, 0x28, 0xD9, 0xFF, 0xFF, 0x16, 0xDA,
  0xFF, 0xFF, 0x04, 0x00, 0x00, 0x00, 0x10, 0x0E, 0x00, 0x00,
  0x60, 0x36, 0x08, 0x3D, 0x95, 0x3D, 0x08, 0xBE, 0x61, 0x15,
  0xE9, 0x3D, 0x53, 0x66, 0xCC, 0xBD, 0x58, 0x73, 0xD9, 0xBC,
  0xB2, 0x21, 0x0B, 0xBD, 0x6B, 0xC9, 0x11, 0xBE, 0xDA, 0xFA,
  0x6A, 0x3C, 0xE0, 0xF0, 0x35, 0x3D, 0xAB, 0x7E, 0x75, 0xBE,
  0x32, 0x8D, 0x40, 0xBE, 0x19, 0x63, 0x95, 0xBE, 0x7C, 0x4C,
  0x87, 0x3D, 0x68, 0x03, 0xCC, 0x3D, 0x99, 0x23, 0x2E, 0xBE,
  0xA2, 0xC0, 0x24, 0xBD, 0x25, 0x40, 0x70, 0xBD, 0x0E, 0xD4,
  0xD7, 0xBD, 0x79, 0x24, 0x5D, 0xBE, 0x02, 0xFD, 0x55, 0x3C,
  0x07, 0x3F, 0x30, 0x3E, 0xDE, 0xFA, 0x28, 0x3D, 0xDA, 0xFB,
  0xD9, 0xBD, 0x68, 0x1F, 0xDC, 0x3B, 0x8E, 0xEF, 0x2B, 0xBE,
  0xFA, 0xA2, 0xD6, 0x3D, 0xD9, 0xE1, 0x3D, 0x3E, 0xC8, 0xCD,
  0x59, 0x3E, 0xA8, 0x9E, 0x18, 0x3E, 0xE5, 0xB8, 0x68, 0xBD,
  0x1D, 0xF7, 0x18, 0x3E, 0x5F, 0xB0, 0xB5, 0xBD, 0xB4, 0xAE,
  0x2F, 0x3E, 0x3B, 0x4B, 0x20, 0xBE, 0x96, 0x30, 0x09, 0xBE,
  0x35, 0xE7, 0x41, 0x3D, 0xFE, 0x6B, 0xAE, 0x3D, 0xC0, 0xAE,
  0x39, 0xBE, 0x2B, 0x97, 0xBC, 0x3B, 0xFD, 0xF1, 0xD8, 0xBD,
  0xFC, 0xF5, 0x87, 0xBC, 0x0D, 0xAA, 0x13, 0xBE, 0x7C, 0x6D,
  0x89, 0x3D, 0x23, 0x25, 0x11, 0x3C, 0x76, 0x1B, 0x18, 0x3D,
  0x4B, 0x69, 0x17, 0xBE, 0x32, 0x4B, 0x1F, 0x3E, 0x62, 0xFC,
  0xA4, 0xBD, 0x86, 0x6B, 0xC9, 0x3D, 0x83, 0x70, 0xA9, 0x3D,
  0xBF, 0xB4, 0x11, 0x3E, 0x36, 0xEF, 0x58, 0xBD, 0x7F, 0xBA,
  0x2A, 0xBE, 0x83, 0x17, 0x5D, 0x3C, 0xAD, 0x24, 0x14, 0x3C,
  0xA5, 0x43, 0x8D, 0x3D, 0x8D, 0xFF, 0x45, 0x3E, 0xA1, 0x1D,
  0x70, 0x3E, 0x8E, 0x04, 0xC9, 0xBC, 0x3A, 0x87, 0x22, 0xBE,
  0x9D, 0x5D, 0x3A, 0x3D, 0x34, 0xC0, 0x73, 0xBE, 0x2F, 0x65,
  0x86, 0xBE, 0x3D, 0x3B, 0x10, 0x3E, 0x24, 0xE1, 0x29, 0xBE,
  0x3F, 0xD0, 0x46, 0x3B, 0xD0, 0x23, 0x5D, 0x3D, 0x02, 0x57,
  0x84, 0x3E, 0xB9, 0x9B, 0xA0, 0xBD, 0x07, 0x49, 0xD2, 0x3D,
  0xBB, 0xC8, 0xD1, 0xBD, 0x68, 0x4C, 0x09, 0xBE, 0xA3, 0x8A,
  0x80, 0xBD, 0xB1, 0xBD, 0x5F, 0xBE, 0xAB, 0xB2, 0xAF, 0xBC,
  0x17, 0x90, 0x7C, 0x3E, 0x7A, 0x8A, 0x95, 0x3D, 0xF9, 0x87,
  0x81, 0x3E, 0x6B, 0x90, 0x2D, 0x3D, 0x99, 0x5C, 0xCB, 0x3C,
  0x90, 0xCC, 0xB5, 0x3D, 0xF9, 0x72, 0x37, 0x3E, 0xBF, 0xEF,
  0x35, 0x3E, 0xFF, 0x24, 0x3C, 0xBE, 0x07, 0x29, 0x65, 0x3E,
  0xDF, 0xDB, 0x44, 0x3D, 0xA5, 0x74, 0xBC, 0x3C, 0x76, 0x60,
  0x10, 0xBD, 0xCB, 0x6C, 0xBC, 0xBD, 0x4C, 0xD2, 0x92, 0xBD,
  0xE0, 0xFF, 0x40, 0x3E, 0x70, 0xCF, 0xE9, 0xBB, 0x34, 0x62,
  0x93, 0xBD, 0xBE, 0x7A, 0x2D, 0xBC, 0x62, 0x11, 0xD8, 0x3D,
  0xCA, 0x6D, 0x8C, 0x3D, 0x07, 0x7D, 0x05, 0xBD, 0xA6, 0x90,
  0x3E, 0xBD, 0x8B, 0x20, 0x73, 0x3D, 0xFC, 0xF6, 0x85, 0x3C,
  0x4D, 0xFA, 0x0D, 0x3E, 0x55, 0xE8, 0x3C, 0xBE, 0x27, 0x09,
  0x82, 0x3E, 0xE2, 0xEC, 0x76, 0x3E, 0x72, 0xC1, 0xC6, 0x3C,
  0xFD, 0xAF, 0x93, 0x3B, 0xA3, 0x42, 0x0F, 0x3C, 0xFD, 0xD7,
  0xA5, 0x3D, 0xA4, 0xDC, 0x1B, 0xBE, 0xA2, 0x48, 0x61, 0xBD,
  0x37, 0x9E, 0x21, 0x3E, 0x23, 0x54, 0x0C, 0xBE, 0x37, 0xA5,
  0x28, 0xBE, 0x7E, 0xD6, 0x35, 0x3E, 0x27, 0xC9, 0x1B, 0x3D,
  0x1D, 0x57, 0x37, 0x3E, 0x1D, 0x9D, 0x46, 0x3E, 0x91, 0x05,
  0x54, 0x3E, 0x9E, 0x3C, 0x26, 0x3E, 0x94, 0xFF, 0x91, 0x3C,
  0x22, 0x62, 0x1F, 0xBE, 0x1A, 0x7C, 0x86, 0x3D, 0x5E, 0x6F,
  0x06, 0xBE, 0x52, 0x86, 0x5E, 0x3D, 0x6A, 0x7D, 0xEC, 0x3D,
  0x45, 0xDF, 0x0D, 0xBE, 0xC0, 0xFE, 0xD5, 0xBD, 0xCB, 0xF0,
  0x1D, 0xBE, 0xED, 0x9F, 0xBA, 0xBD, 0xFD, 0xC5, 0x33, 0xBD,
  0x08, 0x52, 0xDA, 0xBD, 0xD3, 0xEF, 0x2F, 0xBE, 0x13, 0x3F,
  0x5A, 0xBD, 0xD7, 0x20, 0x6B, 0x3D, 0x20, 0x27, 0x0E, 0xBD,
  0xD9, 0x7D, 0x6B, 0x3E, 0xFF, 0x65, 0x8B, 0x3B, 0x39, 0xE4,
  0x84, 0x3D, 0x41, 0xE5, 0x89, 0xBE, 0xE9, 0xC6, 0xCF, 0xBD,
  0x1F, 0x67, 0x09, 0x3E, 0x0A, 0x95, 0x99, 0xBD, 0x45, 0xE4,
  0x9E, 0xBA, 0xD1, 0x9E, 0x85, 0x3E, 0x77, 0xE9, 0x77, 0xBE,
  0x34, 0xD6, 0xC5, 0xBC, 0x4C, 0x8D, 0x48, 0x3E, 0xCF, 0x52,
  0x3F, 0x3E, 0xA6, 0xD3, 0x7D, 0x3C, 0xE7, 0x9B, 0x8F, 0xBC,
  0x44, 0x38, 0x82, 0xBE, 0xAD, 0x4F, 0xF8, 0xBD, 0xD9, 0x7A,
  0x2F, 0xBE, 0xF8, 0xFA, 0xFF, 0xBD, 0x32, 0x35, 0x8B, 0xBD,
  0xB0, 0x4A, 0x22, 0x3C, 0x47, 0xBC, 0x66, 0xBE, 0xF6, 0x9E,
  0x75, 0xBE, 0x37, 0xAC, 0x00, 0xBE, 0xD8, 0x0B, 0xBF, 0x3C,
  0x77, 0xF6, 0x56, 0xBE, 0x56, 0xF0, 0x30, 0xBE, 0x1D, 0x6F,
  0x80, 0x3D, 0x07, 0x0D, 0x5B, 0x3D, 0x2F, 0x18, 0x3F, 0xBE,
  0xED, 0xAA, 0xCB, 0x3D, 0x50, 0x2E, 0xD1, 0xBC, 0xA9, 0x72,
  0x1D, 0xBE, 0x98, 0x44, 0x51, 0x3C, 0x81, 0x49, 0x9C, 0xBE,
  0x6F, 0xD7, 0x49, 0x3E, 0x4E, 0x1B, 0x7D, 0xBD, 0x32, 0x11,
  0x2C, 0xBE, 0x7F, 0x82, 0x0F, 0xBD, 0xA6, 0xB5, 0x5D, 0x3D,
  0x01, 0x2E, 0x4F, 0x3D, 0xBE, 0xA6, 0xB8, 0x3C, 0x01, 0x4E,
  0x31, 0x3E, 0x3E, 0x50, 0x89, 0xBC, 0x8A, 0x0A, 0x0F, 0x3D,
  0xDE, 0x5D, 0x7E, 0xBD, 0x76, 0x8C, 0x11, 0xBD, 0xC2, 0x5C,
  0x65, 0x3D, 0x87, 0x6A, 0x26, 0xBE, 0x93, 0x56, 0xE8, 0x3D,
  0xC3, 0x63, 0x3B, 0xBD, 0xC4, 0xB4, 0xBA, 0x3C, 0x12, 0x47,
  0x32, 0x38, 0x74, 0x0F, 0xF7, 0x3D, 0x90, 0x25, 0xF7, 0xBD,
  0xBF, 0x4E, 0xF1, 0xBD, 0xB4, 0x24, 0x02, 0xBE, 0x67, 0x07,
  0xDD, 0xBC, 0x10, 0x8D, 0x5A, 0x3D, 0xC5, 0x70, 0x7F, 0xBD,
  0x58, 0x29, 0xA1, 0x3D, 0xA2, 0x32, 0x54, 0xBD, 0xCB, 0x84,
  0x2D, 0x3E, 0xE4, 0x41, 0xEA, 0x3D, 0x29, 0xDA, 0x26, 0xBD,
  0xF1, 0x0E, 0xE3, 0xBD, 0xE9, 0x21, 0x0F, 0xBE, 0x48, 0x9B,
  0x73, 0x3E, 0x4D, 0xBF, 0xA6, 0xBD, 0xDB, 0xA3, 0xAD, 0xBC,
  0x21, 0x5C, 0xB4, 0x3D, 0x16, 0xE4, 0xCC, 0x3D, 0x31, 0x42,
  0x5C, 0xBD, 0x47, 0x5D, 0xE9, 0x3D, 0x13, 0x39, 0x61, 0x3E,
  0xFA, 0xB8, 0x91, 0xBD, 0x76, 0x86, 0x04, 0xBE, 0xC5, 0x3A,
  0x87, 0x3E, 0x59, 0x4E, 0x9A, 0xBD, 0x4D, 0x59, 0x95, 0x3D,
  0x87, 0x2C, 0x44, 0xBE, 0x9F, 0x44, 0x1D, 0xBE, 0xB9, 0xB4,
  0x9F, 0x3D, 0x5E, 0xC7, 0x17, 0xBD, 0x95, 0x21, 0x09, 0xBD,
  0x7E, 0xDB, 0xF9, 0x3D, 0x49, 0x7A, 0x14, 0x3D, 0x51, 0x2D,
  0xB4, 0x3D, 0xAA, 0x14, 0xC3, 0x3C, 0x39, 0x03, 0x53, 0x3D,
  0xD2, 0x1A, 0x1C, 0x3E, 0x71, 0xBF, 0x82, 0x3D, 0x92, 0xAB,
  0x22, 0x3C, 0x28, 0x09, 0x82, 0xBD, 0xB1, 0x0A, 0x1F, 0x3E,
  0xF2, 0xA8, 0xB0, 0xBC, 0x37, 0x27, 0x18, 0x3E, 0x3D, 0xA0,
  0xF5, 0xBD, 0xBF, 0x0B, 0xD5, 0x3D, 0x37, 0x14, 0xC3, 0xBD,
  0x56, 0x93, 0x93, 0xBD, 0x43, 0x11, 0xC1, 0xBD, 0x04, 0xD0,
  0xD9, 0xBD, 0x23, 0xDB, 0xEE, 0xBD, 0x66, 0x5A, 0x61, 0x3D,
  0xE4, 0x19, 0x67, 0x3E, 0x65, 0x77, 0x11, 0x3E, 0x90, 0x21,
  0x5E, 0x3D, 0x8F, 0x87, 0xB4, 0xBD, 0xBA, 0x76, 0xC5, 0xBD,
  0xF9, 0x6B, 0x29, 0x3E, 0x70, 0x6B, 0x38, 0xBD, 0x14, 0x0A,
  0xD5, 0xBD, 0x7A, 0xB1, 0x39, 0x3E, 0xAB, 0xA8, 0x06, 0x3E,
  0xB6, 0x0A, 0x2C, 0x3C, 0x74, 0xD3, 0xB4, 0x3D, 0x62, 0xD6,
  0x5F, 0x3E, 0xA6, 0x71, 0xB2, 0x3B, 0xF1, 0xC5, 0xAD, 0x3D,
  0x1B, 0xFF, 0xB5, 0x3B, 0xDF, 0x4E, 0x9D, 0x3E, 0xC5, 0x98,
  0x0E, 0x3E, 0xC5, 0xEF, 0x33, 0x3D, 0xCE, 0x46, 0xF2, 0x3D,
  0x14, 0x56, 0x7F, 0xBD, 0x5F, 0x24, 0xF4, 0xBD, 0xB0, 0x14,
  0x3F, 0x3E, 0x4F, 0xF7, 0x9D, 0xBE, 0xBF, 0xBB, 0xCC, 0xBD,
  0x06, 0x82, 0x58, 0xBE, 0xF4, 0x6C, 0x3D, 0xBE, 0x79, 0x42,
  0x24, 0x3E, 0x98, 0xDA, 0x60, 0x3C, 0x11, 0x44, 0xF9, 0x3C,
  0x08, 0x52, 0x6D, 0xBD, 0x54, 0xE8, 0x9E, 0x3D, 0x4D, 0x15,
  0xC8, 0xBD, 0x9A, 0x93, 0xB8, 0x3D, 0x7D, 0x04, 0x82, 0x3D,
  0x37, 0x25, 0xC3, 0x3D, 0xED, 0x9C, 0x92, 0xBD, 0x12, 0xEE,
  0x62, 0x3E, 0xB3, 0xEA, 0x5A, 0x3C, 0x5C, 0x39, 0xD1, 0x3D,
  0x48, 0xB6, 0xCF, 0x3D, 0x8E, 0x73, 0x4C, 0x3E, 0x06, 0x2D,
  0x32, 0x3C, 0x00, 0x6E, 0x31, 0x3C, 0xBE, 0xCE, 0xA8, 0xBC,
  0x3A, 0x0E, 0xCD, 0x3D, 0x08, 0x5C, 0x50, 0x3E, 0xF8, 0x3C,
  0xF2, 0xBD, 0x68, 0x8E, 0xD4, 0x3D, 0xA1, 0x45, 0xEE, 0xBD,
  0x9B, 0x87, 0x88, 0xBD, 0xCC, 0xDB, 0xCE, 0xBD, 0x56, 0x85,
  0x57, 0x3D, 0x02, 0x30, 0x47, 0x3E, 0x91, 0x3D, 0x80, 0x3C,
  0xB1, 0x98, 0x1B, 0xBD, 0xD3, 0x73, 0xEB, 0xBC, 0x73, 0x58,
  0x65, 0xBD, 0xB1, 0xFB, 0x21, 0xBD, 0xD9, 0xC5, 0x11, 0xBE,
  0xE4, 0x7C, 0x76, 0x3E, 0x39, 0x16, 0xEE, 0x3D, 0x46, 0xFC,
  0xA0, 0xBE, 0xCD, 0x15, 0x6B, 0x3D, 0x8D, 0x0F, 0x8A, 0x3E,
  0x4F, 0x37, 0xF4, 0x3D, 0x46, 0x86, 0xF0, 0x3D, 0x6C, 0x3E,
  0x12, 0xBE, 0xEF, 0xDA, 0xB5, 0xBB, 0x96, 0x54, 0xE2, 0x3D,
  0x34, 0xE5, 0x47, 0x3E, 0xFE, 0x13, 0x4E, 0x3D, 0x53, 0xE8,
  0xE8, 0x3D, 0x8B, 0x34, 0x75, 0xBE, 0x28, 0x16, 0x71, 0x3E,
  0xAE, 0xEC, 0xA4, 0xBC, 0xD9, 0x0E, 0x3D, 0x3E, 0x6F, 0x15,
  0x3B, 0x3E, 0xEB, 0x90, 0xD5, 0x3D, 0x28, 0x8B, 0xE2, 0xBC,
  0x27, 0xB7, 0x43, 0x3E, 0xF7, 0x35, 0x88, 0x3D, 0xDB, 0xC5,
  0x36, 0x3E, 0xAB, 0x40, 0xC3, 0x3D, 0x4D, 0xD9, 0x56, 0xBE,
  0xC9, 0x3C, 0x9A, 0x3D, 0x30, 0x19, 0xD3, 0x3D, 0x05, 0x39,
  0xCF, 0xBD, 0xBC, 0x3E, 0x21, 0x3E, 0xFE, 0xCA, 0x41, 0x3D,
  0x1F, 0x63, 0x39, 0x3E, 0xFF, 0x47, 0xA3, 0xBD, 0x3B, 0x8B,
  0x2D, 0x3D, 0xF6, 0xC2, 0x74, 0xBD, 0x6B, 0xD8, 0x25, 0x3E,
  0x69, 0x90, 0x42, 0xBE, 0xA2, 0x11, 0xB4, 0xBC, 0x94, 0xE3,
  0x92, 0x3D, 0x00, 0xB2, 0xD3, 0x3D, 0x63, 0x75, 0x22, 0xBE,
  0xCE, 0xF3, 0x8B, 0xBE, 0xD2, 0x8A, 0x5A, 0xBE, 0xA7, 0x36,
  0xEE, 0xBC, 0xA4, 0x72, 0x0C, 0x3E, 0x79, 0x06, 0x94, 0x3D,
  0x6C, 0x68, 0xF8, 0x3D, 0x11, 0x4F, 0x86, 0xBE, 0xA1, 0xF8,
  0xBD, 0x3D, 0x8A, 0xCE, 0xE5, 0xBC, 0x8B, 0xA4, 0xA4, 0x3C,
  0x26, 0x0A, 0x3B, 0xBE, 0x6A, 0x47, 0xF9, 0x3D, 0x7C, 0x49,
  0x14, 0xBD, 0x32, 0x08, 0x8A, 0x3E, 0x6B, 0x79, 0x50, 0xBD,
  0x86, 0xBC, 0xAA, 0xBD, 0x11, 0xD1, 0x22, 0xBE, 0x76, 0xFC,
  0x07, 0x3C, 0xB9, 0xAC, 0xAB, 0xBD, 0x23, 0xA3, 0x74, 0xBB,
  0x30, 0xA8, 0x36, 0xBE, 0x98, 0x6E, 0x06, 0xBE, 0xD1, 0x74,
  0x6A, 0xBD, 0xFC, 0x54, 0xC0, 0xBC, 0x69, 0x91, 0x58, 0xBD,
  0x77, 0x5A, 0x57, 0xBD, 0x70, 0x1F, 0xD1, 0x3D, 0x71, 0x76,
  0x18, 0x3E, 0x7A, 0x21, 0x3C, 0xBE, 0xA5, 0x79, 0x66, 0xBE,
  0x56, 0x68, 0x39, 0xBD, 0x8E, 0xF5, 0x90, 0x3D, 0xE4, 0xB1,
  0x0E, 0xBD, 0x64, 0xC8, 0x68, 0x3E, 0x9A, 0x48, 0x60, 0xBE,
  0xCA, 0xCD, 0x49, 0xBD, 0x74, 0xFF, 0x12, 0x3E, 0x9F, 0xEF,
  0x5F, 0x3E, 0x3A, 0x5D, 0x8C, 0xBA, 0x18, 0x70, 0x08, 0xBD,
  0x30, 0x3B, 0xB3, 0x3D, 0xED, 0x49, 0xEA, 0x3A, 0xC1, 0x2A,
  0x66, 0x3E, 0xF0, 0x8D, 0xC9, 0x3D, 0xBA, 0x9F, 0x68, 0xBE,
  0x53, 0x9D, 0x4E, 0x3E, 0x2D, 0x89, 0x0C, 0x3E, 0x68, 0x3A,
  0x0B, 0xBE, 0x00, 0x3E, 0x96, 0x3D, 0xFC, 0x74, 0xA9, 0x3D,
  0x0A, 0x46, 0x2C, 0xBE, 0x45, 0xAC, 0x04, 0xBD, 0x13, 0xFF,
  0xB4, 0x3D, 0xAD, 0x1D, 0x8A, 0x3D, 0x59, 0x96, 0x7D, 0x3C,
  0xA2, 0xF8, 0x3F, 0x3D, 0x70, 0x3C, 0x13, 0xBE, 0x7B, 0x9A,
  0x72, 0x3E, 0x9D, 0xF7, 0x1D, 0xBD, 0x66, 0xB9, 0xC9, 0xBD,
  0x95, 0x5B, 0x97, 0x3D, 0x4F, 0x18, 0x9D, 0x3D, 0x0F, 0xE5,
  0x6B, 0x3D, 0x97, 0xA1, 0x14, 0xBE, 0x2E, 0x27, 0x47, 0xBE,
  0x7E, 0xD9, 0x3F, 0xBE, 0xD5, 0x45, 0x56, 0xBD, 0x8C, 0x5E,
  0x55, 0xBE, 0x51, 0x92, 0xB5, 0x3C, 0xAA, 0x29, 0x8A, 0xBD,
  0xAD, 0x9E, 0x81, 0xBE, 0x2E, 0x9E, 0x35, 0xBE, 0xA1, 0x05,
  0x07, 0x3E, 0x22, 0x3B, 0x31, 0x3E, 0xA1, 0x09, 0x0C, 0x3E,
  0x4E, 0xAB, 0x23, 0x3D, 0x9D, 0x57, 0x97, 0xBD, 0x8C, 0x36,
  0xF0, 0x3C, 0x68, 0x05, 0x73, 0x3D, 0x79, 0x59, 0x85, 0xBE,
  0x98, 0xDF, 0x5C, 0x3E, 0xFC, 0x70, 0xC3, 0x3D, 0xC0, 0x1B,
  0x27, 0x3D, 0x6C, 0xBE, 0xD4, 0x3D, 0x1B, 0x92, 0x07, 0xBE,
  0x04, 0x83, 0x1F, 0xBE, 0x03, 0x2B, 0xC9, 0xBD, 0x49, 0x14,
  0x02, 0x3E, 0xDD, 0x1B, 0x94, 0x3D, 0x56, 0xE3, 0x40, 0x3D,
  0x81, 0xA4, 0x5E, 0x3E, 0x4A, 0x50, 0x31, 0x3E, 0xA8, 0x3A,
  0x22, 0x3C, 0x70, 0x73, 0x9D, 0xBD, 0x1B, 0xC2, 0xCE, 0x3D,
  0x60, 0x8B, 0x80, 0xBD, 0xA4, 0xC9, 0x10, 0x3E, 0x30, 0x50,
  0x90, 0xBC, 0x93, 0x2F, 0x9C, 0x3D, 0xDE, 0xEC, 0x11, 0x3E,
  0x78, 0x3F, 0xF1, 0xBC, 0x49, 0xE4, 0xE7, 0x3D, 0x2F, 0x76,
  0x51, 0x3E, 0xFA, 0xDC, 0xEB, 0x3D, 0x4C, 0xFD, 0x3E, 0xBE,
  0xAE, 0x7B, 0x5A, 0x3E, 0xCF, 0xF8, 0xAE, 0x3D, 0xA6, 0xE0,
  0xFE, 0x3C, 0xD7, 0xEF, 0x8A, 0xBD, 0xAB, 0x00, 0x62, 0x3E,
  0x9D, 0x98, 0x67, 0x3E, 0xFC, 0x43, 0xF5, 0x3D, 0x15, 0x77,
  0x19, 0xBD, 0x8C, 0xE1, 0x72, 0x3A, 0xE0, 0xAE, 0xB2, 0x3C,
  0x39, 0x22, 0x69, 0x3D, 0x66, 0x7B, 0x06, 0x3D, 0x54, 0x83,
  0xAE, 0x3C, 0x1B, 0x07, 0x05, 0xBD, 0x80, 0x64, 0xAB, 0x3D,
  0x99, 0x26, 0x73, 0x3E, 0xB0, 0xA8, 0x8C, 0x3E, 0x75, 0x2D,
  0xD7, 0x3D, 0x0A, 0x4E, 0x03, 0x3E, 0x9A, 0xAA, 0xBF, 0x3D,
  0x3B, 0xE0, 0xB4, 0xBD, 0xB8, 0x69, 0x46, 0x3E, 0x36, 0x8D,
  0xC6, 0xBD, 0xD5, 0xD0, 0x83, 0xBA, 0xAE, 0x89, 0x9A, 0xBD,
  0x72, 0xBC, 0xFB, 0xBC, 0x1A, 0x43, 0x35, 0x3E, 0x88, 0x26,
  0x38, 0x3D, 0x86, 0xD1, 0x8A, 0x3E, 0x70, 0x04, 0x96, 0x3C,
  0x9F, 0x3A, 0x83, 0xBD, 0x71, 0xAB, 0x16, 0x3E, 0xD0, 0x5D,
  0x92, 0x3C, 0x4D, 0x28, 0x2D, 0xBD, 0x70, 0x63, 0xFA, 0x3C,
  0x18, 0xBF, 0xA2, 0x3C, 0x5D, 0xF0, 0x8C, 0x3D, 0xCC, 0x06,
  0x6A, 0x3B, 0xE7, 0x7F, 0x96, 0x3C, 0x42, 0x0A, 0x88, 0x3D,
  0x67, 0x92, 0x34, 0xBE, 0x4D, 0x51, 0x58, 0xBE, 0x84, 0x23,
  0xF2, 0x3D, 0xE4, 0x9F, 0x87, 0xBE, 0x43, 0xC9, 0x34, 0xBE,
  0xA5, 0x80, 0x96, 0xBE, 0x66, 0xF3, 0x04, 0xBE, 0x77, 0x8F,
  0x42, 0xBE, 0xD3, 0xF4, 0x32, 0xBE, 0x7C, 0x65, 0x92, 0x3E,
  0x9A, 0xE1, 0x3B, 0x3D, 0x54, 0x82, 0x50, 0xBE, 0x0C, 0x51,
  0x25, 0x3D, 0x2D, 0xA9, 0x7B, 0xBD, 0x80, 0x64, 0x33, 0xBE,
  0xCF, 0xD7, 0xF3, 0xBD, 0xFE, 0xDF, 0x9D, 0x3D, 0x53, 0x44,
  0x15, 0xBE, 0x61, 0x4D, 0xF3, 0xBC, 0xEF, 0x1D, 0x47, 0xBB,
  0x1B, 0x24, 0x77, 0xBE, 0xC1, 0x94, 0x4F, 0xBE, 0x54, 0x4C,
  0xAB, 0x3C, 0xAB, 0x86, 0x86, 0xBD, 0x09, 0xFA, 0xD1, 0x3D,
  0xB4, 0x7A, 0x13, 0xBD, 0xD7, 0xE6, 0xD2, 0xBD, 0x91, 0x87,
  0xFC, 0x3D, 0x2A, 0x9D, 0xB2, 0xBD, 0x7C, 0x3A, 0x2A, 0xBE,
  0x0E, 0x42, 0x2D, 0xBD, 0x1A, 0xD0, 0x7C, 0xBD, 0x0E, 0x20,
  0x57, 0x3E, 0x8E, 0x09, 0x27, 0xBE, 0x6B, 0x8C, 0x3D, 0x3E,
  0x50, 0x9B, 0x9B, 0x3D, 0x56, 0xFE, 0x17, 0x3D, 0x56, 0x3E,
  0x87, 0xBC, 0xB1, 0x3F, 0xCE, 0xBD, 0xAB, 0xB2, 0x5B, 0xBE,
  0xE3, 0x2A, 0x06, 0x3C, 0xBC, 0xBB, 0x82, 0xBB, 0x4A, 0xEE,
  0x79, 0xBC, 0xC8, 0xC4, 0xC6, 0x3C, 0x7F, 0x3B, 0x7C, 0x3E,
  0x48, 0x35, 0x76, 0x3E, 0x4B, 0xFF, 0xCB, 0xBC, 0xA2, 0x1A,
  0x7F, 0x3E, 0x6F, 0xD6, 0x48, 0xBE, 0x69, 0xAD, 0xC9, 0x3D,
  0x0A, 0x88, 0x9F, 0x3D, 0xBC, 0x33, 0x46, 0x3D, 0x38, 0xF6,
  0x48, 0xBE, 0x58, 0xF5, 0x7A, 0x3E, 0xA7, 0xF7, 0x1A, 0x3E,
  0x09, 0x2B, 0x3F, 0x3D, 0x1A, 0x72, 0xE6, 0xBD, 0x74, 0x51,
  0x00, 0x3E, 0x60, 0x05, 0x91, 0x3C, 0x50, 0x3B, 0x75, 0xBD,
  0x40, 0xB3, 0x9B, 0xBD, 0xA1, 0x0E, 0xE1, 0xBD, 0xFC, 0xD5,
  0xC4, 0xBD, 0xC6, 0x4A, 0x17, 0x3E, 0xA1, 0xEC, 0x8B, 0x3E,
  0xD5, 0x89, 0x19, 0xBE, 0xBE, 0xFB, 0xA3, 0xBD, 0x19, 0xFA,
  0x9C, 0x3D, 0x2E, 0x5B, 0x87, 0x3E, 0x53, 0x34, 0xFC, 0xBD,
  0x0F, 0x1B, 0x1E, 0xBD, 0xA0, 0x97, 0x43, 0xBE, 0x73, 0xC7,
  0x05, 0xBE, 0xAB, 0x21, 0x84, 0x3D, 0x35, 0x48, 0xD9, 0xBD,
  0xF9, 0xA9, 0xE6, 0xBD, 0xED, 0x34, 0x17, 0x3C, 0xC2, 0x1E,
  0x18, 0x3E, 0xA4, 0xFF, 0xD7, 0x3E, 0xBE, 0x90, 0x0D, 0xBD,
  0xFC, 0xDC, 0x00, 0xBE, 0xE3, 0x32, 0x1D, 0xBC, 0xA9, 0xA4,
  0xDB, 0xBD, 0x51, 0xB4, 0x21, 0xBD, 0xDA, 0x73, 0x30, 0x3C,
  0x5D, 0x4B, 0x71, 0xBD, 0xA8, 0x86, 0x6A, 0x3E, 0x22, 0x29,
  0xA3, 0xBD, 0xF0, 0x3B, 0x1A, 0x3C, 0x9A, 0x96, 0x8D, 0x3D,
  0xDB, 0xF4, 0x35, 0x3E, 0xB2, 0xED, 0x30, 0x3E, 0x45, 0x56,
  0xD2, 0x3D, 0x62, 0xBB, 0xAC, 0xBD, 0xA4, 0x51, 0x97, 0xBC,
  0xE1, 0x64, 0x66, 0xBD, 0x23, 0x6A, 0x1B, 0x3D, 0x93, 0xD6,
  0x92, 0x3E, 0x79, 0x97, 0x64, 0x3E, 0x10, 0x83, 0xE4, 0xBD,
  0x3D, 0xCC, 0xBC, 0x3B, 0x03, 0x45, 0xD3, 0x3D, 0xE4, 0xAE,
  0x33, 0xBE, 0x2E, 0x05, 0x49, 0x3E, 0xA0, 0xFD, 0x7B, 0x3E,
  0x0E, 0x65, 0xC7, 0x3C, 0xAF, 0x9C, 0x88, 0xBD, 0x68, 0xAC,
  0xA3, 0x3E, 0x22, 0x0C, 0x82, 0x3D, 0xCE, 0x86, 0xA1, 0xBE,
  0x89, 0xDD, 0xFE, 0xBD, 0xB7, 0x2A, 0x59, 0x3E, 0xD9, 0x66,
  0xB8, 0xBE, 0xF2, 0x85, 0x47, 0x3E, 0x7C, 0x53, 0x8E, 0x3D,
  0x52, 0x80, 0x2D, 0x3E, 0xAB, 0x94, 0x25, 0xBD, 0xFE, 0xDE,
  0x5D, 0x3D, 0xA6, 0x43, 0x36, 0xBD, 0x70, 0x01, 0x97, 0xBD,
  0x00, 0x0D, 0xD5, 0x3D, 0x04, 0x92, 0xA2, 0xBD, 0xB5, 0x88,
  0xC8, 0xBE, 0xE1, 0x77, 0x18, 0x3E, 0x1F, 0xD4, 0x2C, 0x3E,
  0xE7, 0x73, 0x80, 0x3D, 0xF4, 0xBE, 0xF2, 0xBD, 0xCB, 0xEB,
  0xDE, 0xBC, 0xE0, 0x43, 0x3B, 0xBD, 0x0C, 0xDD, 0x9C, 0xBD,
  0x0A, 0xBE, 0x01, 0xBD, 0x72, 0xAC, 0x09, 0x3E, 0x7C, 0x60,
  0x84, 0xBE, 0x76, 0x68, 0x26, 0xBE, 0x4B, 0x32, 0x12, 0xBE,
  0x87, 0xB7, 0x14, 0xBD, 0xD5, 0xEB, 0x97, 0xBD, 0x5B, 0xD8,
  0x17, 0xBE, 0xE3, 0xAE, 0x78, 0x3E, 0xE0, 0x9B, 0x40, 0x3D,
  0x87, 0x72, 0x07, 0x3D, 0x0B, 0xBA, 0x94, 0x3D, 0x0A, 0x5E,
  0x91, 0x3D, 0x42, 0x1A, 0x01, 0x3C, 0x0C, 0x5E, 0x0C, 0x3D,
  0x8F, 0x49, 0x30, 0xBC, 0xAF, 0x0E, 0x87, 0xBD, 0xFC, 0x5B,
  0x0E, 0x3E, 0x27, 0xF7, 0x3A, 0xBC, 0x2A, 0x86, 0x66, 0xBE,
  0x80, 0x91, 0x03, 0xBB, 0x0B, 0x25, 0x81, 0xBD, 0x0E, 0xF7,
  0x01, 0x3D, 0x19, 0xCD, 0x97, 0x3D, 0xAE, 0x87, 0x81, 0x3E,
  0x90, 0x4F, 0x2A, 0x3E, 0x00, 0xCE, 0x8C, 0x3C, 0xD3, 0x80,
  0xA9, 0x3D, 0x01, 0x26, 0x4F, 0xBE, 0xB8, 0x41, 0x88, 0xBE,
  0xB4, 0xE8, 0x6D, 0xBE, 0x1D, 0x7A, 0x7E, 0xBD, 0x9A, 0x42,
  0x94, 0xBE, 0x14, 0x1F, 0x37, 0x3D, 0x79, 0xD1, 0xB8, 0xBB,
  0xFB, 0x81, 0x0A, 0x3E, 0xE4, 0x17, 0x1F, 0xBE, 0x9B, 0x37,
  0x18, 0x3D, 0xAA, 0xEE, 0x6D, 0xBD, 0x42, 0xE0, 0x43, 0xBE,
  0x1D, 0xB1, 0x1F, 0x3E, 0x8C, 0xCD, 0x09, 0x3E, 0x4C, 0xDB,
  0x0F, 0x3E, 0x58, 0xB1, 0x22, 0xBD, 0xBB, 0xB1, 0x1D, 0x3E,
  0xE2, 0xB3, 0xF6, 0xBD, 0x06, 0xB8, 0x76, 0x3E, 0x62, 0xCD,
  0x06, 0x3E, 0x5A, 0xB1, 0x76, 0x3E, 0x94, 0x58, 0xF7, 0x3D,
  0x3D, 0xB4, 0x47, 0x3D, 0x1F, 0x33, 0xB0, 0x3D, 0xA3, 0xD8,
  0x06, 0xBE, 0x4A, 0xE0, 0x67, 0x3B, 0xA2, 0x31, 0xBB, 0x3C,
  0x9A, 0x05, 0x58, 0xBD, 0x96, 0x2F, 0xE8, 0xBD, 0x3D, 0xCB,
  0x56, 0x3C, 0x7D, 0x2F, 0x46, 0x3B, 0x8D, 0x86, 0xDC, 0x3D,
  0x5E, 0x51, 0xDD, 0x3D, 0xBC, 0x8E, 0xF4, 0xBD, 0xD1, 0xCE,
  0xAE, 0x3C, 0xFE, 0xE4, 0x87, 0x3B, 0xA5, 0x28, 0xCD, 0x3B,
  0x56, 0x9F, 0x27, 0x3D, 0xAF, 0x39, 0x35, 0x3E, 0xAD, 0xDB,
  0xF1, 0x3D, 0x93, 0x86, 0x16, 0x3D, 0xCC, 0x43, 0x38, 0xBD,
  0x99, 0x89, 0xCC, 0x3D, 0xB4, 0x74, 0x93, 0x3D, 0x0B, 0x1E,
  0xC8, 0x3D, 0xA2, 0xAA, 0xB2, 0x3D, 0xA9, 0xDA, 0x9F, 0xBC,
  0x94, 0x3A, 0x39, 0xBE, 0x54, 0xCF, 0xDC, 0xB9, 0x7D, 0xE7,
  0xDD, 0xBD, 0x44, 0x3B, 0x51, 0x3E, 0x57, 0xFE, 0x3F, 0x3E,
  0xEB, 0xAF, 0xD1, 0xBD, 0x5F, 0x0D, 0x52, 0xBE, 0x5C, 0x05,
  0x3C, 0x3E, 0x0C, 0xA9, 0x11, 0xBE, 0x01, 0x93, 0xCF, 0xBD,
  0x97, 0x20, 0x42, 0x3C, 0xE5, 0x0C, 0xDA, 0x3D, 0xC6, 0xB8,
  0x69, 0xBD, 0xFC, 0x98, 0x5C, 0x3E, 0x15, 0x47, 0xB8, 0x3D,
  0x5B, 0x60, 0x03, 0xBA, 0x20, 0x34, 0x70, 0x3D, 0x4A, 0x30,
  0xB8, 0x3D, 0x8A, 0x6C, 0x17, 0xBE, 0x7E, 0x00, 0x51, 0xBC,
  0x5A, 0x47, 0x39, 0xBD, 0x98, 0xF4, 0x39, 0x3C, 0x3A, 0xFB,
  0x4D, 0xBE, 0x11, 0x1C, 0x4B, 0x3E, 0x08, 0x96, 0x0C, 0xBE,
  0x98, 0x75, 0x31, 0x3E, 0x85, 0x2B, 0x00, 0xBE, 0xB2, 0x89,
  0xCE, 0xBC, 0xBF, 0xB4, 0x68, 0xBE, 0xD5, 0x5A, 0x52, 0xBC,
  0xEA, 0x66, 0x0A, 0x3D, 0x49, 0x39, 0x39, 0x3E, 0xC6, 0x35,
  0x15, 0xBE, 0x31, 0xC1, 0xE2, 0x3D, 0x16, 0xE0, 0x08, 0xBE,
  0x17, 0x59, 0x3C, 0x3E, 0x95, 0x53, 0xA4, 0xBD, 0x27, 0x3B,
  0xE4, 0xBC, 0x4F, 0xF1, 0x09, 0xBE, 0xF2, 0xB1, 0x36, 0x3D,
  0x69, 0xF1, 0x10, 0x3D, 0x34, 0x32, 0x89, 0xBD, 0xD2, 0xDD,
  0x0B, 0xBB, 0x0E, 0x84, 0xA3, 0x3E, 0x83, 0xFD, 0x5B, 0xBE,
  0xB6, 0xB8, 0xC3, 0x3D, 0xD6, 0x7E, 0x8C, 0x3E, 0x1B, 0x16,
  0x30, 0xBD, 0x1C, 0x09, 0x8D, 0x3D, 0x2C, 0x9A, 0xA5, 0x3D,
  0x15, 0xDE, 0x0C, 0xBD, 0x23, 0x8D, 0xCD, 0xBD, 0x13, 0x38,
  0x3D, 0xBD, 0x2E, 0xCE, 0xA4, 0x3D, 0x57, 0xE5, 0xBB, 0x3D,
  0x1E, 0xFE, 0x26, 0xBD, 0x32, 0xA1, 0x42, 0x3D, 0xEA, 0x17,
  0x75, 0x3D, 0x13, 0xD5, 0x27, 0x3E, 0x57, 0x42, 0xFE, 0xBC,
  0x67, 0x61, 0x90, 0x3D, 0x3D, 0x06, 0x18, 0xBE, 0xB2, 0x04,
  0x20, 0xBE, 0x8C, 0xD7, 0xCF, 0x3D, 0x77, 0xAB, 0x5A, 0x3D,
  0xD3, 0x35, 0xF9, 0xBD, 0x2C, 0x67, 0xD9, 0xBD, 0x93, 0xB8,
  0x1C, 0x3E, 0x52, 0x31, 0x8F, 0x3D, 0xDC, 0x2E, 0x28, 0x3D,
  0x2A, 0x74, 0x94, 0x3D, 0x1A, 0x3B, 0x92, 0xBD, 0x2C, 0x8C,
  0x48, 0xBE, 0x7C, 0x9D, 0xB8, 0xBD, 0xA2, 0x21, 0x96, 0x3C,
  0x7E, 0xBF, 0x80, 0x3D, 0x6F, 0x04, 0xBC, 0x3D, 0xF6, 0xCA,
  0xCB, 0xBD, 0xDF, 0x61, 0x5F, 0x3D, 0xE3, 0x3D, 0x12, 0x3E,
  0xCC, 0xE7, 0x1C, 0xBC, 0x70, 0x62, 0xC6, 0x3D, 0x44, 0x24,
  0x7B, 0x3E, 0xAE, 0x59, 0x26, 0xBE, 0xDC, 0x98, 0xA2, 0xBD,
  0x6C, 0x29, 0x02, 0xBE, 0xEF, 0xC4, 0x1A, 0x3E, 0xBC, 0x22,
  0xDF, 0x3D, 0x22, 0x78, 0x29, 0x3E, 0x0C, 0x2A, 0x52, 0x3E,
  0x77, 0xF9, 0xA9, 0x3D, 0xF1, 0x76, 0x0D, 0x3E, 0x56, 0x92,
  0x0B, 0x3E, 0x1A, 0x6E, 0x51, 0x3D, 0x64, 0x84, 0xE0, 0x3D,
  0xCE, 0x74, 0x57, 0x3D, 0xBE, 0xDF, 0xF5, 0x3C, 0x33, 0x97,
  0x63, 0x3E, 0xE9, 0x03, 0x27, 0xBE, 0x95, 0x87, 0x14, 0xBE,
  0x65, 0x61, 0x30, 0xBD, 0xCD, 0x79, 0x62, 0x3E, 0xFA, 0x7C,
  0xA5, 0x3C, 0xC9, 0x01, 0xEA, 0x3D, 0xE4, 0x59, 0xCF, 0x3D,
  0xB2, 0x4E, 0x08, 0xBD, 0xBF, 0x67, 0xD0, 0x3D, 0x26, 0x48,
  0x2C, 0x3E, 0xDB, 0x67, 0xE4, 0xBA, 0x0E, 0x18, 0x45, 0x3E,
  0x09, 0xA9, 0x50, 0x3E, 0x22, 0x10, 0x9F, 0x3D, 0x36, 0x4A,
  0x94, 0x3D, 0x3E, 0x93, 0x86, 0x3E, 0xDC, 0xB7, 0xA1, 0xBD,
  0x56, 0xA0, 0x94, 0x3E, 0x7C, 0x4C, 0x8E, 0x3E, 0xBF, 0x78,
  0xB7, 0xBD, 0xB1, 0xE4, 0x66, 0x3E, 0x61, 0x26, 0xAA, 0x3C,
  0xF2, 0x84, 0x1E, 0x3E, 0x96, 0x2F, 0x8C, 0x3B, 0xC4, 0x93,
  0x26, 0x3E, 0xD9, 0xB9, 0x8D, 0xBC, 0xC1, 0x49, 0x26, 0x3E,
  0x38, 0xC3, 0x3B, 0xBE, 0xD3, 0x68, 0xE5, 0xBD, 0x30, 0xF8,
  0x82, 0x3D, 0x9A, 0xDB, 0x05, 0x3E, 0x68, 0x35, 0x06, 0x3E,
  0xBB, 0x0D, 0xD4, 0x3D, 0x1D, 0x7E, 0xC3, 0x3D, 0x17, 0x88,
  0x82, 0x3C, 0x29, 0xA0, 0x2D, 0x3E, 0xA6, 0xC2, 0xED, 0x3D,
  0x5C, 0x08, 0xC1, 0x3D, 0xED, 0x0F, 0x87, 0xBE, 0xD1, 0x9D,
  0x07, 0xBB, 0x26, 0xBD, 0x01, 0xBE, 0xE0, 0xAC, 0xD6, 0xBD,
  0xFE, 0x5C, 0x4B, 0xBE, 0x50, 0xAF, 0x73, 0x3D, 0xF9, 0x33,
  0x80, 0x3C, 0xF9, 0x74, 0x96, 0x3D, 0xFA, 0x78, 0x3B, 0x3E,
  0x4E, 0x84, 0x7B, 0x3C, 0xE6, 0xE3, 0x86, 0xBD, 0x78, 0x9C,
  0xDC, 0x3C, 0x42, 0xAF, 0x41, 0xBE, 0xBE, 0x31, 0xD5, 0xBD,
  0xB7, 0x77, 0x0F, 0xBE, 0xFB, 0x0B, 0x12, 0xBD, 0xBF, 0xCD,
  0xFC, 0x3C, 0x5A, 0x0A, 0xAC, 0x3D, 0x26, 0x15, 0x7A, 0xBE,
  0xF5, 0x9A, 0x91, 0x3D, 0xAD, 0xEE, 0x4B, 0x3E, 0xB8, 0xF4,
  0xF7, 0xBC, 0x68, 0x0A, 0x9C, 0x3C, 0x33, 0xD0, 0x10, 0x3E,
  0x06, 0x49, 0x1E, 0xBD, 0x56, 0x34, 0x3B, 0x3E, 0x03, 0xEC,
  0x51, 0x3E, 0x5E, 0x87, 0xCC, 0xBC, 0xE5, 0xE4, 0xDC, 0x3D,
  0x08, 0x4D, 0x0A, 0xBE, 0x1D, 0x41, 0x0D, 0xBE, 0xD0, 0x9A,
  0x8D, 0xBE, 0x07, 0xF0, 0xE7, 0xBD, 0x4B, 0x1B, 0x67, 0x3E,
  0x19, 0xD9, 0x1A, 0xBE, 0x9C, 0xB7, 0xBA, 0x3C, 0xA1, 0x59,
  0x30, 0x3E, 0x30, 0x7D, 0x8B, 0xBE, 0xC6, 0x51, 0x55, 0xBE,
  0x9A, 0xFB, 0x4E, 0xBD, 0x6A, 0x26, 0x42, 0xBD, 0xF7, 0x27,
  0x9A, 0xBE, 0x3C, 0x74, 0x25, 0xBE, 0xDC, 0xE7, 0x3D, 0x3C,
  0xF3, 0x6E, 0x48, 0x3E, 0xD9, 0x60, 0x7C, 0xBD, 0x42, 0x8D,
  0x62, 0x3D, 0x44, 0xDB, 0x4D, 0xBE, 0x4F, 0x55, 0x25, 0x3E,
  0x71, 0xF4, 0x6E, 0x3D, 0x1A, 0x2B, 0x60, 0xBD, 0x2A, 0x91,
  0x94, 0xBE, 0x67, 0x93, 0x62, 0x3E, 0xC1, 0xC4, 0xDB, 0x3D,
  0x1C, 0xB9, 0x0D, 0x3C, 0xD9, 0x43, 0x0E, 0xBD, 0xB3, 0x26,
  0x34, 0x3E, 0x26, 0x8F, 0x06, 0xBE, 0xED, 0x64, 0x3F, 0x3D,
  0xD5, 0x75, 0x83, 0xBD, 0x24, 0x36, 0xB1, 0xBC, 0xFD, 0x4C,
  0x12, 0xBD, 0x63, 0xCA, 0x58, 0x3E, 0xCE, 0xD4, 0xE9, 0x3D,
  0xEB, 0x3A, 0x83, 0x3C, 0x33, 0x59, 0xBF, 0x3D, 0x16, 0xE8,
  0xBB, 0x3C, 0x6C, 0x42, 0xE4, 0xBD, 0x08, 0xED, 0x7C, 0xBD,
  0x20, 0x70, 0xA6, 0xBD, 0x04, 0xAA, 0x59, 0x3E, 0x59, 0x2B,
  0x9C, 0x3D, 0x0D, 0x7B, 0x6D, 0x3E, 0x57, 0x97, 0xB4, 0x3D,
  0x8E, 0xE7, 0xFF, 0xFF, 0x10, 0x00, 0x00, 0x00, 0x08, 0x00,
  0x00, 0x00, 0x1C, 0x00, 0x00, 0x00, 0x44, 0x00, 0x00, 0x00,
  0x04, 0x00, 0x00, 0x00, 0x0A, 0x00, 0x00, 0x00, 0x03, 0x00,
  0x00, 0x00, 0x03, 0x00, 0x00, 0x00, 0x0A, 0x00, 0x00, 0x00,
  0x26, 0x00, 0x00, 0x00, 0x6D, 0x6F, 0x64, 0x65, 0x6C, 0x5F,
  0x31, 0x30, 0x2F, 0x6D, 0x6F, 0x64, 0x65, 0x6C, 0x5F, 0x34,
  0x2F, 0x65, 0x78, 0x69, 0x74, 0x32, 0x2F, 0x63, 0x6F, 0x6E,
  0x76, 0x32, 0x64, 0x5F, 0x33, 0x2F, 0x43, 0x6F, 0x6E, 0x76,
  0x32, 0x44, 0x00, 0x00, 0x9C, 0xE7, 0xFF, 0xFF, 0x8A, 0xE8,
  0xFF, 0xFF, 0x04, 0x00, 0x00, 0x00, 0x08, 0x07, 0x00, 0x00,
  0xDF, 0xDB, 0xF1, 0xBD, 0xEA, 0x5F, 0x4E, 0xBE, 0xD4, 0xFD,
  0x60, 0xBE, 0x0F, 0x81, 0x98, 0x3D, 0xA4, 0xCA, 0x02, 0xBE,
  0x3E, 0xA9, 0x99, 0x3E, 0x4E, 0x03, 0x49, 0xBD, 0xCD, 0xA8,
  0x88, 0x3D, 0x5C, 0x57, 0x73, 0x3E, 0x95, 0xDC, 0x47, 0x3D,
  0xA8, 0x8C, 0x86, 0x3E, 0xA0, 0xCA, 0x36, 0xBD, 0xD9, 0x8C,
  0x8B, 0x3E, 0x7C, 0x9E, 0x8D, 0x3E, 0x6D, 0x2E, 0xB1, 0x3D,
  0x1E, 0x66, 0x0B, 0x3E, 0xF4, 0x78, 0x64, 0x3E, 0x6E, 0xB2,
  0x9F, 0x3D, 0xAE, 0x6D, 0x92, 0x3E, 0xD6, 0x83, 0x8C, 0x3E,
  0xCA, 0x1E, 0x1D, 0x3E, 0x55, 0x10, 0x02, 0x3E, 0xBE, 0xB8,
  0x0D, 0x3D, 0x4F, 0x3B, 0x4D, 0x3E, 0x14, 0x7E, 0xA1, 0x3E,
  0xA6, 0x43, 0xDA, 0x3C, 0x70, 0xF4, 0x93, 0x3E, 0x60, 0xF6,
  0x2C, 0x3E, 0x50, 0xBE, 0x68, 0xBD, 0x00, 0xBD, 0x2E, 0x3E,
  0xE3, 0xCF, 0x36, 0x3D, 0x6F, 0xAD, 0x71, 0x3E, 0x16, 0x08,
  0x64, 0x3E, 0xE7, 0x77, 0x39, 0x3D, 0x3F, 0x47, 0x3B, 0x3E,
  0x8A, 0x21, 0x36, 0xBD, 0x96, 0x72, 0x98, 0x3E, 0xE8, 0xF5,
  0x52, 0x3C, 0xBE, 0x96, 0x37, 0x3D, 0xB8, 0x0C, 0x35, 0x3E,
  0x7F, 0x7F, 0x4D, 0xBC, 0xEE, 0xA7, 0xC4, 0x3C, 0x4C, 0x54,
  0x14, 0xBC, 0x12, 0x92, 0x4E, 0x3E, 0x36, 0x57, 0x8D, 0x3E,
  0x8B, 0xA1, 0x83, 0x3E, 0x41, 0xC4, 0x90, 0x3E, 0x24, 0xF5,
  0x63, 0x3E, 0xC1, 0xCA, 0x70, 0x3D, 0x83, 0x16, 0x05, 0x3E,
  0x14, 0x4F, 0x3C, 0xBE, 0x38, 0x07, 0x2E, 0x3E, 0x59, 0x2B,
  0xA5, 0x3D, 0xD1, 0x8A, 0xAF, 0xBC, 0x21, 0xA8, 0xE2, 0x3C,
  0xCB, 0x0A, 0x96, 0xBE, 0x0D, 0x38, 0x19, 0x3E, 0xB8, 0x29,
  0x2A, 0x3E, 0xFB, 0x81, 0xA0, 0x3D, 0x2C, 0x69, 0x8E, 0xBD,
  0x66, 0x19, 0x2E, 0xBE, 0x4F, 0x53, 0xA7, 0x3D, 0xB3, 0xB5,
  0x69, 0xBD, 0x66, 0x4C, 0x2A, 0x3D, 0x39, 0x3A, 0x19, 0x3D,
  0xA5, 0x32, 0x13, 0xBC, 0x65, 0xF2, 0x7C, 0x3E, 0xDE, 0x68,
  0x96, 0x3E, 0x14, 0x6B, 0x9E, 0x3E, 0xDF, 0x35, 0x81, 0x3E,
  0xF0, 0x2C, 0x02, 0x3E, 0x31, 0x2E, 0x0B, 0x3C, 0x36, 0x21,
  0x72, 0x3E, 0x7E, 0x04, 0x15, 0x3D, 0xE2, 0x10, 0xEC, 0x3D,
  0xD2, 0xF5, 0x30, 0x3E, 0xFB, 0xBA, 0xD3, 0x3D, 0xBB, 0x24,
  0xD5, 0x3B, 0x62, 0x23, 0xD8, 0x3C, 0x02, 0x7D, 0x3A, 0x3D,
  0xE4, 0xCE, 0x25, 0x3E, 0x2E, 0x03, 0x0D, 0x3E, 0x65, 0xDC,
  0x1D, 0xBE, 0xE7, 0xD5, 0xBB, 0xBD, 0xC5, 0xA4, 0xE7, 0x3D,
  0xCC, 0x83, 0x68, 0xBD, 0x35, 0xF6, 0x2B, 0xBE, 0x16, 0x8C,
  0x40, 0xBE, 0x56, 0x76, 0x81, 0xBE, 0x5D, 0xBD, 0xC6, 0xBA,
  0x9E, 0x11, 0xD5, 0xBD, 0x94, 0x08, 0xC0, 0x3D, 0xF6, 0x56,
  0x07, 0xBE, 0xB1, 0xCA, 0x9F, 0x3C, 0xBB, 0x67, 0x11, 0x3E,
  0x48, 0x5A, 0x02, 0xBC, 0xE6, 0xA2, 0x28, 0xBE, 0x5F, 0x62,
  0xA1, 0xBE, 0xF7, 0xC4, 0x22, 0x3D, 0xDA, 0x37, 0x79, 0xBE,
  0x4E, 0x7C, 0x53, 0xBE, 0xEF, 0xE1, 0x48, 0xBD, 0xB5, 0xD9,
  0xAB, 0xBE, 0x1A, 0xE9, 0x45, 0xBE, 0xDB, 0x48, 0x5F, 0xBD,
  0x77, 0xA3, 0x37, 0x3E, 0x95, 0x24, 0x2C, 0x3D, 0x5E, 0x09,
  0x93, 0x3E, 0x12, 0xB6, 0x1F, 0x3D, 0x28, 0xCC, 0xAF, 0x3D,
  0x7E, 0x14, 0x09, 0xBE, 0xBE, 0x8B, 0x95, 0x3D, 0xB9, 0x81,
  0x71, 0xBD, 0xFE, 0x6A, 0x16, 0xBE, 0xB1, 0xE7, 0xA3, 0x3D,
  0x53, 0x93, 0x16, 0x3D, 0x8F, 0x2F, 0x10, 0xBE, 0x92, 0xB3,
  0x51, 0xBD, 0x81, 0x1F, 0x4E, 0xBC, 0x6F, 0x34, 0x86, 0xBE,
  0xEB, 0x44, 0x4B, 0x3D, 0x80, 0x95, 0xA4, 0x3E, 0x31, 0x69,
  0x57, 0x3E, 0xDE, 0x4B, 0x7E, 0xBD, 0x76, 0x79, 0xA2, 0x3E,
  0x09, 0x72, 0x31, 0xBD, 0xB1, 0x45, 0x21, 0xBC, 0x55, 0x5D,
  0x8A, 0xBD, 0x4C, 0x91, 0x73, 0x3E, 0xFC, 0xF6, 0x0D, 0x3E,
  0xAD, 0x39, 0x52, 0xBE, 0xF8, 0xEF, 0x23, 0x3E, 0x87, 0xC1,
  0x67, 0x3E, 0x97, 0x7A, 0x4D, 0x3E, 0x01, 0x17, 0x7A, 0xBC,
  0x4B, 0x2B, 0xAB, 0xBE, 0xB2, 0x5B, 0x0B, 0xBD, 0x87, 0x1B,
  0x70, 0x3E, 0xF8, 0x1E, 0x83, 0x3D, 0xC0, 0xEB, 0xA4, 0xBA,
  0xCD, 0xBB, 0x95, 0xBE, 0x1A, 0xB1, 0xB5, 0x3E, 0x52, 0x7A,
  0x86, 0x3E, 0x5A, 0x4F, 0x71, 0x3E, 0xF0, 0xB9, 0x53, 0x3E,
  0x84, 0xA3, 0x7D, 0xBE, 0x26, 0x8D, 0x86, 0x3E, 0xB0, 0xED,
  0x1E, 0x3D, 0x38, 0x8A, 0x69, 0x3E, 0x09, 0x2C, 0x5A, 0xBD,
  0xB5, 0xB1, 0xE2, 0xBC, 0x53, 0xB2, 0x23, 0xBE, 0xCB, 0xE7,
  0x66, 0x3E, 0xF1, 0x75, 0x3F, 0x3E, 0x25, 0x0A, 0xCA, 0x3C,
  0x0E, 0x6E, 0x3B, 0xBE, 0x7C, 0xEB, 0xB8, 0xBD, 0x4A, 0x45,
  0x0C, 0x3C, 0x0A, 0x1A, 0xCE, 0x3D, 0x12, 0x64, 0x83, 0x3E,
  0x10, 0x26, 0x93, 0xBD, 0x26, 0x77, 0x69, 0x3E, 0x6C, 0x81,
  0x5D, 0x3E, 0xED, 0xD4, 0x2A, 0x3E, 0x49, 0x54, 0x64, 0x3E,
  0x25, 0xAF, 0x9A, 0xBE, 0xB2, 0xC1, 0xAA, 0xBE, 0xC8, 0xF4,
  0x86, 0xBE, 0x7D, 0x37, 0xA1, 0xBE, 0x60, 0xE5, 0x9F, 0xBE,
  0xF5, 0xB4, 0x13, 0xBE, 0xB5, 0x15, 0x09, 0xBE, 0x1C, 0xB4,
  0xBC, 0xBE, 0x54, 0xD6, 0xB2, 0xBE, 0x88, 0x71, 0x83, 0xBE,
  0xF9, 0x09, 0x20, 0xBE, 0x70, 0xD0, 0xD2, 0x3C, 0xBC, 0xAF,
  0x65, 0xBE, 0x4E, 0xE7, 0xE1, 0x3D, 0x22, 0xE4, 0xC9, 0x3D,
  0x4C, 0xC2, 0xC5, 0xBD, 0x19, 0xCB, 0x37, 0x3E, 0xB3, 0x0E,
  0x1D, 0x3D, 0x76, 0x6C, 0x91, 0x3E, 0x63, 0xB9, 0xBA, 0xBD,
  0xF6, 0x59, 0x96, 0xBD, 0xF3, 0x14, 0x7C, 0x3E, 0xF0, 0xD2,
  0x86, 0x3E, 0x0B, 0x2B, 0xB9, 0xBC, 0xB8, 0xF9, 0x3E, 0x3E,
  0x21, 0x35, 0xAF, 0x3E, 0x2E, 0x4B, 0x9E, 0x3E, 0x35, 0x3B,
  0x1E, 0x3E, 0x7D, 0xAA, 0x1B, 0x3E, 0x7B, 0xA7, 0x75, 0x3E,
  0x6B, 0x37, 0xD3, 0x3D, 0xBA, 0x8E, 0x0C, 0x3E, 0x49, 0xC4,
  0x90, 0x3E, 0x1E, 0x16, 0xDB, 0xBD, 0x6D, 0xD3, 0x7D, 0x3C,
  0x34, 0x6F, 0xF3, 0x3D, 0xB5, 0xF2, 0x69, 0x3E, 0xEE, 0x49,
  0xCA, 0x3C, 0xC7, 0x98, 0xA3, 0xBD, 0xF3, 0x39, 0x21, 0x3E,
  0xD9, 0x31, 0x37, 0x3D, 0x19, 0x40, 0x96, 0xBD, 0xBB, 0xF5,
  0x47, 0xBE, 0xC7, 0xCB, 0x43, 0xBE, 0x71, 0x49, 0x49, 0xBE,
  0x8A, 0xD1, 0xC4, 0xBD, 0x57, 0x17, 0x09, 0x3E, 0x8B, 0x57,
  0xDD, 0xBB, 0x2C, 0x34, 0x63, 0x3D, 0x1C, 0x4F, 0x99, 0x3D,
  0xD2, 0x1A, 0xB0, 0x3D, 0x4D, 0xB0, 0x82, 0x3D, 0xC3, 0x44,
  0x09, 0x3E, 0xA7, 0x97, 0x75, 0xBE, 0x28, 0x8A, 0x0B, 0xBE,
  0x88, 0x56, 0x7A, 0xBE, 0x7F, 0xAA, 0x3B, 0xBE, 0x9C, 0xDA,
  0x67, 0xBE, 0xF4, 0x0A, 0x78, 0xBE, 0x45, 0x04, 0x5B, 0x3D,
  0x7C, 0xB7, 0xF6, 0x3D, 0x64, 0x9E, 0x54, 0x3C, 0x1C, 0x5F,
  0x09, 0xBD, 0x74, 0x07, 0x1B, 0x3E, 0x40, 0x42, 0x5A, 0x3E,
  0x18, 0x2C, 0x06, 0x3E, 0x21, 0x80, 0x4F, 0x3E, 0x08, 0x23,
  0xDB, 0x3D, 0xD3, 0xB1, 0xF0, 0xBD, 0xB7, 0x7B, 0x0C, 0x3E,
  0x40, 0xF4, 0xDD, 0xBD, 0x78, 0xB7, 0x09, 0x3E, 0x29, 0x9F,
  0xBA, 0xBD, 0x27, 0x54, 0x59, 0x3E, 0x18, 0x07, 0xAF, 0x3D,
  0xE3, 0xBC, 0x85, 0x3E, 0x21, 0x25, 0x5C, 0x3D, 0x73, 0xB2,
  0x46, 0xBE, 0x5C, 0xAA, 0xB0, 0x3C, 0x39, 0x68, 0x41, 0x3E,
  0x25, 0x2C, 0xD6, 0xBD, 0x9E, 0x5C, 0x06, 0xBE, 0x56, 0xA1,
  0x2F, 0x3E, 0xE5, 0x26, 0x2F, 0xBE, 0xE4, 0x3F, 0xC3, 0xBD,
  0xD4, 0xAC, 0x8A, 0xBE, 0x5F, 0x56, 0xCD, 0x3D, 0x28, 0xB8,
  0x6F, 0x3E, 0xB1, 0x97, 0x84, 0x3E, 0xA7, 0xEB, 0x0B, 0x3E,
  0xB9, 0x8D, 0x96, 0xBC, 0x5C, 0x32, 0x89, 0xBE, 0x6B, 0x25,
  0x15, 0xBE, 0x13, 0x8D, 0x07, 0xBC, 0xB8, 0x05, 0xA9, 0xBE,
  0x82, 0xC1, 0x9E, 0xBB, 0xC0, 0x47, 0x96, 0x3D, 0x90, 0x08,
  0x90, 0x3D, 0x78, 0xC4, 0x3B, 0x3E, 0xEB, 0xEF, 0x63, 0xBB,
  0x73, 0x4F, 0x3B, 0x3D, 0x5B, 0x45, 0x13, 0xBD, 0x95, 0x13,
  0x81, 0x3D, 0x75, 0x4B, 0x72, 0x3E, 0x3A, 0xEA, 0xC4, 0x3D,
  0xC2, 0x63, 0x8C, 0x3C, 0xB2, 0x58, 0x6D, 0x3D, 0xCA, 0x2A,
  0x31, 0x3E, 0x82, 0xB6, 0x75, 0x3C, 0x7B, 0xCB, 0x80, 0x3E,
  0x16, 0xE4, 0xFF, 0x3D, 0x1A, 0x2A, 0xA4, 0x3E, 0xCE, 0x19,
  0x62, 0x3E, 0xA6, 0x3E, 0xD7, 0x3C, 0x10, 0xB1, 0xD2, 0x3D,
  0x0E, 0x52, 0x65, 0x3E, 0xAB, 0xCD, 0x94, 0x3D, 0xF0, 0x71,
  0xC7, 0x3C, 0x92, 0xC1, 0xE6, 0x3D, 0x8F, 0xEE, 0xD4, 0x3D,
  0x35, 0x27, 0x80, 0xBD, 0x5F, 0x20, 0x20, 0xBE, 0xA5, 0x66,
  0x08, 0x3D, 0x99, 0xE7, 0x03, 0xBD, 0x6D, 0xB8, 0x2A, 0x3E,
  0xE0, 0x2C, 0xD3, 0x3D, 0x2F, 0xA4, 0x78, 0x3E, 0x88, 0x06,
  0x71, 0x3E, 0x24, 0x0F, 0x98, 0x3E, 0x47, 0xB0, 0x27, 0x3E,
  0x12, 0x39, 0xEF, 0xBD, 0x1F, 0x3A, 0x90, 0x3E, 0xE7, 0x87,
  0xE7, 0xBD, 0xDF, 0x40, 0xA7, 0x3D, 0x04, 0x64, 0xA1, 0x3E,
  0x3D, 0xAF, 0x2D, 0xBE, 0xA1, 0xC4, 0x96, 0xBD, 0xAB, 0x0A,
  0x25, 0xBE, 0x59, 0xFA, 0x0B, 0x3E, 0xEE, 0x72, 0x38, 0xBC,
  0xFC, 0x3A, 0x40, 0x3D, 0xCE, 0xD6, 0xB3, 0x3D, 0x9B, 0xFD,
  0x36, 0x3E, 0xEA, 0x13, 0x67, 0x3E, 0xFC, 0x8B, 0xA8, 0xBD,
  0xD0, 0xF3, 0xD9, 0x3C, 0xF3, 0x9D, 0xE1, 0x3D, 0xE5, 0x7A,
  0x8A, 0x3E, 0x96, 0xE1, 0x28, 0x3E, 0xDE, 0x5E, 0x90, 0x3E,
  0x9B, 0x9C, 0x5C, 0x3E, 0x6A, 0x77, 0x8D, 0x3E, 0xDF, 0x60,
  0xC3, 0xBD, 0xBE, 0x71, 0x50, 0x3D, 0x05, 0x72, 0x3F, 0x3C,
  0xA4, 0x7F, 0xB1, 0x3D, 0x6B, 0xBE, 0x04, 0xBD, 0x72, 0xFA,
  0x0E, 0xBE, 0xC0, 0xD2, 0xED, 0x3C, 0xDD, 0x7F, 0x9E, 0x3D,
  0x8E, 0xEA, 0x6C, 0x3E, 0x9F, 0x35, 0x7A, 0xBC, 0xBD, 0x03,
  0x0A, 0xBE, 0x20, 0x40, 0x48, 0x3E, 0x43, 0x48, 0x77, 0x3E,
  0x65, 0xF5, 0x89, 0x3E, 0x62, 0x27, 0x85, 0x3E, 0x46, 0x45,
  0x04, 0x3D, 0xAC, 0xDC, 0x23, 0xBE, 0xBA, 0x34, 0xF2, 0xBD,
  0x0F, 0xE2, 0x94, 0x3D, 0xEA, 0x76, 0x6D, 0xBE, 0x31, 0xD9,
  0x81, 0xBE, 0x65, 0x13, 0x46, 0x3D, 0x18, 0x69, 0x23, 0xBB,
  0xE3, 0x43, 0x64, 0x3D, 0x9F, 0x02, 0x0D, 0x3E, 0x5E, 0x0B,
  0xE2, 0xBD, 0x24, 0xA7, 0x6E, 0x3E, 0xBA, 0xB8, 0x79, 0x3E,
  0x80, 0xB8, 0x9F, 0x3D, 0x42, 0x01, 0x76, 0xBE, 0xA4, 0x8A,
  0x3A, 0xBE, 0x9D, 0x06, 0x04, 0xBE, 0x7D, 0xD7, 0x58, 0xBD,
  0x5F, 0x65, 0xDA, 0x3D, 0x27, 0x5A, 0x5C, 0xBE, 0x50, 0x38,
  0x6F, 0xBE, 0x2F, 0x6E, 0x97, 0xBD, 0x7A, 0xFA, 0x1F, 0xBE,
  0x39, 0xA2, 0xCC, 0x3C, 0xE0, 0x44, 0x13, 0xBD, 0x27, 0x3E,
  0x97, 0x3E, 0x5C, 0xC8, 0x4A, 0x3E, 0x88, 0xEC, 0x8C, 0x3E,
  0x53, 0xC0, 0x81, 0xBD, 0xA2, 0xF1, 0xC0, 0x3D, 0x09, 0x36,
  0x89, 0x3E, 0x1D, 0xAD, 0xA8, 0xBD, 0xA6, 0xE0, 0x78, 0xBD,
  0x1B, 0x36, 0x17, 0x3E, 0x3E, 0x08, 0x60, 0x3E, 0xB4, 0xA7,
  0x1F, 0x3D, 0x79, 0x4D, 0x22, 0x3E, 0xA1, 0xB6, 0xAA, 0x3C,
  0x7E, 0x7C, 0xA3, 0x3D, 0xA0, 0x7A, 0x4E, 0x3E, 0x75, 0x25,
  0x3F, 0x3D, 0x9F, 0x99, 0x8A, 0xBE, 0x9D, 0xC2, 0xA2, 0xBD,
  0xB8, 0x90, 0x86, 0x3E, 0xB2, 0x9D, 0x8F, 0x3E, 0x33, 0x3E,
  0x93, 0x3E, 0x70, 0xDC, 0x0C, 0x3D, 0xA4, 0x67, 0x2D, 0x3E,
  0x94, 0x03, 0xED, 0xBD, 0x78, 0xA9, 0x88, 0x3E, 0xC3, 0xB2,
  0x44, 0x3E, 0x52, 0xC2, 0xE5, 0xBD, 0xBD, 0x7D, 0x6C, 0xBC,
  0xBE, 0x1F, 0x61, 0x3E, 0xD0, 0xF8, 0x92, 0x3E, 0xB1, 0x9B,
  0xE7, 0xBD, 0x5B, 0xF8, 0xDB, 0xBD, 0xAB, 0x70, 0x84, 0x3E,
  0xED, 0xB3, 0x97, 0x3E, 0x21, 0x88, 0x14, 0x3B, 0x20, 0x81,
  0x02, 0x3E, 0xC9, 0xBF, 0x14, 0x3E, 0x32, 0x95, 0x37, 0x3E,
  0x9C, 0x8E, 0x07, 0xBE, 0xE2, 0x76, 0x6F, 0x3D, 0x86, 0x0C,
  0xF2, 0x3D, 0x8A, 0x02, 0xAE, 0x3D, 0xA0, 0x7C, 0x86, 0x3D,
  0x2F, 0x01, 0x6A, 0x3D, 0xCA, 0x07, 0xB1, 0x3E, 0xDF, 0x25,
  0x46, 0x3D, 0x1C, 0x1A, 0x40, 0xBD, 0xBF, 0x26, 0xAB, 0x3E,
  0x13, 0x6E, 0xBE, 0xBD, 0x80, 0x81, 0xCE, 0x3D, 0x36, 0xB5,
  0x82, 0xBB, 0x82, 0x68, 0x85, 0xBE, 0x47, 0x15, 0x56, 0x3D,
  0x1C, 0xE1, 0x94, 0xBE, 0xC8, 0x7E, 0x01, 0x3E, 0x39, 0x90,
  0x51, 0xBE, 0x2A, 0x59, 0x88, 0xBE, 0x93, 0x11, 0x8A, 0xBE,
  0x4E, 0x82, 0xD3, 0xBB, 0xBA, 0xFC, 0x71, 0xBE, 0x6E, 0x2B,
  0x25, 0xBE, 0x93, 0x7B, 0x0A, 0xBC, 0xCD, 0x2C, 0xFC, 0xBD,
  0x8F, 0x73, 0x96, 0xBE, 0x17, 0x0F, 0xE4, 0x3C, 0xB1, 0x67,
  0x8C, 0xBC, 0x38, 0xCB, 0xB4, 0x3C, 0x1D, 0x8B, 0x82, 0xBC,
  0x89, 0xA7, 0x9D, 0xBE, 0x49, 0x88, 0x34, 0x3E, 0x5D, 0xB6,
  0x8C, 0x3E, 0x67, 0xBC, 0x21, 0x3E, 0xD7, 0x6B, 0x4B, 0x3E,
  0x82, 0xF3, 0x1F, 0x3D, 0x0A, 0x39, 0x6C, 0x3D, 0xA0, 0x5F,
  0x14, 0x3E, 0x0A, 0x85, 0x90, 0x3E, 0x0D, 0x15, 0xC4, 0x3B,
  0x6F, 0x11, 0xAD, 0xBD, 0xF0, 0x26, 0x8C, 0x3E, 0xC1, 0xA5,
  0x70, 0x3E, 0x43, 0x59, 0x81, 0x3E, 0x65, 0xD4, 0x81, 0x3D,
  0xA7, 0xAB, 0xED, 0xBD, 0xAF, 0xC4, 0x36, 0x3D, 0xF9, 0x60,
  0x47, 0x3C, 0x70, 0xF8, 0xA2, 0x3E, 0x30, 0x61, 0x31, 0x3E,
  0x05, 0x78, 0x22, 0xBE, 0xE7, 0xD6, 0x4F, 0x3E, 0x3F, 0x62,
  0x6F, 0x3E, 0xF1, 0x13, 0xE1, 0x3D, 0x47, 0xBC, 0x52, 0x3E,
  0xFA, 0xEE, 0xFF, 0xFF, 0x10, 0x00, 0x00, 0x00, 0x07, 0x00,
  0x00, 0x00, 0x1C, 0x00, 0x00, 0x00, 0x4C, 0x00, 0x00, 0x00,
  0x04, 0x00, 0x00, 0x00, 0x0A, 0x00, 0x00, 0x00, 0x03, 0x00,
  0x00, 0x00, 0x03, 0x00, 0x00, 0x00, 0x05, 0x00, 0x00, 0x00,
  0x2C, 0x00, 0x00, 0x00, 0x6D, 0x6F, 0x64, 0x65, 0x6C, 0x5F,
  0x31, 0x30, 0x2F, 0x6D, 0x6F, 0x64, 0x65, 0x6C, 0x5F, 0x33,
  0x2F, 0x62, 0x61, 0x73, 0x65, 0x5F, 0x6D, 0x6F, 0x64, 0x65,
  0x6C, 0x32, 0x2F, 0x63, 0x6F, 0x6E, 0x76, 0x32, 0x64, 0x5F,
  0x32, 0x2F, 0x43, 0x6F, 0x6E, 0x76, 0x32, 0x44, 0x00, 0x00,
  0x00, 0x00, 0x10, 0xEF, 0xFF, 0xFF, 0xFE, 0xEF, 0xFF, 0xFF,
  0x04, 0x00, 0x00, 0x00, 0x10, 0x0E, 0x00, 0x00, 0xA2, 0x6E,
  0xD2, 0xBD, 0x67, 0x0B, 0x1E, 0x3E, 0xC5, 0x7D, 0x3F, 0xBD,
  0x95, 0xCC, 0xBA, 0xBE, 0xF0, 0x60, 0x96, 0xBD, 0x54, 0x53,
  0x1B, 0x3E, 0x9E, 0x99, 0xDE, 0xBD, 0x37, 0x5E, 0x26, 0x3D,
  0x86, 0xF0, 0xC6, 0x3C, 0xA0, 0x4E, 0x7D, 0x3C, 0x12, 0x71,
  0xFB, 0x3D, 0x5F, 0x74, 0xD0, 0xBD, 0x53, 0x18, 0x0B, 0xBD,
  0x28, 0x70, 0xCE, 0x3D, 0xE6, 0x5A, 0x3F, 0x3E, 0x3A, 0x1D,
  0x2F, 0x3C, 0xDF, 0xC4, 0xDD, 0x3D, 0xEE, 0xE4, 0x44, 0xBE,
  0x2A, 0x57, 0x1B, 0x3E, 0xDB, 0xAA, 0x09, 0x3E, 0xDD, 0x1A,
  0x95, 0x3B, 0x2F, 0x44, 0xB8, 0x3D, 0x64, 0x99, 0x63, 0xBE,
  0x44, 0x85, 0x47, 0x3E, 0xF6, 0x03, 0x85, 0x3B, 0xC2, 0x51,
  0x74, 0xBE, 0x64, 0xE5, 0x3A, 0xBD, 0xD3, 0xF8, 0x11, 0xBE,
  0x35, 0x79, 0x91, 0x3D, 0x20, 0x20, 0x04, 0xBE, 0xB1, 0x5E,
  0x3F, 0x3E, 0xD0, 0xBB, 0x2C, 0x3E, 0xE4, 0x26, 0x8A, 0xBE,
  0xD2, 0xE9, 0xBA, 0xBE, 0x87, 0x19, 0x14, 0xBD, 0xCB, 0x9D,
  0x4A, 0xBE, 0xEE, 0x6B, 0xA5, 0x3D, 0x64, 0xB1, 0x21, 0x3E,
  0x72, 0xC9, 0xE9, 0xBC, 0x3F, 0x1D, 0x09, 0xBE, 0xCC, 0xAC,
  0x00, 0x3E, 0xCF, 0xAD, 0x84, 0x3C, 0x8C, 0xF4, 0x44, 0x3D,
  0x79, 0x89, 0x88, 0x3D, 0xCC, 0x76, 0x96, 0x3D, 0x04, 0x47,
  0xB9, 0x3C, 0x05, 0xAA, 0x5B, 0xBD, 0x29, 0x1D, 0x05, 0xBE,
  0x39, 0x33, 0xB1, 0xBE, 0x5A, 0x4A, 0xEE, 0xBD, 0xB7, 0xDF,
  0xBB, 0x3D, 0x00, 0x16, 0x7F, 0x3E, 0x38, 0x00, 0x5D, 0xBE,
  0xCC, 0x91, 0xCC, 0x3D, 0x25, 0x3B, 0x7F, 0x3C, 0x30, 0xC5,
  0x75, 0x3D, 0xC5, 0x71, 0x87, 0xBD, 0x9F, 0xDF, 0xB4, 0x3E,
  0xD3, 0x94, 0x2D, 0x3E, 0x1E, 0x7C, 0x63, 0xBE, 0xDA, 0x38,
  0xB5, 0x3D, 0xDE, 0xA5, 0x31, 0x3B, 0xFD, 0x52, 0xAC, 0xBE,
  0x34, 0x0A, 0x1D, 0x3E, 0x96, 0x81, 0x8D, 0xBE, 0xB5, 0xBD,
  0x97, 0xBE, 0x61, 0xE2, 0x2A, 0x3D, 0xA5, 0x60, 0xAA, 0xBE,
  0x41, 0x96, 0x8A, 0x3E, 0x71, 0xFD, 0x46, 0xBE, 0x93, 0x3E,
  0x75, 0xBD, 0xA5, 0xE7, 0x78, 0xBD, 0xCF, 0x6C, 0x13, 0xBD,
  0x70, 0x97, 0x67, 0xBE, 0xB1, 0xF5, 0x3D, 0xBE, 0x31, 0x04,
  0x95, 0xBC, 0x0B, 0x1F, 0x9D, 0x3B, 0x32, 0xF2, 0x92, 0x3C,
  0x27, 0xF6, 0x85, 0xBE, 0xED, 0x76, 0xC0, 0x3B, 0x3B, 0x71,
  0x06, 0x3E, 0x08, 0x79, 0xCB, 0xBD, 0x86, 0x47, 0xC4, 0x3E,
  0x50, 0x25, 0xF6, 0x3D, 0x5A, 0xBE, 0x5E, 0x3D, 0xD9, 0x0A,
  0xCB, 0x3D, 0x0C, 0xA9, 0xDB, 0xBE, 0x9E, 0x36, 0x42, 0x3E,
  0xE4, 0x9C, 0x4E, 0xBC, 0x46, 0x1D, 0xB4, 0xBD, 0xD9, 0xD0,
  0x7B, 0xBE, 0xAB, 0xD9, 0xE6, 0xBC, 0xD3, 0xD2, 0x56, 0x3E,
  0x12, 0x88, 0x70, 0xBE, 0xE8, 0x07, 0x8B, 0x3D, 0x2B, 0xEB,
  0x63, 0xBE, 0xF9, 0x2C, 0x31, 0x3E, 0xA5, 0xB1, 0xEA, 0x3D,
  0xD4, 0x84, 0xAE, 0xBE, 0x05, 0xDF, 0x0D, 0x3E, 0xBC, 0x69,
  0xA7, 0x3D, 0x9C, 0x9B, 0x8D, 0x3E, 0x59, 0x64, 0xFF, 0x3C,
  0x27, 0x34, 0x68, 0x3B, 0x90, 0x85, 0x49, 0xBC, 0x9F, 0x7C,
  0x15, 0x3E, 0x4B, 0xB6, 0xBE, 0xBE, 0x62, 0x1F, 0x82, 0x3D,
  0xEE, 0x59, 0x4B, 0x3E, 0x58, 0xD8, 0x63, 0xBE, 0x26, 0x10,
  0xEE, 0x3D, 0x0A, 0xFC, 0xD7, 0xBD, 0x3B, 0xF3, 0xDB, 0xBD,
  0x8B, 0xD1, 0x14, 0x3E, 0xAD, 0xD4, 0x0A, 0xBE, 0x62, 0x34,
  0x27, 0x3E, 0x53, 0xAE, 0x42, 0xBD, 0xB5, 0xEE, 0xD4, 0xBE,
  0xEA, 0xC5, 0xB4, 0xBD, 0xE4, 0xA2, 0xB2, 0x3D, 0xEC, 0x72,
  0x35, 0x3E, 0x38, 0x11, 0x2C, 0x3E, 0xC0, 0xDA, 0x16, 0x3D,
  0xAE, 0x95, 0x8F, 0xBC, 0x1E, 0x8E, 0x0C, 0x3E, 0x92, 0x90,
  0xA8, 0x3D, 0xFE, 0xB2, 0x9E, 0xBE, 0x70, 0x56, 0x73, 0xBC,
  0x13, 0xBD, 0xA2, 0xBD, 0x71, 0x1D, 0x01, 0x3E, 0xA6, 0x3E,
  0x6E, 0xBC, 0x47, 0x4D, 0x39, 0x3E, 0x94, 0x19, 0xE3, 0xBD,
  0x6A, 0x9A, 0xBF, 0xBD, 0x1E, 0xA9, 0x2F, 0xBE, 0xC6, 0x6F,
  0x33, 0x3E, 0xF3, 0xBA, 0xD9, 0xBD, 0x47, 0x09, 0xFA, 0x3C,
  0x06, 0xCC, 0x16, 0xBE, 0x9D, 0x1C, 0x33, 0xBD, 0xCD, 0x70,
  0xCD, 0x3D, 0xD4, 0x39, 0x03, 0x3B, 0x00, 0x74, 0x74, 0xBE,
  0x29, 0x41, 0x99, 0x3E, 0xA0, 0x53, 0xA0, 0x3E, 0xC1, 0xF6,
  0xEB, 0x3C, 0xCB, 0xF8, 0x0E, 0xBE, 0x05, 0x28, 0xBC, 0xBE,
  0x26, 0x8B, 0xA0, 0xBE, 0xD3, 0x36, 0x06, 0xBE, 0x01, 0x11,
  0xF3, 0x3D, 0xB7, 0x4A, 0xBA, 0xBC, 0xE5, 0xEC, 0x93, 0x3E,
  0xC4, 0xDC, 0x7A, 0xBE, 0x35, 0x66, 0xDB, 0xBC, 0x91, 0x85,
  0x8B, 0xBD, 0xD3, 0x0D, 0x91, 0xBE, 0x8B, 0x3A, 0x93, 0x3E,
  0x18, 0x89, 0x6F, 0xBD, 0x25, 0x07, 0x06, 0xBE, 0xFE, 0x07,
  0xC8, 0xBD, 0xE2, 0xA5, 0x95, 0x3E, 0x8D, 0x56, 0x82, 0xBD,
  0x68, 0xC8, 0x10, 0xBE, 0x52, 0x5C, 0x17, 0x3C, 0x9F, 0x5C,
  0x32, 0x3E, 0xCA, 0x20, 0x94, 0xBE, 0x82, 0x72, 0xA1, 0x3C,
  0xE6, 0x91, 0x10, 0x3E, 0x19, 0x88, 0x96, 0x3E, 0x8B, 0xA7,
  0x8A, 0xBC, 0x95, 0x9E, 0x13, 0x3E, 0xC4, 0x25, 0x76, 0x3E,
  0x31, 0x43, 0x69, 0x3E, 0x2E, 0xB9, 0x10, 0x3C, 0xB4, 0x56,
  0x28, 0x3D, 0x1C, 0xF4, 0x8C, 0xBE, 0x24, 0xAE, 0x35, 0xBE,
  0x74, 0xB9, 0xEE, 0x3A, 0x29, 0xF3, 0xBA, 0xBD, 0x14, 0xFB,
  0xD4, 0x3D, 0xDF, 0x60, 0x28, 0x3D, 0x14, 0xD3, 0x0C, 0xBD,
  0x5D, 0x09, 0x5A, 0x3E, 0xB0, 0x25, 0x22, 0xBE, 0x56, 0x7C,
  0x08, 0xBE, 0x85, 0x24, 0x82, 0x3E, 0x3B, 0x66, 0x59, 0xBE,
  0xAA, 0x6E, 0x3E, 0x3E, 0x4D, 0xAF, 0xA6, 0xBD, 0x08, 0x67,
  0x55, 0xBE, 0x63, 0xDE, 0xB1, 0x3D, 0xD7, 0x1F, 0x07, 0x3C,
  0xBE, 0x81, 0x8A, 0x3E, 0x2D, 0x2F, 0x19, 0xBC, 0x8C, 0xD4,
  0xB4, 0x3D, 0xF2, 0xC8, 0x5F, 0xBB, 0x19, 0x21, 0x8B, 0x3E,
  0xCD, 0x39, 0x7B, 0x3E, 0x8A, 0x59, 0x13, 0xBE, 0x54, 0xEB,
  0x80, 0x3E, 0x46, 0xD7, 0xD1, 0x3C, 0x43, 0x31, 0x4C, 0xBE,
  0x68, 0x25, 0xA4, 0xBB, 0x92, 0xB6, 0x13, 0x3E, 0xE3, 0x76,
  0x0B, 0xBE, 0xD7, 0x1A, 0x02, 0xBE, 0x1E, 0x8D, 0x48, 0x3C,
  0x8A, 0x6F, 0xF4, 0x3C, 0xCA, 0xEB, 0x37, 0xBE, 0x0E, 0xC2,
  0x8C, 0xBE, 0xDC, 0x2C, 0x63, 0xBE, 0x69, 0x0C, 0xBD, 0xBE,
  0x05, 0x9C, 0x30, 0xBE, 0x24, 0x54, 0x70, 0x3D, 0x94, 0x3F,
  0x72, 0x3E, 0xBB, 0xC7, 0xB3, 0xBD, 0xAB, 0xCF, 0x6B, 0xBE,
  0x45, 0x9F, 0x4F, 0x3D, 0xE7, 0x91, 0xDB, 0x3C, 0x04, 0x96,
  0x42, 0xBE, 0x54, 0x65, 0xD4, 0x3D, 0x37, 0xCA, 0x73, 0x3D,
  0x52, 0x00, 0x80, 0xBE, 0xBC, 0xA7, 0x83, 0x3E, 0x32, 0x86,
  0x8B, 0x3E, 0xF9, 0x2A, 0xF7, 0x3D, 0xFE, 0x2C, 0xB5, 0xBD,
  0x6B, 0x0F, 0x6B, 0x3D, 0x4F, 0xB3, 0xB7, 0xBD, 0x7D, 0x70,
  0xC0, 0xBE, 0x6C, 0xAE, 0x24, 0x3D, 0xB9, 0xCA, 0xD0, 0x3D,
  0x8B, 0xBF, 0x86, 0xBD, 0xF3, 0x82, 0x66, 0x3D, 0x64, 0x62,
  0xAD, 0xBD, 0xC8, 0x49, 0xC1, 0x3C, 0xF9, 0xAC, 0x92, 0x3C,
  0xE8, 0xC5, 0x08, 0xBE, 0x5C, 0x90, 0x3C, 0x3D, 0x47, 0xE2,
  0xBE, 0x3D, 0x01, 0x3D, 0x9C, 0xBD, 0x0A, 0x3E, 0x47, 0xBE,
  0x7F, 0x6B, 0x91, 0x3E, 0x9E, 0x34, 0xC8, 0xBE, 0x8B, 0xDE,
  0x0E, 0xBD, 0x21, 0x84, 0x7D, 0xBE, 0x94, 0x2B, 0x52, 0x3E,
  0xDD, 0x18, 0xB8, 0xBD, 0xB4, 0xBA, 0x9C, 0xBB, 0x6E, 0x46,
  0x48, 0xBE, 0xBA, 0xB6, 0x3A, 0xBE, 0x1B, 0x4D, 0x66, 0xBE,
  0x74, 0xA3, 0x04, 0x3E, 0x31, 0x40, 0x33, 0xBD, 0x89, 0xB5,
  0x8B, 0x3C, 0xAB, 0x12, 0x04, 0xBD, 0x38, 0x59, 0x2F, 0xBD,
  0xA6, 0x42, 0x9E, 0x3C, 0xF9, 0xFE, 0x20, 0x3E, 0x15, 0x33,
  0xFB, 0xBE, 0xA0, 0xD0, 0xBC, 0x3E, 0x27, 0xB3, 0xE6, 0x3C,
  0x66, 0xBB, 0x0F, 0xBE, 0xDC, 0xB3, 0x54, 0xBD, 0x12, 0x67,
  0x25, 0x3E, 0x4A, 0x04, 0x35, 0x3C, 0x22, 0xA9, 0x65, 0x3E,
  0xD4, 0x70, 0x7B, 0xBD, 0x02, 0x68, 0x76, 0xBE, 0xFF, 0xCB,
  0x9F, 0xBE, 0x9C, 0x16, 0x59, 0x3E, 0x22, 0x3C, 0xBC, 0xBC,
  0x1D, 0x9C, 0x9D, 0x3E, 0x28, 0x19, 0xDC, 0xBD, 0xFB, 0xD0,
  0xE2, 0x3D, 0xCF, 0x3A, 0x06, 0x3D, 0x45, 0xD2, 0x30, 0x3E,
  0xBC, 0xE9, 0x3B, 0xBE, 0x2B, 0xB9, 0xA9, 0xBD, 0xAE, 0xE6,
  0x99, 0x3D, 0xA8, 0xD1, 0x1A, 0xBD, 0x40, 0x78, 0xE7, 0x3D,
  0xC5, 0xFB, 0xC7, 0xBD, 0xDD, 0x94, 0x8C, 0xBD, 0x41, 0xE4,
  0x84, 0xBE, 0x41, 0xB4, 0xF9, 0xBB, 0x5D, 0x9F, 0x2F, 0x3E,
  0x39, 0x6E, 0xCD, 0xBC, 0x79, 0x34, 0xF9, 0x3C, 0x92, 0x4E,
  0x8E, 0x3E, 0xC9, 0x8D, 0x2B, 0x3E, 0x5F, 0xAA, 0x48, 0x3E,
  0x9F, 0xA6, 0x36, 0xBD, 0xE9, 0x82, 0xEC, 0xBD, 0x6A, 0x8A,
  0x9C, 0x3D, 0xD2, 0xEF, 0x4A, 0x3E, 0x90, 0x4B, 0xA5, 0xBE,
  0x21, 0xA2, 0x78, 0xBE, 0x52, 0xBC, 0x67, 0x3E, 0x9A, 0x5A,
  0xB5, 0xBD, 0xCA, 0xED, 0x3A, 0xBE, 0x0B, 0x9B, 0x9C, 0x3D,
  0xDA, 0x85, 0x06, 0x3E, 0x56, 0xFE, 0x08, 0x3E, 0x4E, 0xFC,
  0x71, 0x3E, 0x51, 0xBD, 0xE3, 0x3D, 0x7F, 0x31, 0x87, 0xBD,
  0x8F, 0x7B, 0xA6, 0xBE, 0xEB, 0x46, 0x00, 0xBC, 0xD7, 0x9E,
  0x39, 0xBE, 0xD3, 0x33, 0x4B, 0xBC, 0x71, 0x96, 0x49, 0xBB,
  0x9B, 0x91, 0x89, 0x3D, 0xC6, 0x61, 0x3E, 0xBD, 0xF2, 0xC4,
  0x93, 0xBD, 0x79, 0x52, 0x1D, 0xBD, 0xB5, 0xD0, 0x47, 0x3E,
  0x5E, 0x2E, 0xE1, 0x3D, 0x33, 0x21, 0x94, 0xBE, 0x29, 0xC3,
  0x86, 0xBE, 0x31, 0x57, 0x50, 0xBE, 0xCE, 0xD2, 0x91, 0xBE,
  0xEF, 0xF8, 0x31, 0x3D, 0x8C, 0x8D, 0xEF, 0xBB, 0xA8, 0x19,
  0x69, 0xBE, 0xFF, 0x00, 0xC9, 0xBD, 0x61, 0x1F, 0x05, 0xBE,
  0x4C, 0xDF, 0x8B, 0x3E, 0x9A, 0xCE, 0x3E, 0x3D, 0xC9, 0xF8,
  0x90, 0xBD, 0xC2, 0xAA, 0xFE, 0xBD, 0x5B, 0x7E, 0x87, 0x3E,
  0xD1, 0xA7, 0xFF, 0x3D, 0xF4, 0xE8, 0x51, 0x3E, 0x80, 0xC6,
  0x1C, 0x3E, 0xCC, 0xD9, 0x55, 0x3E, 0x3E, 0x9E, 0x6F, 0xBE,
  0xF1, 0x2D, 0x1E, 0xBE, 0x75, 0x7B, 0xFA, 0xBD, 0xDF, 0xA2,
  0x1E, 0xBD, 0x46, 0xAB, 0x09, 0xBE, 0x7B, 0xF5, 0xA6, 0xBC,
  0x4E, 0x85, 0x74, 0xBE, 0xB4, 0xF5, 0x06, 0x3E, 0xED, 0x77,
  0x8E, 0x3D, 0xA8, 0x9F, 0x6C, 0x3E, 0x7F, 0x36, 0xAF, 0xBB,
  0xA9, 0x46, 0x99, 0xBD, 0x9B, 0x79, 0x5D, 0xBD, 0xD3, 0x8D,
  0x1C, 0xBE, 0x0C, 0xA7, 0x10, 0xBE, 0x82, 0x60, 0xC5, 0xBC,
  0x68, 0xCE, 0x6D, 0x3E, 0x34, 0xA4, 0x2F, 0xBE, 0x8F, 0x40,
  0x1F, 0xBE, 0xC3, 0xB9, 0xC1, 0x3D, 0x46, 0xB3, 0x9A, 0xBD,
  0xD8, 0x49, 0x61, 0xBD, 0x41, 0xBD, 0x9C, 0x3E, 0x60, 0x5A,
  0x90, 0x3E, 0x6E, 0xD2, 0xD2, 0xBD, 0x4D, 0xE2, 0xF8, 0xBB,
  0x19, 0xD3, 0x7E, 0x3C, 0x01, 0x13, 0x9A, 0x3D, 0xCF, 0x84,
  0x10, 0xBE, 0x99, 0x89, 0xE8, 0xBD, 0x8C, 0x7F, 0x49, 0xBE,
  0x9E, 0xA9, 0x2C, 0xBE, 0xF9, 0xFC, 0x30, 0xBD, 0x34, 0x53,
  0x04, 0x3D, 0x83, 0xF4, 0x99, 0xBE, 0x81, 0x16, 0x7F, 0xBC,
  0x2C, 0x53, 0x48, 0xBE, 0x37, 0xCF, 0xD7, 0xBC, 0x7A, 0xAE,
  0x25, 0xBD, 0xA7, 0x86, 0x36, 0xBE, 0x5B, 0x3F, 0x7C, 0xBE,
  0x82, 0xD5, 0x11, 0xBE, 0x35, 0xD4, 0x50, 0xBE, 0x60, 0xE6,
  0x7F, 0xBC, 0x85, 0xED, 0x8B, 0x3D, 0x85, 0x75, 0x0E, 0x3E,
  0x97, 0xA6, 0x05, 0xBE, 0xEC, 0xDB, 0xED, 0xBC, 0xE9, 0x42,
  0x3F, 0xBE, 0x28, 0x7F, 0x68, 0xBA, 0xEE, 0x0A, 0x7F, 0xBE,
  0x0D, 0x65, 0x44, 0x3E, 0xE4, 0x8E, 0x88, 0xBE, 0xD4, 0x8D,
  0xC1, 0x3E, 0xD2, 0x70, 0x8C, 0x3D, 0x11, 0x3A, 0x84, 0xBE,
  0x53, 0xB6, 0x0B, 0x3E, 0xC9, 0xA8, 0x18, 0xBE, 0xD4, 0xCD,
  0x8A, 0xBC, 0xED, 0x62, 0xDB, 0x3C, 0x83, 0x61, 0xAA, 0x3C,
  0x03, 0xDD, 0x74, 0x3E, 0x1F, 0xC7, 0x96, 0x3D, 0x90, 0x63,
  0x0D, 0xBE, 0xFE, 0x66, 0x1E, 0xBE, 0xED, 0x59, 0x70, 0xBE,
  0xC7, 0x90, 0xF4, 0x3A, 0x1A, 0x57, 0x05, 0x3E, 0x99, 0xF3,
  0xA5, 0xBE, 0x93, 0xCC, 0x8B, 0xBD, 0x72, 0xD0, 0x31, 0x3E,
  0xBF, 0x73, 0x71, 0x3E, 0x77, 0xCE, 0xEB, 0x3D, 0xBC, 0x03,
  0xB8, 0xBD, 0xD7, 0x63, 0x18, 0xBE, 0x2B, 0xF8, 0x81, 0x3E,
  0xFD, 0x5A, 0x84, 0xBD, 0xAC, 0x02, 0x89, 0x3E, 0x0C, 0x67,
  0xD8, 0xBD, 0xF4, 0xBA, 0x55, 0xBE, 0xE8, 0x66, 0x87, 0xBE,
  0x07, 0x96, 0x8F, 0x3D, 0x09, 0xD4, 0x12, 0x3D, 0xC4, 0xF2,
  0x3D, 0x3E, 0x61, 0x56, 0x9E, 0x3E, 0x75, 0xA2, 0x97, 0x3C,
  0x2E, 0x69, 0xB4, 0xBD, 0x57, 0x49, 0x30, 0xBE, 0xFC, 0x12,
  0x12, 0x3E, 0x3A, 0x4A, 0x50, 0xBE, 0xD5, 0x7B, 0x2E, 0x3E,
  0x66, 0x63, 0x96, 0xBE, 0x41, 0xE0, 0xF7, 0x3D, 0xC3, 0xF5,
  0x20, 0x3C, 0x32, 0xAD, 0x26, 0x3E, 0x37, 0x1D, 0xB4, 0x3D,
  0x05, 0xAF, 0xAF, 0x3D, 0x8F, 0x93, 0xEB, 0xBD, 0x65, 0x26,
  0x7F, 0xBD, 0xC2, 0x3C, 0x7C, 0xBD, 0x67, 0xC4, 0x75, 0x3C,
  0x80, 0xD7, 0x73, 0xBE, 0x75, 0xD2, 0x86, 0xBE, 0x79, 0x35,
  0x95, 0x3D, 0x20, 0x05, 0x9A, 0xBE, 0x95, 0x64, 0x76, 0xBE,
  0xE1, 0x0D, 0x2F, 0x3D, 0xE4, 0x1A, 0xE5, 0xBD, 0x1D, 0xAE,
  0x7E, 0x3D, 0xD1, 0x10, 0x45, 0xBD, 0x6D, 0xEB, 0xA0, 0x3D,
  0x1C, 0x83, 0x19, 0xBE, 0xE3, 0x2B, 0x21, 0xBD, 0xD3, 0x36,
  0x83, 0xBE, 0xBF, 0x64, 0x43, 0x3D, 0xAE, 0x5B, 0x53, 0xBE,
  0xFF, 0xA9, 0x72, 0xBE, 0x5F, 0x87, 0x4E, 0xBE, 0x49, 0xB4,
  0x43, 0xBE, 0x1D, 0x2E, 0x24, 0xBD, 0x20, 0x04, 0xE5, 0xBC,
  0x47, 0xA4, 0x05, 0x3D, 0x9A, 0x37, 0x2F, 0xBC, 0xC3, 0xED,
  0x4D, 0x3E, 0x8B, 0xFE, 0x72, 0xBE, 0xB8, 0xE1, 0x09, 0xBE,
  0x04, 0x01, 0x79, 0xBD, 0xF5, 0x39, 0x75, 0xBE, 0x20, 0x26,
  0xCA, 0x3D, 0x04, 0x56, 0xBD, 0x3D, 0x56, 0x29, 0x0B, 0xBE,
  0x42, 0xBA, 0x97, 0x3D, 0x75, 0x28, 0xE3, 0xBC, 0x74, 0xAE,
  0x04, 0xBF, 0x80, 0x36, 0x2D, 0x3E, 0x09, 0x56, 0x95, 0xBE,
  0x8E, 0x79, 0x05, 0x3D, 0x03, 0xAF, 0xF6, 0x3D, 0x93, 0x19,
  0x79, 0x3E, 0x6A, 0xA1, 0xAB, 0xBB, 0x2C, 0x2C, 0xBB, 0x3D,
  0x25, 0xFE, 0x1A, 0x3D, 0x65, 0xE1, 0x56, 0xBD, 0x6E, 0xEF,
  0x5A, 0x3E, 0x21, 0x5F, 0xE1, 0xBD, 0xF3, 0x94, 0x11, 0xBE,
  0x9F, 0x8E, 0xAA, 0x3D, 0xE4, 0x98, 0xE5, 0x3C, 0x9E, 0x89,
  0x64, 0xBC, 0x4B, 0x58, 0x59, 0x3E, 0xB1, 0x61, 0xD1, 0xBD,
  0x5C, 0xD6, 0x9B, 0xBD, 0xF9, 0xAE, 0xB3, 0xBD, 0xB7, 0x75,
  0x43, 0xBE, 0x46, 0x2F, 0xE0, 0xBC, 0x98, 0x0C, 0xCA, 0x3D,
  0x34, 0xEC, 0x52, 0x3E, 0x72, 0x06, 0xC8, 0x3D, 0x16, 0x5A,
  0x25, 0xBE, 0x11, 0x16, 0x55, 0x3E, 0x85, 0xC2, 0xC1, 0x3D,
  0xA4, 0xE9, 0x4E, 0xBE, 0xF7, 0x48, 0xCC, 0x3D, 0xAE, 0x59,
  0xD6, 0xBD, 0x5A, 0x22, 0xC2, 0x3D, 0xD7, 0x4E, 0x8E, 0xBD,
  0x86, 0xC0, 0x6D, 0xBE, 0xEA, 0xD4, 0x61, 0xBE, 0xCD, 0x75,
  0x00, 0x3E, 0x78, 0x6B, 0x12, 0x3C, 0x5C, 0x70, 0x84, 0x3E,
  0xA9, 0xCD, 0x9B, 0xBE, 0x37, 0x21, 0x83, 0x3B, 0x1E, 0x21,
  0x19, 0x3D, 0x99, 0x1F, 0x1F, 0xBE, 0x41, 0x60, 0x0E, 0xBE,
  0xBB, 0x12, 0x19, 0x3E, 0x11, 0xF2, 0xC3, 0x3D, 0x7A, 0xA5,
  0x81, 0x3D, 0xC3, 0x17, 0x6F, 0x3E, 0x97, 0x5F, 0x4A, 0xBD,
  0xAD, 0x29, 0x36, 0xBD, 0x25, 0x4E, 0x1F, 0x3E, 0x01, 0xED,
  0x36, 0xBE, 0xB5, 0xF9, 0x5C, 0xBC, 0xBF, 0x0B, 0xA5, 0x3E,
  0xDE, 0xC1, 0x81, 0xBD, 0xCC, 0x24, 0x66, 0x3E, 0x90, 0x53,
  0x5C, 0x3E, 0xF0, 0x83, 0x59, 0x3D, 0x3C, 0x0B, 0x1C, 0xBB,
  0x0F, 0x6E, 0xE2, 0x3C, 0x52, 0x06, 0x13, 0x3E, 0x68, 0xBD,
  0x5B, 0x3E, 0x25, 0x3E, 0x40, 0x3B, 0x2A, 0xD9, 0x3B, 0xBC,
  0x00, 0xCD, 0x02, 0x3E, 0x7E, 0xB9, 0xB5, 0xBC, 0x00, 0x68,
  0x92, 0x3D, 0xAA, 0xD5, 0x16, 0x3D, 0x42, 0x9A, 0x92, 0x3D,
  0x07, 0xB1, 0x86, 0x3D, 0xB0, 0x8E, 0x70, 0x3E, 0x17, 0xAB,
  0x88, 0x3E, 0xD2, 0x70, 0x6F, 0x3E, 0x98, 0x22, 0xBB, 0x3E,
  0x20, 0xFA, 0x02, 0xBE, 0x06, 0xBF, 0x46, 0x3E, 0xB4, 0x4E,
  0x0F, 0x3D, 0x6C, 0x32, 0x3D, 0xBE, 0x85, 0x78, 0x85, 0xBD,
  0xAB, 0x14, 0xB0, 0x3C, 0xE5, 0x7C, 0x36, 0xBE, 0x44, 0x93,
  0x37, 0x3D, 0x9E, 0x59, 0x0C, 0xBD, 0xE8, 0x55, 0x2D, 0x3D,
  0xAC, 0xE6, 0x36, 0x3E, 0xE5, 0x4D, 0xB5, 0xBE, 0xA1, 0xF7,
  0x7B, 0xBD, 0xAB, 0xDF, 0xDA, 0xBE, 0x83, 0x5A, 0xF6, 0x3D,
  0xCD, 0x72, 0x8B, 0xBE, 0x60, 0x16, 0xAF, 0x3C, 0x36, 0x29,
  0x31, 0xBD, 0x79, 0x4A, 0x25, 0xBD, 0x69, 0xBD, 0x73, 0xBE,
  0x54, 0x69, 0x89, 0x3E, 0x39, 0x76, 0x4B, 0xBE, 0xC0, 0x44,
  0xB5, 0xBD, 0x4E, 0x24, 0x0A, 0xBE, 0xF1, 0x8C, 0xE9, 0xBD,
  0xD1, 0x75, 0xAE, 0x3D, 0x8F, 0x04, 0x46, 0xBD, 0x11, 0x63,
  0x07, 0x3E, 0x77, 0xF8, 0x0B, 0x3E, 0x60, 0xAE, 0xDA, 0xBD,
  0x11, 0xC2, 0xB3, 0xBE, 0x09, 0x8C, 0x82, 0xBE, 0xCF, 0xEC,
  0x62, 0xBE, 0xA0, 0xE8, 0x14, 0xBE, 0x1D, 0xDF, 0xCE, 0x3D,
  0xF2, 0x45, 0xBA, 0x3D, 0x4C, 0x56, 0xE5, 0xBC, 0x78, 0xC7,
  0x7F, 0x3E, 0x54, 0xC8, 0x72, 0xBE, 0xD5, 0xE5, 0xDD, 0xBC,
  0xC8, 0xBA, 0xA4, 0x3D, 0x08, 0xA6, 0x95, 0xBC, 0x21, 0x56,
  0x30, 0xBE, 0x9C, 0xF2, 0xAC, 0x3D, 0x09, 0x27, 0x15, 0xBD,
  0xAF, 0xBA, 0x0C, 0xBD, 0xC5, 0x20, 0x9F, 0x3E, 0x8B, 0xFA,
  0x7A, 0x3E, 0x99, 0xD1, 0x87, 0xBE, 0x62, 0x38, 0x89, 0x3E,
  0xED, 0x9C, 0xAC, 0xBD, 0xF3, 0x9E, 0x88, 0xBE, 0x72, 0x35,
  0x96, 0x3D, 0x9F, 0xB5, 0x64, 0x3D, 0xDB, 0x0E, 0x57, 0xBD,
  0xE5, 0x8C, 0x16, 0xBD, 0x2E, 0xA6, 0x8F, 0x3E, 0xF2, 0x09,
  0x91, 0x3E, 0xA3, 0xAA, 0x7A, 0x3E, 0xBC, 0xE1, 0x0F, 0xBE,
  0x35, 0x3B, 0x9C, 0x3D, 0x2A, 0x78, 0x00, 0xBD, 0x9A, 0x01,
  0xF7, 0xBE, 0x6D, 0x53, 0x65, 0x3D, 0xC1, 0xD6, 0x93, 0x3C,
  0x5F, 0x63, 0x86, 0xBD, 0x9D, 0x3E, 0x9F, 0xBD, 0xD0, 0xEE,
  0x98, 0xBE, 0xEC, 0x1F, 0xC3, 0x3B, 0x4A, 0x54, 0x45, 0xBE,
  0x26, 0xDC, 0x71, 0xBC, 0xD5, 0xC1, 0x30, 0x3D, 0x07, 0x8A,
  0x90, 0xBE, 0x03, 0xD9, 0x39, 0xBE, 0xA0, 0x44, 0x59, 0x3E,
  0x2F, 0x24, 0xCE, 0xBD, 0x6C, 0xC7, 0x32, 0x3E, 0x23, 0x9D,
  0x95, 0xBE, 0xA9, 0x91, 0x8D, 0xBE, 0xE7, 0xBF, 0x08, 0xBE,
  0x6D, 0x51, 0x6E, 0x3E, 0xF1, 0x59, 0x41, 0xBE, 0x33, 0x5E,
  0x7A, 0x3B, 0x62, 0x46, 0x63, 0x3D, 0x53, 0x04, 0xA4, 0xBC,
  0x16, 0x39, 0x68, 0xBD, 0x24, 0x6C, 0xB6, 0xBE, 0xA7, 0x4D,
  0x3B, 0xBD, 0xFE, 0xD5, 0xA6, 0x3D, 0x4D, 0x36, 0x2B, 0xBE,
  0x5A, 0xB4, 0x58, 0x3E, 0x25, 0x43, 0x6D, 0x3D, 0x2A, 0xE8,
  0x18, 0x3B, 0xCD, 0x6A, 0x88, 0x3C, 0x25, 0x7C, 0x44, 0x3E,
  0x71, 0xFD, 0x6A, 0x3E, 0xDE, 0x8E, 0x67, 0x3E, 0x13, 0x1F,
  0x4D, 0x3C, 0x93, 0x12, 0xA6, 0x3D, 0x09, 0x36, 0x4E, 0xBE,
  0xE2, 0xD9, 0xA9, 0xBE, 0x87, 0x9D, 0x43, 0x3E, 0xB5, 0x7A,
  0x65, 0x3E, 0xFF, 0x56, 0x05, 0x3E, 0x59, 0x67, 0x16, 0x3E,
  0x33, 0xEE, 0x10, 0x3E, 0x2F, 0x16, 0x2B, 0x3E, 0xDF, 0xA3,
  0x9A, 0x3C, 0x92, 0xAF, 0x46, 0xBD, 0x6A, 0x81, 0x22, 0x3E,
  0x88, 0x05, 0xA5, 0xBE, 0x29, 0x01, 0x32, 0x3E, 0x00, 0x5E,
  0x36, 0x3E, 0x3F, 0x2B, 0x9C, 0xBE, 0x1A, 0x70, 0xB7, 0xBD,
  0xC5, 0x47, 0x0D, 0x3E, 0xF2, 0x52, 0x20, 0x3E, 0x86, 0x80,
  0x96, 0xBE, 0x37, 0x57, 0x99, 0xBE, 0x9E, 0xF6, 0x9A, 0x3E,
  0x40, 0xF0, 0x13, 0x3E, 0x17, 0x3D, 0x0F, 0xBD, 0x25, 0xA0,
  0x25, 0xBE, 0x33, 0x41, 0x03, 0xBC, 0xB9, 0x0F, 0xD6, 0xBD,
  0xDD, 0x25, 0xCC, 0xBD, 0xC3, 0x94, 0x81, 0xBD, 0x16, 0x6E,
  0x1D, 0xBD, 0xBF, 0xDA, 0xFD, 0xBD, 0x57, 0xBC, 0x0A, 0xBE,
  0xAB, 0x17, 0x62, 0x3D, 0x01, 0x9A, 0x68, 0xBE, 0x20, 0xBC,
  0x7D, 0x3E, 0x7F, 0xB4, 0xA0, 0xBD, 0x24, 0xFB, 0x83, 0x3E,
  0x9D, 0x2D, 0x93, 0x3D, 0xD4, 0x00, 0x77, 0xBE, 0x32, 0x8F,
  0x11, 0x3E, 0xA1, 0x30, 0x8F, 0xBE, 0x01, 0xC0, 0xDC, 0xBD,
  0x0E, 0x10, 0x46, 0xBE, 0xDF, 0x74, 0x3D, 0x3E, 0x7E, 0xE3,
  0x71, 0xBC, 0x8E, 0x77, 0x6A, 0x3D, 0xE8, 0x40, 0x4A, 0x3E,
  0x76, 0xB9, 0x4E, 0x3D, 0x6F, 0x66, 0x2E, 0xBE, 0x42, 0xB7,
  0x99, 0x3D, 0x89, 0x85, 0x05, 0xBE, 0x67, 0x51, 0x13, 0xBE,
  0x0D, 0x45, 0x6C, 0xBE, 0xAB, 0xE6, 0xA8, 0xBE, 0xFD, 0x2C,
  0xD6, 0xBD, 0x44, 0x07, 0x33, 0xBE, 0x4D, 0x9D, 0x98, 0x3C,
  0xDF, 0xD3, 0x2B, 0xBE, 0x61, 0x33, 0x28, 0xBE, 0xEA, 0x02,
  0x70, 0x3E, 0xB2, 0xC2, 0x35, 0x3E, 0x2D, 0x91, 0x8D, 0x3E,
  0x25, 0x0B, 0x5E, 0x3D, 0x01, 0xA2, 0x36, 0xBE, 0x02, 0xDE,
  0x56, 0x3D, 0x3D, 0xA1, 0x19, 0xBE, 0x76, 0x6A, 0x80, 0xBE,
  0xAF, 0x06, 0x34, 0xBE, 0x80, 0x89, 0x66, 0xBE, 0x08, 0x83,
  0x8A, 0xBD, 0x41, 0x5D, 0x46, 0xBD, 0xC2, 0x29, 0x4A, 0xBE,
  0xCD, 0xE5, 0x55, 0x3E, 0x5D, 0x09, 0x47, 0x3E, 0x84, 0x60,
  0xC7, 0x3D, 0x64, 0x62, 0x88, 0xBE, 0xED, 0x6E, 0x75, 0x3C,
  0x37, 0x49, 0x9B, 0xBE, 0xF3, 0x11, 0x61, 0x3D, 0x40, 0x00,
  0x0E, 0xBE, 0xD5, 0x70, 0xF0, 0x3C, 0x7F, 0xBD, 0x2A, 0xBD,
  0x6C, 0x53, 0x8E, 0xBE, 0x46, 0x55, 0xA8, 0xBD, 0x34, 0xBD,
  0x65, 0xBC, 0x64, 0x07, 0x8F, 0x3E, 0x7B, 0x52, 0xC9, 0xBD,
  0x4F, 0xB0, 0xC9, 0xBC, 0xC0, 0xDC, 0x67, 0x3D, 0x4B, 0x67,
  0x57, 0xBD, 0x3C, 0x7D, 0xA3, 0x3C, 0x0D, 0xA4, 0x58, 0x3C,
  0xEF, 0xC2, 0xBE, 0x3D, 0x45, 0xE2, 0xFA, 0x3D, 0x13, 0x3B,
  0x6E, 0xBE, 0xAA, 0x57, 0xAB, 0x3D, 0xD7, 0x68, 0xE2, 0x3C,
  0xA5, 0xB3, 0x15, 0x3E, 0x9D, 0x02, 0xF8, 0xBD, 0x04, 0xCA,
  0x09, 0xBE, 0xC2, 0xEE, 0x22, 0x3D, 0x24, 0x06, 0xA1, 0x3D,
  0x89, 0xB8, 0x11, 0x3E, 0x18, 0xE8, 0x34, 0xBE, 0x91, 0x34,
  0x98, 0xBC, 0x18, 0xB8, 0x80, 0x3D, 0xBA, 0xB3, 0x3E, 0xBE,
  0x24, 0xBA, 0x6B, 0x3E, 0x13, 0x3A, 0x99, 0xBD, 0x00, 0x88,
  0x8D, 0x3E, 0x44, 0x49, 0x90, 0x3E, 0x13, 0x02, 0xC5, 0xBD,
  0xC7, 0x4E, 0x0A, 0xBE, 0xE3, 0x56, 0x71, 0xBC, 0xB3, 0x06,
  0x76, 0xBD, 0x39, 0x91, 0x77, 0x3E, 0xF7, 0x02, 0xC5, 0x3D,
  0x08, 0x39, 0x7B, 0x3E, 0x24, 0xAA, 0xB3, 0xBD, 0x31, 0x71,
  0x0E, 0xBE, 0x18, 0x87, 0xF6, 0x3C, 0x99, 0x3A, 0x45, 0xBE,
  0x76, 0x38, 0x23, 0xBD, 0xF8, 0x24, 0x6C, 0xBE, 0x5F, 0xA9,
  0x84, 0xBE, 0x33, 0x2A, 0x17, 0xBD, 0x4C, 0x0A, 0x3B, 0xBE,
  0x00, 0x38, 0x16, 0xBE, 0xCA, 0x2D, 0xA9, 0xBA, 0x44, 0x5E,
  0x90, 0xBE, 0x16, 0x39, 0x7C, 0xBE, 0x5D, 0x08, 0x59, 0xBE,
  0x79, 0x80, 0x8E, 0xBC, 0xBE, 0x6F, 0x2C, 0xBE, 0x52, 0xD3,
  0xA8, 0xBE, 0x08, 0xA4, 0x92, 0x3D, 0x05, 0x7F, 0xEF, 0xBD,
  0x7E, 0xFB, 0x24, 0x3D, 0xE2, 0x04, 0x97, 0xBE, 0xCC, 0x8E,
  0x17, 0xBE, 0x54, 0xAC, 0x78, 0x3D, 0xE8, 0x9A, 0x91, 0x3D,
  0xF5, 0x94, 0xF7, 0xBD, 0x78, 0x0B, 0xE7, 0xBD, 0xC3, 0xCE,
  0x98, 0x3D, 0xAE, 0x41, 0xA4, 0xBE, 0x4F, 0x63, 0x2A, 0x3E,
  0xFC, 0x6A, 0x1C, 0x3E, 0x1F, 0xCD, 0x0D, 0xBF, 0x97, 0x0A,
  0x3D, 0x3E, 0x13, 0x38, 0x83, 0xBD, 0xA0, 0x62, 0x1F, 0xBE,
  0x25, 0x5E, 0x05, 0xBC, 0xFC, 0x95, 0xD0, 0x3E, 0x56, 0xC8,
  0xE1, 0xBD, 0xE7, 0x2C, 0x25, 0xBE, 0xD3, 0x49, 0x03, 0xBE,
  0x55, 0x95, 0x0C, 0xBA, 0xF9, 0xEE, 0x97, 0xBE, 0x8A, 0x63,
  0xBE, 0x3D, 0x4C, 0xC8, 0xA2, 0xBD, 0xEA, 0x37, 0x57, 0x3B,
  0x9D, 0x2B, 0x73, 0xBE, 0x00, 0x3C, 0x4C, 0xBE, 0x52, 0xC6,
  0xD4, 0x3D, 0xF9, 0x3B, 0xAE, 0x3C, 0x84, 0x3E, 0x40, 0xBE,
  0xF8, 0x04, 0x9A, 0xBD, 0xC5, 0x61, 0xB2, 0x3E, 0x58, 0x4D,
  0x95, 0x3E, 0x1E, 0xAA, 0x85, 0xBE, 0xEA, 0x29, 0x7C, 0xBE,
  0x37, 0x36, 0x53, 0xBE, 0x39, 0xA6, 0x6A, 0x3C, 0x57, 0xA8,
  0x86, 0xBA, 0xA6, 0x6B, 0x76, 0xBE, 0xAB, 0x0B, 0x8B, 0xBE,
  0x1A, 0xD9, 0x29, 0xBE, 0x78, 0x27, 0x1B, 0x3E, 0x5B, 0xA4,
  0x22, 0xBE, 0x30, 0x47, 0xBF, 0xBE, 0x3A, 0xC4, 0x39, 0xBE,
  0xCE, 0xE3, 0xDD, 0x3D, 0xC7, 0x7A, 0x12, 0xBE, 0xFD, 0xED,
  0xC4, 0x3E, 0x70, 0x21, 0xA3, 0x3D, 0x38, 0x52, 0x28, 0xBE,
  0xE1, 0x3D, 0x79, 0x3E, 0x0C, 0x4C, 0x83, 0x3B, 0x91, 0xF1,
  0x4C, 0xBE, 0x02, 0xAE, 0x51, 0x3A, 0xF7, 0x66, 0x19, 0x3E,
  0x20, 0xB1, 0x37, 0xBE, 0xFF, 0x99, 0xB3, 0x3D, 0x76, 0x07,
  0x93, 0xBD, 0xA9, 0x4D, 0x26, 0xBE, 0x41, 0xE9, 0x1C, 0xBD,
  0x9A, 0xC8, 0x3F, 0x3E, 0x01, 0x51, 0x35, 0x3E, 0xD0, 0x5A,
  0x13, 0x3D, 0x88, 0x17, 0x28, 0x3E, 0xA9, 0x05, 0x34, 0x3D,
  0x15, 0xB3, 0xBE, 0x3D, 0xBD, 0x31, 0x59, 0xBE, 0xB5, 0x83,
  0x4E, 0xBE, 0x31, 0xC2, 0x89, 0xBE, 0xE1, 0xD0, 0x24, 0x3E,
  0x30, 0x22, 0x0B, 0x3E, 0x2D, 0xDB, 0x85, 0xBE, 0xDC, 0x5B,
  0x15, 0xBD, 0xD8, 0x30, 0xCB, 0x3D, 0x08, 0x6A, 0x71, 0xBE,
  0xBE, 0x40, 0x78, 0xBD, 0x9B, 0x47, 0xBB, 0x3C, 0x3E, 0x6D,
  0xA6, 0xBE, 0x64, 0x83, 0x19, 0x3E, 0x25, 0x00, 0x12, 0x3D,
  0x10, 0x19, 0x15, 0x3B, 0xCE, 0x11, 0xD6, 0xBE, 0x78, 0xCD,
  0x26, 0xBE, 0xB9, 0x6D, 0x9A, 0x3D, 0x82, 0xA0, 0x38, 0xBC,
  0xF1, 0x4C, 0xDB, 0xBB, 0x11, 0xCF, 0x04, 0x3C, 0xED, 0x22,
  0xC9, 0x3D, 0xE9, 0x34, 0x95, 0xBD, 0x70, 0x48, 0xA1, 0xBE,
  0x87, 0xDD, 0x17, 0x3C, 0x8C, 0x27, 0x84, 0x3E, 0x31, 0x5E,
  0x54, 0x3E, 0xCC, 0x3E, 0xC0, 0x3C, 0xB2, 0x38, 0xE5, 0xBD,
  0x87, 0xC0, 0xDA, 0xBD, 0x52, 0x1D, 0x93, 0x3E, 0x7F, 0x99,
  0x75, 0x3E, 0xA7, 0xF0, 0x59, 0xBE, 0x47, 0xD2, 0x09, 0x3E,
  0xCA, 0x67, 0x5A, 0xBE, 0xE4, 0x5B, 0xEE, 0xBD, 0x0B, 0x41,
  0xC3, 0xBD, 0x73, 0x88, 0x68, 0x3E, 0xBD, 0x5E, 0x09, 0x3E,
  0xC5, 0x40, 0x1D, 0xBE, 0x09, 0x1D, 0x96, 0x3D, 0x9C, 0x88,
  0x28, 0xBE, 0x2D, 0x50, 0x6F, 0x3D, 0xC5, 0x47, 0x21, 0x3E,
  0xD6, 0xFE, 0x5D, 0xBE, 0x9A, 0xEF, 0x1E, 0xBE, 0x81, 0xC5,
  0x07, 0xBE, 0x5C, 0x92, 0x37, 0x3E, 0x87, 0xDB, 0xC4, 0xBE,
  0xA4, 0x5A, 0xDF, 0xBD, 0x1B, 0xD8, 0x1B, 0xBE, 0x52, 0x62,
  0xE2, 0x3C, 0xF1, 0xB1, 0x0F, 0xBE, 0x7F, 0x53, 0x99, 0xBE,
  0xA6, 0xDF, 0xD2, 0xBD, 0x74, 0x42, 0x15, 0xBE, 0x76, 0xFD,
  0xFF, 0xFF, 0x10, 0x00, 0x00, 0x00, 0x06, 0x00, 0x00, 0x00,
  0x14, 0x00, 0x00, 0x00, 0x3C, 0x00, 0x00, 0x00, 0x02, 0x00,
  0x00, 0x00, 0x0A, 0x00, 0x00, 0x00, 0x5A, 0x00, 0x00, 0x00,
  0x25, 0x00, 0x00, 0x00, 0x6D, 0x6F, 0x64, 0x65, 0x6C, 0x5F,
  0x31, 0x30, 0x2F, 0x6D, 0x6F, 0x64, 0x65, 0x6C, 0x5F, 0x34,
  0x2F, 0x65, 0x78, 0x69, 0x74, 0x32, 0x2F, 0x64, 0x65, 0x6E,
  0x73, 0x65, 0x5F, 0x31, 0x2F, 0x4D, 0x61, 0x74, 0x4D, 0x75,
  0x6C, 0x00, 0x00, 0x00, 0x7C, 0xFD, 0xFF, 0xFF, 0x6A, 0xFE,
  0xFF, 0xFF, 0x04, 0x00, 0x00, 0x00, 0x08, 0x00, 0x00, 0x00,
  0xFF, 0xFF, 0xFF, 0xFF, 0x5A, 0x00, 0x00, 0x00, 0x00, 0x00,
  0x0E, 0x00, 0x18, 0x00, 0x08, 0x00, 0x07, 0x00, 0x0C, 0x00,
  0x10, 0x00, 0x14, 0x00, 0x0E, 0x00, 0x00, 0x00, 0x00, 0x00,
  0x00, 0x02, 0x10, 0x00, 0x00, 0x00, 0x05, 0x00, 0x00, 0x00,
  0x10, 0x00, 0x00, 0x00, 0x38, 0x00, 0x00, 0x00, 0x01, 0x00,
  0x00, 0x00, 0x02, 0x00, 0x00, 0x00, 0x26, 0x00, 0x00, 0x00,
  0x6D, 0x6F, 0x64, 0x65, 0x6C, 0x5F, 0x31, 0x30, 0x2F, 0x6D,
  0x6F, 0x64, 0x65, 0x6C, 0x5F, 0x34, 0x2F, 0x65, 0x78, 0x69,
  0x74, 0x32, 0x2F, 0x66, 0x6C, 0x61, 0x74, 0x74, 0x65, 0x6E,
  0x5F, 0x31, 0x2F, 0x43, 0x6F, 0x6E, 0x73, 0x74, 0x00, 0x00,
  0xF0, 0xFD, 0xFF, 0xFF, 0xDE, 0xFE, 0xFF, 0xFF, 0x04, 0x00,
  0x00, 0x00, 0x28, 0x00, 0x00, 0x00, 0x7D, 0x59, 0x8C, 0xBD,
  0x53, 0xD8, 0x75, 0x3D, 0x11, 0x65, 0x05, 0x3C, 0xF8, 0x6C,
  0x8A, 0xBC, 0x4A, 0x69, 0x0C, 0x3D, 0xA2, 0x46, 0x20, 0xBD,
  0xBB, 0xAB, 0xB0, 0x3C, 0xB3, 0x24, 0x59, 0x3C, 0x0E, 0x38,
  0xB7, 0xBC, 0xDA, 0xB7, 0x96, 0x3C, 0x6E, 0xFE, 0xFF, 0xFF,
  0x10, 0x00, 0x00, 0x00, 0x04, 0x00, 0x00, 0x00, 0x10, 0x00,
  0x00, 0x00, 0x48, 0x00, 0x00, 0x00, 0x01, 0x00, 0x00, 0x00,
  0x0A, 0x00, 0x00, 0x00, 0x35, 0x00, 0x00, 0x00, 0x6D, 0x6F,
  0x64, 0x65, 0x6C, 0x5F, 0x31, 0x30, 0x2F, 0x6D, 0x6F, 0x64,
  0x65, 0x6C, 0x5F, 0x34, 0x2F, 0x65, 0x78, 0x69, 0x74, 0x32,
  0x2F, 0x64, 0x65, 0x6E, 0x73, 0x65, 0x5F, 0x31, 0x2F, 0x42,
  0x69, 0x61, 0x73, 0x41, 0x64, 0x64, 0x2F, 0x52, 0x65, 0x61,
  0x64, 0x56, 0x61, 0x72, 0x69, 0x61, 0x62, 0x6C, 0x65, 0x4F,
  0x70, 0x00, 0x00, 0x00, 0x80, 0xFE, 0xFF, 0xFF, 0x6E, 0xFF,
  0xFF, 0xFF, 0x04, 0x00, 0x00, 0x00, 0x28, 0x00, 0x00, 0x00,
  0xD9, 0xDE, 0x08, 0x3C, 0xE4, 0x4A, 0xA1, 0xBA, 0x6C, 0x17,
  0xCD, 0x3D, 0xC3, 0x1C, 0xD9, 0x3C, 0xF6, 0xB5, 0xCE, 0xBB,
  0xDD, 0x39, 0x89, 0x3D, 0xD0, 0xD3, 0x88, 0xBD, 0xBB, 0xEC,
  0x93, 0x3D, 0x7E, 0x05, 0x67, 0xBD, 0x71, 0xB2, 0x63, 0x3D,
  0xFE, 0xFE, 0xFF, 0xFF, 0x10, 0x00, 0x00, 0x00, 0x03, 0x00,
  0x00, 0x00, 0x10, 0x00, 0x00, 0x00, 0x48, 0x00, 0x00, 0x00,
  0x01, 0x00, 0x00, 0x00, 0x0A, 0x00, 0x00, 0x00, 0x36, 0x00,
  0x00, 0x00, 0x6D, 0x6F, 0x64, 0x65, 0x6C, 0x5F, 0x31, 0x30,
  0x2F, 0x6D, 0x6F, 0x64, 0x65, 0x6C, 0x5F, 0x34, 0x2F, 0x65,
  0x78, 0x69, 0x74, 0x32, 0x2F, 0x63, 0x6F, 0x6E, 0x76, 0x32,
  0x64, 0x5F, 0x33, 0x2F, 0x42, 0x69, 0x61, 0x73, 0x41, 0x64,
  0x64, 0x2F, 0x52, 0x65, 0x61, 0x64, 0x56, 0x61, 0x72, 0x69,
  0x61, 0x62, 0x6C, 0x65, 0x4F, 0x70, 0x00, 0x00, 0x60, 0xFF,
  0xFF, 0xFF, 0x00, 0x00, 0x06, 0x00, 0x08, 0x00, 0x04, 0x00,
  0x06, 0x00, 0x00, 0x00, 0x04, 0x00, 0x00, 0x00, 0x28, 0x00,
  0x00, 0x00, 0x09, 0x7D, 0xED, 0xBC, 0xE1, 0x68, 0xAF, 0xBB,
  0x36, 0x14, 0x72, 0x3D, 0x3C, 0x7F, 0xD4, 0x3C, 0xFD, 0x91,
  0xE4, 0x3C, 0x9C, 0xB0, 0x31, 0xBC, 0x57, 0x71, 0xC4, 0xBC,
  0x25, 0xB7, 0xBA, 0x3C, 0xDB, 0x04, 0xDC, 0xBC, 0x2A, 0x3E,
  0xAB, 0x3D, 0x96, 0xFF, 0xFF, 0xFF, 0x10, 0x00, 0x00, 0x00,
  0x02, 0x00, 0x00, 0x00, 0x10, 0x00, 0x00, 0x00, 0x54, 0x00,
  0x00, 0x00, 0x01, 0x00, 0x00, 0x00, 0x0A, 0x00, 0x00, 0x00,
  0x3C, 0x00, 0x00, 0x00, 0x6D, 0x6F, 0x64, 0x65, 0x6C, 0x5F,
  0x31, 0x30, 0x2F, 0x6D, 0x6F, 0x64, 0x65, 0x6C, 0x5F, 0x33,
  0x2F, 0x62, 0x61, 0x73, 0x65, 0x5F, 0x6D, 0x6F, 0x64, 0x65,
  0x6C, 0x32, 0x2F, 0x63, 0x6F, 0x6E, 0x76, 0x32, 0x64, 0x5F,
  0x32, 0x2F, 0x42, 0x69, 0x61, 0x73, 0x41, 0x64, 0x64, 0x2F,
  0x52, 0x65, 0x61, 0x64, 0x56, 0x61, 0x72, 0x69, 0x61, 0x62,
  0x6C, 0x65, 0x4F, 0x70, 0x00, 0x00, 0x00, 0x00, 0x04, 0x00,
  0x06, 0x00, 0x04, 0x00, 0x00, 0x00, 0x00, 0x00, 0x0E, 0x00,
  0x14, 0x00, 0x04, 0x00, 0x00, 0x00, 0x08, 0x00, 0x0C, 0x00,
  0x10, 0x00, 0x0E, 0x00, 0x00, 0x00, 0x10, 0x00, 0x00, 0x00,
  0x01, 0x00, 0x00, 0x00, 0x1C, 0x00, 0x00, 0x00, 0x24, 0x00,
  0x00, 0x00, 0x04, 0x00, 0x00, 0x00, 0x01, 0x00, 0x00, 0x00,
  0x0E, 0x00, 0x00, 0x00, 0x0E, 0x00, 0x00, 0x00, 0x05, 0x00,
  0x00, 0x00, 0x07, 0x00, 0x00, 0x00, 0x69, 0x6E, 0x70, 0x75,
  0x74, 0x5F, 0x33, 0x00, 0xFC, 0xFF, 0xFF, 0xFF, 0x04, 0x00,
  0x04, 0x00, 0x04, 0x00, 0x00, 0x00
};
const int tf_model_len = 11796;