
// This is a TensorFlow Lite model file that has been converted into a C data
// array using the tensorflow.lite.util.convert_bytes_to_c_source() function.
// This form is useful for compiling into a binary for devices that don't have a
// file system.

#include "pruned_model_chunk2.h"

// We need to keep the data array aligned on some architectures.
#ifdef __has_attribute
#define HAVE_ATTRIBUTE(x) __has_attribute(x)
#else
#define HAVE_ATTRIBUTE(x) 0
#endif
#if HAVE_ATTRIBUTE(aligned) || (defined(__GNUC__) && !defined(__clang__))
#define DATA_ALIGN_ATTRIBUTE __attribute__((aligned(16)))
#else
#define DATA_ALIGN_ATTRIBUTE
#endif

const unsigned char pruned_model_chunk2[] DATA_ALIGN_ATTRIBUTE =
{
  0x1C, 0x00, 0x00, 0x00, 0x54, 0x46, 0x4C, 0x33, 0x00, 0x00,
  0x12, 0x00, 0x1C, 0x00, 0x04, 0x00, 0x08, 0x00, 0x0C, 0x00,
  0x10, 0x00, 0x14, 0x00, 0x00, 0x00, 0x18, 0x00, 0x12, 0x00,
  0x00, 0x00, 0x03, 0x00, 0x00, 0x00, 0x14, 0x00, 0x00, 0x00,
  0x28, 0x00, 0x00, 0x00, 0xC4, 0x00, 0x00, 0x00, 0x28, 0x00,
  0x00, 0x00, 0x6C, 0x00, 0x00, 0x00, 0x05, 0x00, 0x00, 0x00,
  0xD4, 0x05, 0x00, 0x00, 0x24, 0x05, 0x00, 0x00, 0x98, 0x02,
  0x00, 0x00, 0x08, 0x02, 0x00, 0x00, 0x90, 0x01, 0x00, 0x00,
  0x01, 0x00, 0x00, 0x00, 0xC0, 0x00, 0x00, 0x00, 0x11, 0x00,
  0x00, 0x00, 0xB4, 0x2D, 0x00, 0x00, 0xB0, 0x2D, 0x00, 0x00,
  0xC4, 0x2C, 0x00, 0x00, 0x28, 0x2C, 0x00, 0x00, 0x94, 0x2B,
  0x00, 0x00, 0x1C, 0x2B, 0x00, 0x00, 0xAC, 0x1C, 0x00, 0x00,
  0x34, 0x15, 0x00, 0x00, 0xBC, 0x06, 0x00, 0x00, 0x90, 0x2D,
  0x00, 0x00, 0x8C, 0x2D, 0x00, 0x00, 0x88, 0x2D, 0x00, 0x00,
  0x84, 0x2D, 0x00, 0x00, 0x80, 0x2D, 0x00, 0x00, 0x7C, 0x2D,
  0x00, 0x00, 0x78, 0x2D, 0x00, 0x00, 0x38, 0x00, 0x00, 0x00,
  0x01, 0x00, 0x00, 0x00, 0x0C, 0x00, 0x00, 0x00, 0x08, 0x00,
  0x0C, 0x00, 0x04, 0x00, 0x08, 0x00, 0x08, 0x00, 0x00, 0x00,
  0x08, 0x00, 0x00, 0x00, 0x10, 0x00, 0x00, 0x00, 0x13, 0x00,
  0x00, 0x00, 0x6D, 0x69, 0x6E, 0x5F, 0x72, 0x75, 0x6E, 0x74,
  0x69, 0x6D, 0x65, 0x5F, 0x76, 0x65, 0x72, 0x73, 0x69, 0x6F,
  0x6E, 0x00, 0xB2, 0xD3, 0xFF, 0xFF, 0x04, 0x00, 0x00, 0x00,
  0x10, 0x00, 0x00, 0x00, 0x31, 0x2E, 0x35, 0x2E, 0x30, 0x00,
  0x00, 0x00, 0x00, 0x00, 0x00, 0x00, 0x00, 0x00, 0x00, 0x00,
  0x0F, 0x00, 0x00, 0x00, 0x4D, 0x4C, 0x49, 0x52, 0x20, 0x43,
  0x6F, 0x6E, 0x76, 0x65, 0x72, 0x74, 0x65, 0x64, 0x2E, 0x00,
  0x00, 0x00, 0x0E, 0x00, 0x18, 0x00, 0x04, 0x00, 0x08, 0x00,
  0x0C, 0x00, 0x10, 0x00, 0x14, 0x00, 0x0E, 0x00, 0x00, 0x00,
  0x14, 0x00, 0x00, 0x00, 0x50, 0x00, 0x00, 0x00, 0x54, 0x00,
  0x00, 0x00, 0x5C, 0x00, 0x00, 0x00, 0x78, 0x00, 0x00, 0x00,
  0x0F, 0x00, 0x00, 0x00, 0xA4, 0x2C, 0x00, 0x00, 0x28, 0x2C,
  0x00, 0x00, 0x8C, 0x2B, 0x00, 0x00, 0xF8, 0x2A, 0x00, 0x00,
  0x70, 0x2A, 0x00, 0x00, 0xF8, 0x29, 0x00, 0x00, 0x78, 0x1B,
  0x00, 0x00, 0x08, 0x14, 0x00, 0x00, 0xCC, 0x04, 0x00, 0x00,
  0x1C, 0x04, 0x00, 0x00, 0xD0, 0x02, 0x00, 0x00, 0x30, 0x02,
  0x00, 0x00, 0x88, 0x01, 0x00, 0x00, 0xF8, 0x00, 0x00, 0x00,
  0x80, 0x00, 0x00, 0x00, 0x01, 0x00, 0x00, 0x00, 0x00, 0x00,
  0x00, 0x00, 0x02, 0x00, 0x00, 0x00, 0x09, 0x00, 0x00, 0x00,
  0x0E, 0x00, 0x00, 0x00, 0x07, 0x00, 0x00, 0x00, 0x38, 0x04,
  0x00, 0x00, 0x8C, 0x03, 0x00, 0x00, 0x60, 0x02, 0x00, 0x00,
  0xBC, 0x01, 0x00, 0x00, 0x24, 0x01, 0x00, 0x00, 0x84, 0x00,
  0x00, 0x00, 0x10, 0x00, 0x00, 0x00, 0x04, 0x00, 0x00, 0x00,
  0x6D, 0x61, 0x69, 0x6E, 0x00, 0x00, 0x00, 0x00, 0x6E, 0xFE,
  0xFF, 0xFF, 0x00, 0x00, 0x00, 0x09, 0x04, 0x00, 0x00, 0x00,
  0x1C, 0x00, 0x00, 0x00, 0x10, 0x00, 0x00, 0x00, 0x04, 0x00,
  0x00, 0x00, 0xA2, 0xD4, 0xFF, 0xFF, 0x00, 0x00, 0x80, 0x3F,
  0x01, 0x00, 0x00, 0x00, 0x0E, 0x00, 0x00, 0x00, 0x01, 0x00,
  0x00, 0x00, 0x0D, 0x00, 0x00, 0x00, 0xD6, 0xFB, 0xFF, 0xFF,
  0x00, 0x00, 0x00, 0x19, 0x01, 0x00, 0x00, 0x00, 0x22, 0xD4,
  0xFF, 0xFF, 0x10, 0x00, 0x00, 0x00, 0x0F, 0x00, 0x00, 0x00,
  0x14, 0x00, 0x00, 0x00, 0x20, 0x00, 0x00, 0x00, 0x02, 0x00,
  0x00, 0x00, 0x01, 0x00, 0x00, 0x00, 0x0A, 0x00, 0x00, 0x00,
  0x0A, 0x00, 0x00, 0x00, 0x49, 0x64, 0x65, 0x6E, 0x74, 0x69,
  0x74, 0x79, 0x5F, 0x31, 0x00, 0x00, 0x0C, 0xD4, 0xFF, 0xFF,
  0xDE, 0xFE, 0xFF, 0xFF, 0x00, 0x00, 0x00, 0x08, 0x03, 0x00,
  0x00, 0x00, 0x18, 0x00, 0x00, 0x00, 0x0C, 0x00, 0x00, 0x00,
  0x04, 0x00, 0x00, 0x00, 0x28, 0xD4, 0xFF, 0xFF, 0x01, 0x00,
  0x00, 0x00, 0x0D, 0x00, 0x00, 0x00, 0x03, 0x00, 0x00, 0x00,
  0x0C, 0x00, 0x00, 0x00, 0x05, 0x00, 0x00, 0x00, 0x03, 0x00,
  0x00, 0x00, 0x4A, 0xFC, 0xFF, 0xFF, 0x00, 0x00, 0x00, 0x09,
  0x01, 0x00, 0x00, 0x00, 0x96, 0xD4, 0xFF, 0xFF, 0x10, 0x00,
  0x00, 0x00, 0x0E, 0x00, 0x00, 0x00, 0x14, 0x00, 0x00, 0x00,
  0x3C, 0x00, 0x00, 0x00, 0x02, 0x00, 0x00, 0x00, 0x01, 0x00,
  0x00, 0x00, 0x0A, 0x00, 0x00, 0x00, 0x26, 0x00, 0x00, 0x00,
  0x6D, 0x6F, 0x64, 0x65, 0x6C, 0x5F, 0x31, 0x30, 0x2F, 0x6D,
  0x6F, 0x64, 0x65, 0x6C, 0x5F, 0x34, 0x2F, 0x65, 0x78, 0x69,
  0x74, 0x32, 0x2F, 0x64, 0x65, 0x6E, 0x73, 0x65, 0x5F, 0x31,
  0x2F, 0x42, 0x69, 0x61, 0x73, 0x41, 0x64, 0x64, 0x00, 0x00,
  0xEC, 0xD4, 0xFF, 0xFF, 0x00, 0x00, 0x0A, 0x00, 0x10, 0x00,
  0x04, 0x00, 0x08, 0x00, 0x0C, 0x00, 0x0A, 0x00, 0x00, 0x00,
  0x02, 0x00, 0x00, 0x00, 0x10, 0x00, 0x00, 0x00, 0x04, 0x00,
  0x00, 0x00, 0x01, 0x00, 0x00, 0x00, 0x0C, 0x00, 0x00, 0x00,
  0x02, 0x00, 0x00, 0x00, 0x0B, 0x00, 0x00, 0x00, 0x04, 0x00,
  0x00, 0x00, 0xD6, 0xFC, 0xFF, 0xFF, 0x00, 0x00, 0x00, 0x16,
  0x01, 0x00, 0x00, 0x00, 0x22, 0xD5, 0xFF, 0xFF, 0x10, 0x00,
  0x00, 0x00, 0x0D, 0x00, 0x00, 0x00, 0x14, 0x00, 0x00, 0x00,
  0x40, 0x00, 0x00, 0x00, 0x02, 0x00, 0x00, 0x00, 0x01, 0x00,
  0x00, 0x00, 0x5A, 0x00, 0x00, 0x00, 0x28, 0x00, 0x00, 0x00,
  0x6D, 0x6F, 0x64, 0x65, 0x6C, 0x5F, 0x31, 0x30, 0x2F, 0x6D,
  0x6F, 0x64, 0x65, 0x6C, 0x5F, 0x34, 0x2F, 0x65, 0x78, 0x69,
  0x74, 0x32, 0x2F, 0x66, 0x6C, 0x61, 0x74, 0x74, 0x65, 0x6E,
  0x5F, 0x31, 0x2F, 0x52, 0x65, 0x73, 0x68, 0x61, 0x70, 0x65,
  0x00, 0x00, 0x00, 0x00, 0x7C, 0xD5, 0xFF, 0xFF, 0x00, 0x00,
  0x0E, 0x00, 0x18, 0x00, 0x08, 0x00, 0x0C, 0x00, 0x10, 0x00,
  0x07, 0x00, 0x14, 0x00, 0x0E, 0x00, 0x00, 0x00, 0x00, 0x00,
  0x00, 0x05, 0x01, 0x00, 0x00, 0x00, 0x2C, 0x00, 0x00, 0x00,
  0x20, 0x00, 0x00, 0x00, 0x04, 0x00, 0x00, 0x00, 0x36, 0xFE,
  0xFF, 0xFF, 0x02, 0x00, 0x00, 0x00, 0x02, 0x00, 0x00, 0x00,
  0x02, 0x00, 0x00, 0x00, 0x02, 0x00, 0x00, 0x00, 0x00, 0x00,
  0x00, 0x01, 0x01, 0x00, 0x00, 0x00, 0x0B, 0x00, 0x00, 0x00,
  0x01, 0x00, 0x00, 0x00, 0x0A, 0x00, 0x00, 0x00, 0xC6, 0xD5,
  0xFF, 0xFF, 0x10, 0x00, 0x00, 0x00, 0x0C, 0x00, 0x00, 0x00,
  0x1C, 0x00, 0x00, 0x00, 0x4C, 0x00, 0x00, 0x00, 0x04, 0x00,
  0x00, 0x00, 0x01, 0x00, 0x00, 0x00, 0x03, 0x00, 0x00, 0x00,
  0x03, 0x00, 0x00, 0x00, 0x0A, 0x00, 0x00, 0x00, 0x2E, 0x00,
  0x00, 0x00, 0x6D, 0x6F, 0x64, 0x65, 0x6C, 0x5F, 0x31, 0x30,
  0x2F, 0x6D, 0x6F, 0x64, 0x65, 0x6C, 0x5F, 0x34, 0x2F, 0x65,
  0x78, 0x69, 0x74, 0x32, 0x2F, 0x6D, 0x61, 0x78, 0x5F, 0x70,
  0x6F, 0x6F, 0x6C, 0x69, 0x6E, 0x67, 0x32, 0x64, 0x5F, 0x33,
  0x2F, 0x4D, 0x61, 0x78, 0x50, 0x6F, 0x6F, 0x6C, 0x00, 0x00,
  0xDC, 0xD5, 0xFF, 0xFF, 0x3E, 0xFE, 0xFF, 0xFF, 0x00, 0x00,
  0x00, 0x01, 0x24, 0x00, 0x00, 0x00, 0x18, 0x00, 0x00, 0x00,
  0x04, 0x00, 0x00, 0x00, 0x30, 0xFE, 0xFF, 0xFF, 0x01, 0x00,
  0x00, 0x00, 0x01, 0x00, 0x00, 0x00, 0x00, 0x00, 0x00, 0x01,
  0x01, 0x00, 0x00, 0x00, 0x0A, 0x00, 0x00, 0x00, 0x03, 0x00,
  0x00, 0x00, 0x09, 0x00, 0x00, 0x00, 0x07, 0x00, 0x00, 0x00,
  0x02, 0x00, 0x00, 0x00, 0x62, 0xD6, 0xFF, 0xFF, 0x10, 0x00,
  0x00, 0x00, 0x0B, 0x00, 0x00, 0x00, 0x1C, 0x00, 0x00, 0x00,
  0xC8, 0x00, 0x00, 0x00, 0x04, 0x00, 0x00, 0x00, 0x01, 0x00,
  0x00, 0x00, 0x07, 0x00, 0x00, 0x00, 0x07, 0x00, 0x00, 0x00,
  0x0A, 0x00, 0x00, 0x00, 0xAA, 0x00, 0x00, 0x00, 0x6D, 0x6F,
  0x64, 0x65, 0x6C, 0x5F, 0x31, 0x30, 0x2F, 0x6D, 0x6F, 0x64,
  0x65, 0x6C, 0x5F, 0x34, 0x2F, 0x65, 0x78, 0x69, 0x74, 0x32,
  0x2F, 0x63, 0x6F, 0x6E, 0x76, 0x32, 0x64, 0x5F, 0x33, 0x2F,
  0x52, 0x65, 0x6C, 0x75, 0x3B, 0x6D, 0x6F, 0x64, 0x65, 0x6C,
  0x5F, 0x31, 0x30, 0x2F, 0x6D, 0x6F, 0x64, 0x65, 0x6C, 0x5F,
  0x34, 0x2F, 0x65, 0x78, 0x69, 0x74, 0x32, 0x2F, 0x63, 0x6F,
  0x6E, 0x76, 0x32, 0x64, 0x5F, 0x33, 0x2F, 0x42, 0x69, 0x61,
  0x73, 0x41, 0x64, 0x64, 0x3B, 0x6D, 0x6F, 0x64, 0x65, 0x6C,
  0x5F, 0x31, 0x30, 0x2F, 0x6D, 0x6F, 0x64, 0x65, 0x6C, 0x5F,
  0x34, 0x2F, 0x65, 0x78, 0x69, 0x74, 0x32, 0x2F, 0x63, 0x6F,
  0x6E, 0x76, 0x32, 0x64, 0x5F, 0x33, 0x2F, 0x43, 0x6F, 0x6E,
  0x76, 0x32, 0x44, 0x3B, 0x6D, 0x6F, 0x64, 0x65, 0x6C, 0x5F,
  0x31, 0x30, 0x2F, 0x6D, 0x6F, 0x64, 0x65, 0x6C, 0x5F, 0x34,
  0x2F, 0x65, 0x78, 0x69, 0x74, 0x32, 0x2F, 0x63, 0x6F, 0x6E,
  0x76, 0x32, 0x64, 0x5F, 0x33, 0x2F, 0x42, 0x69, 0x61, 0x73,
  0x41, 0x64, 0x64, 0x2F, 0x52, 0x65, 0x61, 0x64, 0x56, 0x61,
  0x72, 0x69, 0x61, 0x62, 0x6C, 0x65, 0x4F, 0x70, 0x00, 0x00,
  0x44, 0xD7, 0xFF, 0xFF, 0x00, 0x00, 0x0E, 0x00, 0x1A, 0x00,
  0x08, 0x00, 0x0C, 0x00, 0x10, 0x00, 0x07, 0x00, 0x14, 0x00,
  0x0E, 0x00, 0x00, 0x00, 0x00, 0x00, 0x00, 0x05, 0x01, 0x00,
  0x00, 0x00, 0x3C, 0x00, 0x00, 0x00, 0x30, 0x00, 0x00, 0x00,
  0x14, 0x00, 0x00, 0x00, 0x00, 0x00, 0x0E, 0x00, 0x18, 0x00,
  0x17, 0x00, 0x10, 0x00, 0x0C, 0x00, 0x08, 0x00, 0x04, 0x00,
  0x0E, 0x00, 0x00, 0x00, 0x02, 0x00, 0x00, 0x00, 0x02, 0x00,
  0x00, 0x00, 0x02, 0x00, 0x00, 0x00, 0x02, 0x00, 0x00, 0x00,
  0x00, 0x00, 0x00, 0x01, 0x01, 0x00, 0x00, 0x00, 0x09, 0x00,
  0x00, 0x00, 0x01, 0x00, 0x00, 0x00, 0x08, 0x00, 0x00, 0x00,
  0x5E, 0xFF, 0xFF, 0xFF, 0x00, 0x00, 0x00, 0x11, 0x01, 0x00,
  0x00, 0x00, 0xAA, 0xD7, 0xFF, 0xFF, 0x10, 0x00, 0x00, 0x00,
  0x0A, 0x00, 0x00, 0x00, 0x1C, 0x00, 0x00, 0x00, 0x28, 0x00,
  0x00, 0x00, 0x04, 0x00, 0x00, 0x00, 0x01, 0x00, 0x00, 0x00,
  0x07, 0x00, 0x00, 0x00, 0x07, 0x00, 0x00, 0x00, 0x0A, 0x00,
  0x00, 0x00, 0x08, 0x00, 0x00, 0x00, 0x49, 0x64, 0x65, 0x6E,
  0x74, 0x69, 0x74, 0x79, 0x00, 0x00, 0x00, 0x00, 0xEC, 0xD7,
  0xFF, 0xFF, 0x00, 0x00, 0x0E, 0x00, 0x14, 0x00, 0x00, 0x00,
  0x08, 0x00, 0x0C, 0x00, 0x07, 0x00, 0x10, 0x00, 0x0E, 0x00,
  0x00, 0x00, 0x00, 0x00, 0x00, 0x01, 0x30, 0x00, 0x00, 0x00,
  0x24, 0x00, 0x00, 0x00, 0x10, 0x00, 0x00, 0x00, 0x0C, 0x00,
  0x10, 0x00, 0x00, 0x00, 0x04, 0x00, 0x08, 0x00, 0x0F, 0x00,
  0x0C, 0x00, 0x00, 0x00, 0x01, 0x00, 0x00, 0x00, 0x01, 0x00,
  0x00, 0x00, 0x00, 0x00, 0x00, 0x01, 0x01, 0x00, 0x00, 0x00,
  0x08, 0x00, 0x00, 0x00, 0x03, 0x00, 0x00, 0x00, 0x00, 0x00,
  0x00, 0x00, 0x06, 0x00, 0x00, 0x00, 0x01, 0x00, 0x00, 0x00,
  0x00, 0x00, 0x0A, 0x00, 0x0C, 0x00, 0x07, 0x00, 0x00, 0x00,
  0x08, 0x00, 0x0A, 0x00, 0x00, 0x00, 0x00, 0x00, 0x00, 0x03,
  0x01, 0x00, 0x00, 0x00, 0x56, 0xD8, 0xFF, 0xFF, 0x10, 0x00,
  0x00, 0x00, 0x09, 0x00, 0x00, 0x00, 0x1C, 0x00, 0x00, 0x00,
  0x08, 0x01, 0x00, 0x00, 0x04, 0x00, 0x00, 0x00, 0x01, 0x00,
  0x00, 0x00, 0x0E, 0x00, 0x00, 0x00, 0x0E, 0x00, 0x00, 0x00,
  0x0A, 0x00, 0x00, 0x00, 0xE9, 0x00, 0x00, 0x00, 0x6D, 0x6F,
  0x64, 0x65, 0x6C, 0x5F, 0x31, 0x30, 0x2F, 0x6D, 0x6F, 0x64,
  0x65, 0x6C, 0x5F, 0x33, 0x2F, 0x62, 0x61, 0x73, 0x65, 0x5F,
  0x6D, 0x6F, 0x64, 0x65, 0x6C, 0x32, 0x2F, 0x63, 0x6F, 0x6E,
  0x76, 0x32, 0x64, 0x5F, 0x32, 0x2F, 0x52, 0x65, 0x6C, 0x75,
  0x3B, 0x6D, 0x6F, 0x64, 0x65, 0x6C, 0x5F, 0x31, 0x30, 0x2F,
  0x6D, 0x6F, 0x64, 0x65, 0x6C, 0x5F, 0x33, 0x2F, 0x62, 0x61,
  0x73, 0x65, 0x5F, 0x6D, 0x6F, 0x64, 0x65, 0x6C, 0x32, 0x2F,
  0x63, 0x6F, 0x6E, 0x76, 0x32, 0x64, 0x5F, 0x32, 0x2F, 0x42,
  0x69, 0x61, 0x73, 0x41, 0x64, 0x64, 0x3B, 0x6D, 0x6F, 0x64,
  0x65, 0x6C, 0x5F, 0x31, 0x30, 0x2F, 0x6D, 0x6F, 0x64, 0x65,
  0x6C, 0x5F, 0x34, 0x2F, 0x65, 0x78, 0x69, 0x74, 0x32, 0x2F,
  0x63, 0x6F, 0x6E, 0x76, 0x32, 0x64, 0x5F, 0x33, 0x2F, 0x43,
  0x6F, 0x6E, 0x76, 0x32, 0x44, 0x3B, 0x6D, 0x6F, 0x64, 0x65,
  0x6C, 0x5F, 0x31, 0x30, 0x2F, 0x6D, 0x6F, 0x64, 0x65, 0x6C,
  0x5F, 0x33, 0x2F, 0x62, 0x61, 0x73, 0x65, 0x5F, 0x6D, 0x6F,
  0x64, 0x65, 0x6C, 0x32, 0x2F, 0x63, 0x6F, 0x6E, 0x76, 0x32,
  0x64, 0x5F, 0x32, 0x2F, 0x43, 0x6F, 0x6E, 0x76, 0x32, 0x44,
  0x3B, 0x6D, 0x6F, 0x64, 0x65, 0x6C, 0x5F, 0x31, 0x30, 0x2F,
  0x6D, 0x6F, 0x64, 0x65, 0x6C, 0x5F, 0x33, 0x2F, 0x62, 0x61,
  0x73, 0x65, 0x5F, 0x6D, 0x6F, 0x64, 0x65, 0x6C, 0x32, 0x2F,
  0x63, 0x6F, 0x6E, 0x76, 0x32, 0x64, 0x5F, 0x32, 0x2F, 0x42,
  0x69, 0x61, 0x73, 0x41, 0x64, 0x64, 0x2F, 0x52, 0x65, 0x61,
  0x64, 0x56, 0x61, 0x72, 0x69, 0x61, 0x62, 0x6C, 0x65, 0x4F,
  0x70, 0x00, 0x00, 0x00, 0x28, 0xD9, 0xFF, 0xFF, 0x16, 0xDA,
  0xFF, 0xFF, 0x04, 0x00, 0x00, 0x00, 0x10, 0x0E, 0x00, 0x00,
  0x00, 0x00, 0x00, 0x80, 0x45, 0xF8, 0xB4, 0xBD, 0xBA, 0x3D,
  0x12, 0x3E, 0x00, 0x00, 0x00, 0x80, 0x00, 0x00, 0x00, 0x80,
  0x14, 0xCE, 0x39, 0x3B, 0x2D, 0x46, 0xD2, 0xBD, 0x00, 0x00,
  0x00, 0x80, 0x34, 0x5C, 0xA3, 0x3D, 0x38, 0xCF, 0x6A, 0xBE,
  0x4E, 0xDE, 0x33, 0xBE, 0x5F, 0xA3, 0x95, 0xBE, 0x00, 0x00,
  0x00, 0x80, 0x00, 0x00, 0x00, 0x80, 0x61, 0x60, 0x30, 0xBE,
  0x00, 0x00, 0x00, 0x80, 0x00, 0x00, 0x00, 0x80, 0x06, 0x89,
  0x99, 0xBD, 0x3E, 0xC6, 0x41, 0xBE, 0x4E, 0xCB, 0xC5, 0x3B,
  0x58, 0x5E, 0x48, 0x3E, 0x00, 0x00, 0x00, 0x80, 0x9F, 0x48,
  0x02, 0xBE, 0x00, 0x00, 0x00, 0x80, 0x00, 0x00, 0x00, 0x80,
  0x00, 0x00, 0x00, 0x80, 0xB5, 0xAE, 0x5B, 0x3E, 0xD5, 0x87,
  0x7B, 0x3E, 0x24, 0x76, 0x2D, 0x3E, 0x92, 0x72, 0x9C, 0xBD,
  0x00, 0x00, 0x00, 0x80, 0x00, 0x00, 0x00, 0x80, 0xBF, 0x4B,
  0x5B, 0x3E, 0x79, 0xF1, 0x29, 0xBE, 0x31, 0x24, 0xA0, 0xBD,
  0x00, 0x00, 0x00, 0x80, 0x00, 0x00, 0x00, 0x80, 0xFC, 0x4B,
  0x27, 0xBE, 0x2F, 0x76, 0x49, 0x3D, 0x93, 0xB6, 0x7A, 0xBD,
  0x00, 0x00, 0x00, 0x80, 0xAA, 0x7A, 0x13, 0xBE, 0xB9, 0x62,
  0x8D, 0x3D, 0x00, 0x00, 0x00, 0x80, 0x00, 0x00, 0x00, 0x80,
  0x9E, 0x13, 0x01, 0xBE, 0x7A, 0xA8, 0x28, 0x3E, 0x00, 0x00,
  0x00, 0x80, 0x71, 0x27, 0xD8, 0x3D, 0xD7, 0x9D, 0x90, 0x3D,
  0x6E, 0xDD, 0x12, 0x3E, 0x00, 0x00, 0x00, 0x80, 0x83, 0x3A,
  0x33, 0xBE, 0x00, 0x00, 0x00, 0x80, 0x00, 0x00, 0x00, 0x80,
  0x00, 0x00, 0x00, 0x80, 0x98, 0x22, 0x5A, 0x3E, 0xEC, 0x22,
  0x88, 0x3E, 0xC2, 0xD1, 0x6F, 0xBC, 0xE8, 0xA4, 0x37, 0xBE,
  0x00, 0x00, 0x00, 0x80, 0x2E, 0x7C, 0x50, 0xBE, 0x4B, 0x2C,
  0x8A, 0xBE, 0x00, 0x00, 0x00, 0x80, 0x96, 0xCF, 0xFB, 0xBD,
  0x00, 0x00, 0x00, 0x80, 0x00, 0x00, 0x00, 0x80, 0xF3, 0xCA,
  0xA5, 0x3E, 0x79, 0x89, 0x2F, 0xBD, 0x19, 0x57, 0xF5, 0x3D,
  0x00, 0x00, 0x00, 0x80, 0x73, 0x9E, 0xF8, 0xBD, 0x00, 0x00,
  0x00, 0x80, 0x8E, 0x31, 0x96, 0xBE, 0x00, 0x00, 0x00, 0x80,
  0x17, 0xE2, 0x8E, 0x3E, 0x00, 0x00, 0x00, 0x80, 0x5B, 0x36,
  0x9A, 0x3E, 0xCD, 0xAB, 0x82, 0x3D, 0x92, 0x79, 0x71, 0x3C,
  0x00, 0x00, 0x00, 0x80, 0xA3, 0xBA, 0x40, 0x3E, 0x00, 0x00,
  0x00, 0x80, 0x34, 0x32, 0x82, 0xBE, 0xFC, 0x0F, 0x6F, 0x3E,
  0x34, 0xF6, 0x61, 0x3D, 0x00, 0x00, 0x00, 0x80, 0x00, 0x00,
  0x00, 0x80, 0x75, 0xA7, 0x7F, 0xBD, 0xC4, 0x19, 0x9C, 0xBD,
  0x6E, 0x9B, 0x26, 0x3E, 0x00, 0x00, 0x00, 0x00, 0xFF, 0x6B,
  0xF1, 0xBD, 0x00, 0x00, 0x00, 0x00, 0x67, 0x8D, 0x82, 0x3D,
  0x18, 0xFA, 0xDA, 0x3D, 0x00, 0x00, 0x00, 0x80, 0x00, 0x00,
  0x00, 0x80, 0x3E, 0xAD, 0x71, 0x3D, 0x65, 0x4C, 0x6A, 0x3B,
  0x00, 0x00, 0x00, 0x00, 0x00, 0x00, 0x00, 0x80, 0x0F, 0xB9,
  0xAC, 0x3E, 0xD4, 0x4D, 0x8E, 0x3E, 0x82, 0xCE, 0x98, 0xBC,
  0x00, 0x00, 0x00, 0x00, 0x00, 0x00, 0x00, 0x00, 0xF3, 0x65,
  0xEB, 0x3D, 0x0B, 0xDE, 0x09, 0xBE, 0x70, 0x56, 0x4A, 0xBC,
  0x00, 0x00, 0x00, 0x80, 0x00, 0x00, 0x00, 0x80, 0x54, 0x31,
  0x2D, 0xBE, 0x18, 0x9D, 0x41, 0x3E, 0x00, 0x00, 0x00, 0x00,
  0x00, 0x00, 0x00, 0x80, 0xBB, 0xD1, 0x5A, 0x3E, 0x34, 0xB7,
  0x5F, 0x3E, 0x29, 0x96, 0x3A, 0x3E, 0xF1, 0x2A, 0xC6, 0x3A,
  0xA2, 0xFA, 0x21, 0xBE, 0x00, 0x00, 0x00, 0x80, 0xB2, 0xB0,
  0x44, 0xBE, 0x00, 0x00, 0x00, 0x80, 0x00, 0x00, 0x00, 0x80,
  0xD6, 0x4A, 0xFB, 0xBD, 0x00, 0x00, 0x00, 0x80, 0x56, 0xB3,
  0xEC, 0xBD, 0xD4, 0x83, 0x0D, 0xBE, 0xAD, 0x5D, 0xA6, 0xBC,
  0xF1, 0xA8, 0xB6, 0xBD, 0xA6, 0x76, 0x32, 0xBE, 0x00, 0x00,
  0x00, 0x80, 0x00, 0x00, 0x00, 0x80, 0x00, 0x00, 0x00, 0x80,
  0x97, 0x20, 0x85, 0x3E, 0x00, 0x00, 0x00, 0x00, 0x46, 0x6B,
  0xB1, 0x3D, 0x59, 0xA3, 0x87, 0xBE, 0xAD, 0x4F, 0x05, 0xBE,
  0xE6, 0x91, 0x06, 0x3E, 0x00, 0x00, 0x00, 0x80, 0x00, 0x00,
  0x00, 0x00, 0xE7, 0xAF, 0x86, 0x3E, 0xF6, 0xB1, 0x76, 0xBE,
  0x00, 0x00, 0x00, 0x00, 0x60, 0xBB, 0x6D, 0x3E, 0x00, 0x00,
  0x00, 0x00, 0x39, 0x6B, 0x24, 0x3D, 0x9B, 0xF0, 0x26, 0xBD,
  0x10, 0x3A, 0x66, 0xBE, 0x00, 0x00, 0x00, 0x00, 0x41, 0x40,
  0x20, 0xBE, 0x00, 0x00, 0x00, 0x00, 0x00, 0x00, 0x00, 0x80,
  0x00, 0x00, 0x00, 0x00, 0xDD, 0x90, 0x65, 0xBE, 0x70, 0x52,
  0x6D, 0xBE, 0xD0, 0x82, 0x17, 0xBE, 0xDC, 0x53, 0x34, 0x3D,
  0x41, 0x8A, 0x58, 0xBE, 0x0F, 0x66, 0x48, 0xBE, 0x00, 0x00,
  0x00, 0x80, 0x00, 0x00, 0x00, 0x80, 0xC6, 0x0A, 0x39, 0xBE,
  0x00, 0x00, 0x00, 0x80, 0x00, 0x00, 0x00, 0x80, 0x0B, 0x88,
  0x14, 0xBE, 0x3F, 0x72, 0x64, 0x3B, 0xC7, 0x27, 0xA2, 0xBE,
  0x0D, 0xF1, 0x66, 0x3E, 0x00, 0x00, 0x00, 0x80, 0x83, 0xBC,
  0x59, 0xBE, 0x00, 0x00, 0x00, 0x80, 0x55, 0x6E, 0x27, 0x3D,
  0x00, 0x00, 0x00, 0x00, 0x00, 0x00, 0x00, 0x00, 0x78, 0x15,
  0x80, 0x3E, 0x3B, 0x0F, 0xC6, 0x3B, 0xDF, 0xDB, 0x0B, 0x3D,
  0x0D, 0x80, 0x95, 0xBD, 0x00, 0x00, 0x00, 0x00, 0x00, 0x00,
  0x00, 0x00, 0x2A, 0x14, 0x5B, 0xBE, 0x15, 0x6F, 0xED, 0x3D,
  0x52, 0x4F, 0x54, 0xBD, 0x00, 0x00, 0x00, 0x00, 0x00, 0x00,
  0x00, 0x00, 0xD8, 0x7B, 0x09, 0x3E, 0x3D, 0x9B, 0xD0, 0xBD,
  0x6B, 0x39, 0x0C, 0xBE, 0xD8, 0xD1, 0x2B, 0xBE, 0x00, 0x00,
  0x00, 0x00, 0x00, 0x00, 0x00, 0x80, 0x00, 0x00, 0x00, 0x00,
  0x59, 0x68, 0x28, 0x3D, 0x00, 0x00, 0x00, 0x00, 0x1E, 0xCF,
  0x35, 0x3E, 0x81, 0x21, 0xB8, 0x3D, 0x85, 0xCA, 0x1F, 0xBD,
  0x00, 0x00, 0x00, 0x80, 0xE1, 0xEF, 0x3F, 0xBE, 0xFA, 0xC8,
  0x89, 0x3E, 0x00, 0x00, 0x00, 0x80, 0x00, 0x00, 0x00, 0x00,
  0xE3, 0x7C, 0x2E, 0x3D, 0xDD, 0x4C, 0x88, 0x3D, 0x00, 0x00,
  0x00, 0x80, 0x7C, 0x36, 0xA3, 0x3D, 0xC1, 0x6F, 0x54, 0x3E,
  0x00, 0x00, 0x00, 0x80, 0xDD, 0x45, 0x1A, 0xBE, 0x55, 0x90,
  0x71, 0x3E, 0x00, 0x00, 0x00, 0x00, 0x00, 0x00, 0x00, 0x00,
  0xE1, 0xFD, 0x3D, 0xBE, 0x84, 0xC3, 0x1E, 0xBE, 0x00, 0x00,
  0x00, 0x80, 0x1D, 0xE7, 0x30, 0xBD, 0xDF, 0x20, 0x8F, 0xBD,
  0x56, 0x5B, 0xEB, 0x3D, 0x00, 0x00, 0x00, 0x80, 0xCB, 0x4E,
  0x1A, 0x3E, 0x00, 0x00, 0x00, 0x00, 0x00, 0x00, 0x00, 0x00,
  0x7A, 0x95, 0x33, 0x3E, 0x29, 0x3D, 0xA2, 0x3D, 0x00, 0x00,
  0x00, 0x00, 0xA7, 0x9D, 0x47, 0xBD, 0xE0, 0x6C, 0x32, 0x3E,
  0x00, 0x00, 0x00, 0x80, 0xF0, 0x69, 0x0F, 0x3E, 0xF2, 0x13,
  0xA4, 0xBD, 0x00, 0x00, 0x00, 0x80, 0x93, 0x1A, 0xB8, 0xBD,
  0x00, 0x00, 0x00, 0x80, 0x00, 0x00, 0x00, 0x80, 0xB3, 0xA9,
  0x16, 0xBE, 0xFB, 0x5C, 0x0F, 0xBE, 0x8A, 0x14, 0xF2, 0x3C,
  0x40, 0xB5, 0x48, 0x3E, 0xAD, 0x06, 0xCD, 0x3D, 0x00, 0x00,
  0x00, 0x00, 0x00, 0x00, 0x00, 0x80, 0x00, 0x00, 0x00, 0x80,
  0x27, 0x63, 0x1D, 0x3E, 0x00, 0x00, 0x00, 0x80, 0x12, 0x52,
  0xE9, 0xBD, 0x95, 0x27, 0x0D, 0x3E, 0x08, 0x9A, 0xF7, 0x3D,
  0x00, 0x00, 0x00, 0x80, 0x37, 0xC7, 0x99, 0x3D, 0xB4, 0x7B,
  0x31, 0x3E, 0x00, 0x00, 0x00, 0x80, 0x00, 0x00, 0x00, 0x80,
  0x00, 0x00, 0x00, 0x80, 0x82, 0x1D, 0x96, 0x3E, 0xD0, 0xFC,
  0x27, 0x3E, 0x78, 0xE0, 0xD6, 0x3C, 0xF2, 0x47, 0xB8, 0x3D,
  0x00, 0x00, 0x00, 0x80, 0x00, 0x00, 0x00, 0x80, 0x4F, 0x15,
  0x35, 0x3E, 0x4C, 0x6B, 0xC1, 0xBE, 0x00, 0x00, 0x00, 0x80,
  0xEC, 0x5C, 0x68, 0xBE, 0x12, 0x0A, 0x58, 0xBE, 0x00, 0x00,
  0x00, 0x00, 0x91, 0xDC, 0x52, 0xBB, 0x25, 0xBA, 0x0F, 0xBC,
  0x00, 0x00, 0x00, 0x00, 0x00, 0x00, 0x00, 0x00, 0x73, 0xF3,
  0x31, 0xBE, 0x72, 0x71, 0x21, 0x3D, 0x00, 0x00, 0x00, 0x00,
  0x93, 0xB8, 0x14, 0x3E, 0x00, 0x00, 0x00, 0x00, 0x10, 0xB0,
  0x88, 0x3E, 0x55, 0x3B, 0xE9, 0x3C, 0xF9, 0x02, 0xCA, 0x3D,
  0x97, 0x5B, 0xB1, 0x3D, 0x93, 0x85, 0x34, 0x3E, 0x00, 0x00,
  0x00, 0x00, 0x00, 0x00, 0x00, 0x80, 0x00, 0x00, 0x00, 0x00,
  0x00, 0x00, 0x00, 0x00, 0x89, 0x77, 0x31, 0x3E, 0xAC, 0x44,
  0x9D, 0xBD, 0xAF, 0xA6, 0xD0, 0x3D, 0x5C, 0x83, 0x53, 0xBE,
  0x00, 0x00, 0x00, 0x00, 0x29, 0x15, 0xF0, 0xBD, 0x00, 0x00,
  0x00, 0x00, 0xD9, 0x0D, 0x4C, 0x3E, 0x00, 0x00, 0x00, 0x80,
  0x6F, 0xC3, 0x60, 0xBD, 0x00, 0x00, 0x00, 0x80, 0x77, 0x2D,
  0xB8, 0xBD, 0x3E, 0x4F, 0x82, 0xBD, 0x51, 0x3F, 0x33, 0xBE,
  0x22, 0xD6, 0x80, 0x3E, 0x00, 0x00, 0x00, 0x00, 0x3A, 0x96,
  0xD1, 0xBE, 0x00, 0x00, 0x00, 0x00, 0x60, 0x75, 0x8B, 0x3E,
  0x00, 0x00, 0x00, 0x00, 0x00, 0x00, 0x00, 0x00, 0x61, 0x39,
  0xC2, 0xBD, 0xCC, 0xCE, 0x72, 0xBB, 0xC8, 0xDD, 0xA7, 0x3D,
  0xBF, 0x77, 0x45, 0x3E, 0x00, 0x00, 0x00, 0x00, 0x00, 0x00,
  0x00, 0x00, 0x9E, 0xA3, 0x82, 0xBE, 0x9B, 0xFD, 0x5E, 0x3E,
  0x00, 0x00, 0x00, 0x00, 0xBF, 0x6E, 0x41, 0x3E, 0x00, 0x00,
  0x00, 0x00, 0xEB, 0x19, 0x05, 0x3E, 0x56, 0xC4, 0x2E, 0xBD,
  0x97, 0x2B, 0x4F, 0x3E, 0x00, 0x00, 0x00, 0x00, 0xE2, 0xD8,
  0x69, 0x3E, 0x00, 0x00, 0x00, 0x00, 0x09, 0xFF, 0x75, 0xBE,
  0x00, 0x00, 0x00, 0x00, 0x69, 0xFF, 0xFB, 0x3D, 0x00, 0x00,
  0x00, 0x00, 0x32, 0xA4, 0x3D, 0x3E, 0x7C, 0xB1, 0x96, 0x3D,
  0xEC, 0x4B, 0x23, 0x3E, 0x9D, 0x0D, 0xE6, 0xBD, 0x00, 0x00,
  0x00, 0x80, 0x00, 0x00, 0x00, 0x00, 0x8C, 0xEB, 0x13, 0x3E,
  0x60, 0xF4, 0x4D, 0xBE, 0x00, 0x00, 0x00, 0x00, 0x00, 0x00,
  0x00, 0x00, 0x40, 0xB3, 0x84, 0x3D, 0x67, 0xB4, 0x5B, 0xBE,
  0x81, 0x03, 0x92, 0xBE, 0x9B, 0x5C, 0x41, 0xBE, 0x00, 0x00,
  0x00, 0x80, 0x00, 0x00, 0x00, 0x00, 0x00, 0x00, 0x00, 0x00,
  0x4D, 0xE3, 0x1E, 0x3E, 0x89, 0x88, 0x69, 0xBE, 0x00, 0x00,
  0x00, 0x00, 0x6B, 0x62, 0x92, 0xBC, 0x9F, 0x58, 0x5F, 0x3D,
  0xF7, 0x4F, 0x32, 0xBE, 0x00, 0x00, 0x00, 0x00, 0x00, 0x00,
  0x00, 0x00, 0x30, 0x46, 0xA3, 0x3E, 0x00, 0x00, 0x00, 0x00,
  0x9A, 0xFE, 0xA9, 0xBD, 0x0F, 0x9C, 0x1E, 0xBE, 0x00, 0x00,
  0x00, 0x00, 0xB9, 0x66, 0x88, 0xBD, 0x71, 0x4D, 0xA2, 0x3D,
  0xBC, 0xBC, 0x41, 0xBE, 0x06, 0x24, 0x2F, 0xBE, 0x00, 0x00,
  0x00, 0x00, 0x00, 0x00, 0x00, 0x00, 0x00, 0x00, 0x00, 0x80,
  0x00, 0x00, 0x00, 0x00, 0xCD, 0xF8, 0xF3, 0x3D, 0x22, 0x72,
  0x7D, 0x3E, 0x7B, 0xCD, 0x3A, 0xBE, 0xB6, 0xD8, 0x7E, 0xBE,
  0x00, 0x00, 0x00, 0x80, 0xE2, 0x36, 0x3A, 0x3C, 0x00, 0x00,
  0x00, 0x80, 0x62, 0x1F, 0x76, 0x3E, 0x8B, 0x50, 0x80, 0xBE,
  0x00, 0x00, 0x00, 0x80, 0x00, 0x00, 0x00, 0x80, 0xE2, 0xDD,
  0x8D, 0x3E, 0xC9, 0x6B, 0x48, 0x3D, 0x4D, 0x1D, 0x95, 0xBD,
  0x00, 0x00, 0x00, 0x80, 0x00, 0x00, 0x00, 0x80, 0xB5, 0x3A,
  0xBD, 0x3E, 0x5E, 0xE1, 0xF9, 0x3D, 0xB9, 0x42, 0x94, 0xBE,
  0xB4, 0x4F, 0x68, 0x3E, 0x00, 0x00, 0x00, 0x80, 0x00, 0x00,
  0x00, 0x80, 0x1F, 0x53, 0xFB, 0x3D, 0xD4, 0xEE, 0x0F, 0x3E,
  0xC2, 0xC1, 0x19, 0xBE, 0x00, 0x00, 0x00, 0x80, 0x8A, 0x41,
  0x95, 0x3D, 0x00, 0x00, 0x00, 0x00, 0x00, 0x00, 0x00, 0x80,
  0x00, 0x00, 0x00, 0x00, 0x61, 0xC8, 0xFB, 0xBD, 0xDC, 0xE6,
  0x96, 0x3E, 0x40, 0xB9, 0xB7, 0xBC, 0x5F, 0xB4, 0xC7, 0xBD,
  0x00, 0x00, 0x00, 0x80, 0x83, 0x26, 0xBD, 0x3D, 0x00, 0x00,
  0x00, 0x00, 0x2C, 0xCD, 0x06, 0xBE, 0xD8, 0x42, 0x32, 0xBE,
  0x00, 0x00, 0x00, 0x80, 0x00, 0x00, 0x00, 0x80, 0x5A, 0x72,
  0x6C, 0xBE, 0xEE, 0x37, 0x04, 0x3D, 0x6C, 0x8F, 0x99, 0xBD,
  0x94, 0xBD, 0x5F, 0xBE, 0x69, 0x54, 0x1A, 0xBE, 0x00, 0x00,
  0x00, 0x80, 0x00, 0x00, 0x00, 0x00, 0xE1, 0x5E, 0xD6, 0x3D,
  0x00, 0x00, 0x00, 0x80, 0x8C, 0xE9, 0xC7, 0xBC, 0x00, 0x00,
  0x00, 0x00, 0xB8, 0x99, 0xF3, 0x3D, 0x2D, 0xE8, 0x4D, 0xBE,
  0x24, 0x13, 0x81, 0x3E, 0x00, 0x00, 0x00, 0x80, 0x00, 0x00,
  0x00, 0x00, 0xF3, 0x75, 0x83, 0x3D, 0x3C, 0xA3, 0xA6, 0xBD,
  0x61, 0xDF, 0x29, 0xBE, 0x00, 0x00, 0x00, 0x00, 0x00, 0x00,
  0x00, 0x00, 0x1A, 0x4A, 0xE3, 0x3D, 0xFC, 0xF6, 0xA6, 0x3D,
  0x9E, 0x93, 0x6E, 0x3E, 0x09, 0x74, 0x19, 0x3E, 0x00, 0x00,
  0x00, 0x00, 0x00, 0x00, 0x00, 0x80, 0x26, 0x16, 0xA1, 0x3D,
  0x00, 0x00, 0x00, 0x80, 0x10, 0x08, 0xFE, 0x3D, 0x00, 0x00,
  0x00, 0x80, 0xEE, 0xE0, 0x9F, 0x3D, 0x8B, 0xEE, 0x1B, 0x3E,
  0x00, 0x00, 0x00, 0x80, 0x00, 0x00, 0x00, 0x80, 0x50, 0x09,
  0x11, 0x3E, 0x64, 0x3A, 0xEA, 0x3D, 0xB4, 0xBC, 0x68, 0xBE,
  0x83, 0xA6, 0x9B, 0x3E, 0x00, 0x00, 0x00, 0x80, 0x00, 0x00,
  0x00, 0x80, 0x19, 0xB1, 0x0D, 0xBD, 0x6A, 0x87, 0xA4, 0x3E,
  0x87, 0x5D, 0x6D, 0x3E, 0x95, 0x22, 0x15, 0x3E, 0x00, 0x00,
  0x00, 0x00, 0x00, 0x00, 0x00, 0x00, 0x00, 0x00, 0x00, 0x00,
  0x02, 0x5B, 0x36, 0x3D, 0x76, 0x94, 0x06, 0x3D, 0x00, 0x00,
  0x00, 0x00, 0x32, 0x98, 0xC7, 0xBC, 0x0D, 0x76, 0x95, 0x3D,
  0xC8, 0x4F, 0x5F, 0x3E, 0xE5, 0x66, 0x80, 0x3E, 0x00, 0x00,
  0x00, 0x00, 0x00, 0x00, 0x00, 0x00, 0x00, 0x00, 0x00, 0x00,
  0x00, 0x00, 0x00, 0x00, 0x9E, 0x19, 0x3C, 0x3E, 0x35, 0xD4,
  0xAA, 0xBD, 0xB9, 0x1A, 0x58, 0xBC, 0xB0, 0x53, 0xB8, 0xBD,
  0x00, 0x00, 0x00, 0x00, 0x48, 0x9D, 0x35, 0x3E, 0x00, 0x00,
  0x00, 0x00, 0x64, 0x50, 0x96, 0x3E, 0x00, 0x00, 0x00, 0x00,
  0x45, 0xFF, 0x3A, 0xBD, 0x05, 0x14, 0x20, 0x3E, 0x00, 0x00,
  0x00, 0x00, 0x59, 0xA4, 0x19, 0xBD, 0xBF, 0x1F, 0x40, 0x3D,
  0x86, 0x65, 0xDB, 0xBA, 0xB8, 0xE5, 0x5B, 0x3D, 0x00, 0x00,
  0x00, 0x00, 0x00, 0x00, 0x00, 0x00, 0x00, 0x00, 0x00, 0x00,
  0xAB, 0x5A, 0x32, 0xBE, 0x65, 0xFC, 0x5E, 0xBE, 0x00, 0x00,
  0x00, 0x00, 0xC8, 0xD8, 0x8F, 0xBE, 0xCB, 0x91, 0x3F, 0xBE,
  0xE0, 0x3A, 0x9D, 0xBE, 0x00, 0x00, 0x00, 0x00, 0x4C, 0xEB,
  0x4B, 0xBE, 0x00, 0x00, 0x00, 0x00, 0xAE, 0xA4, 0x7C, 0x3E,
  0x00, 0x00, 0x00, 0x00, 0x35, 0xFC, 0x61, 0xBE, 0x00, 0x00,
  0x00, 0x00, 0x8D, 0xDD, 0xA5, 0xBD, 0x03, 0x48, 0x20, 0xBE,
  0x08, 0x87, 0xDC, 0xBD, 0x00, 0x00, 0x00, 0x00, 0x6D, 0x95,
  0x3E, 0xBE, 0x00, 0x00, 0x00, 0x00, 0x00, 0x00, 0x00, 0x00,
  0x12, 0x89, 0x85, 0xBE, 0xF8, 0xE4, 0x50, 0xBE, 0x00, 0x00,
  0x00, 0x00, 0xF7, 0x67, 0x83, 0xBD, 0xA7, 0x45, 0xE1, 0x3D,
  0x00, 0x00, 0x00, 0x00, 0x6C, 0xEF, 0x08, 0xBE, 0xA7, 0xC2,
  0xD2, 0x3D, 0x00, 0x00, 0x00, 0x00, 0xFA, 0x83, 0x41, 0xBE,
  0x00, 0x00, 0x00, 0x00, 0x00, 0x00, 0x00, 0x00, 0x73, 0x07,
  0x69, 0x3E, 0xA3, 0x85, 0x35, 0xBE, 0x39, 0x6C, 0x5B, 0x3E,
  0x95, 0x22, 0xBE, 0x3D, 0x00, 0x00, 0x00, 0x00, 0x00, 0x00,
  0x00, 0x00, 0xCB, 0xD3, 0x09, 0xBE, 0x80, 0xC5, 0x3B, 0xBE,
  0x00, 0x00, 0x00, 0x00, 0x00, 0x00, 0x00, 0x00, 0xA7, 0x1A,
  0xFB, 0xBC, 0x1D, 0x54, 0x04, 0x3D, 0x26, 0xCA, 0x89, 0x3E,
  0x63, 0xC5, 0x7C, 0x3E, 0x00, 0x00, 0x00, 0x00, 0x3D, 0x27,
  0x84, 0x3E, 0x00, 0x00, 0x00, 0x00, 0x2F, 0xD6, 0xE6, 0x3D,
  0x00, 0x00, 0x00, 0x00, 0x00, 0x00, 0x00, 0x00, 0xF9, 0x17,
  0x6E, 0xBE, 0x51, 0xA8, 0x7E, 0x3E, 0x66, 0x28, 0x0E, 0x3E,
  0x00, 0x00, 0x00, 0x80, 0x93, 0x71, 0xD0, 0xBD, 0xF7, 0x35,
  0x49, 0x3E, 0x00, 0x00, 0x00, 0x00, 0x00, 0x00, 0x00, 0x80,
  0x00, 0x00, 0x00, 0x80, 0x71, 0x39, 0x17, 0xBE, 0xB7, 0x23,
  0x50, 0xBE, 0x2F, 0xB1, 0x1B, 0x3E, 0x21, 0x19, 0xA8, 0x3E,
  0x7E, 0x60, 0x2D, 0xBE, 0x00, 0x00, 0x00, 0x80, 0x00, 0x00,
  0x00, 0x80, 0xFF, 0x83, 0xB3, 0x3E, 0x00, 0x00, 0x00, 0x80,
  0x00, 0x00, 0x00, 0x80, 0x92, 0x83, 0x6D, 0xBE, 0x6B, 0x96,
  0x2C, 0xBE, 0x00, 0x5E, 0xCA, 0x3C, 0xD9, 0xE0, 0x92, 0xBD,
  0x00, 0x00, 0x00, 0x80, 0x00, 0x00, 0x00, 0x80, 0xFE, 0x4A,
  0x3F, 0x3E, 0xCB, 0x5C, 0x09, 0x3F, 0x00, 0x00, 0x00, 0x80,
  0xBF, 0x5E, 0xB9, 0xBD, 0x00, 0x00, 0x00, 0x80, 0x84, 0x52,
  0xAB, 0xBD, 0x3C, 0x1F, 0x08, 0xBD, 0x89, 0xBE, 0x0F, 0x3D,
  0x00, 0x00, 0x00, 0x80, 0xD1, 0xBF, 0x50, 0x3E, 0x60, 0x87,
  0xD6, 0xBD, 0x00, 0x00, 0x00, 0x80, 0x00, 0x00, 0x00, 0x80,
  0xC4, 0x0E, 0x43, 0x3E, 0x96, 0xF4, 0x1D, 0x3E, 0x00, 0x00,
  0x00, 0x80, 0x58, 0xE0, 0xDE, 0xBD, 0x1E, 0xF5, 0x37, 0xBD,
  0x00, 0x00, 0x00, 0x80, 0x00, 0x00, 0x00, 0x80, 0xDD, 0xF0,
  0xA5, 0x3E, 0x07, 0xEC, 0x68, 0x3E, 0xE1, 0x2A, 0x30, 0xBE,
  0x00, 0x00, 0x00, 0x80, 0x00, 0x00, 0x00, 0x80, 0xBE, 0x2D,
  0x16, 0xBE, 0x2B, 0x3E, 0x33, 0x3E, 0x81, 0xCB, 0x89, 0x3E,
  0x00, 0x00, 0x00, 0x80, 0x91, 0xC1, 0x6F, 0xBD, 0x2E, 0x94,
  0xC6, 0x3E, 0x00, 0x00, 0x00, 0x80, 0x09, 0xF2, 0xA4, 0xBE,
  0x00, 0x00, 0x00, 0x80, 0x00, 0x00, 0x00, 0x80, 0x06, 0xE0,
  0xBC, 0xBE, 0x32, 0x47, 0x59, 0x3E, 0xA0, 0x13, 0x0A, 0x3E,
  0x40, 0x80, 0x17, 0x3E, 0x00, 0x00, 0x00, 0x00, 0x5C, 0x8E,
  0x9A, 0x3D, 0x00, 0x00, 0x00, 0x00, 0x00, 0x00, 0x00, 0x00,
  0xB2, 0xF4, 0x95, 0x3D, 0x00, 0x00, 0x00, 0x80, 0x95, 0xFD,
  0xD6, 0xBE, 0x15, 0x13, 0xF1, 0x3D, 0x00, 0xEE, 0x40, 0x3E,
  0x1D, 0xA3, 0x6E, 0x3D, 0x43, 0x23, 0x03, 0xBE, 0x00, 0x00,
  0x00, 0x00, 0x00, 0x00, 0x00, 0x00, 0x00, 0x00, 0x00, 0x00,
  0x00, 0x00, 0x00, 0x80, 0x5A, 0x7D, 0xE1, 0x3D, 0x79, 0x93,
  0x58, 0xBE, 0x83, 0x93, 0x36, 0xBE, 0x00, 0x90, 0x1C, 0xBE,
  0x00, 0x00, 0x00, 0x80, 0x00, 0x00, 0x00, 0x80, 0x7F, 0xF7,
  0x06, 0xBE, 0x2B, 0x87, 0x83, 0x3E, 0x00, 0x00, 0x00, 0x80,
  0x00, 0x00, 0x00, 0x80, 0xDF, 0x88, 0xC3, 0x3D, 0x50, 0xD5,
  0x8B, 0x3D, 0x5C, 0xD9, 0xE5, 0x3C, 0x1A, 0xD0, 0x22, 0x3D,
  0x00, 0x00, 0x00, 0x00, 0xC6, 0x62, 0xC6, 0xBD, 0x4B, 0xBA,
  0x30, 0x3E, 0x00, 0x00, 0x00, 0x00, 0x30, 0x81, 0x6E, 0xBE,
  0x00, 0x00, 0x00, 0x00, 0x99, 0x51, 0xFD, 0xBC, 0x00, 0x00,
  0x00, 0x00, 0xD8, 0xD7, 0xBA, 0x3D, 0x1C, 0xB3, 0x86, 0x3E,
  0x51, 0xA3, 0x35, 0x3E, 0x00, 0x00, 0x00, 0x00, 0x00, 0x00,
  0x00, 0x00, 0xEE, 0xD0, 0x69, 0xBE, 0x98, 0x95, 0x9D, 0xBE,
  0x00, 0x00, 0x00, 0x00, 0x00, 0x00, 0x00, 0x00, 0x8A, 0x88,
  0xAB, 0xBE, 0xAC, 0x42, 0x89, 0x3D, 0xC3, 0xC7, 0x2E, 0x3D,
  0x88, 0x88, 0x24, 0x3E, 0x73, 0x5A, 0x26, 0xBE, 0x00, 0x00,
  0x00, 0x00, 0x00, 0x00, 0x00, 0x80, 0xEC, 0x4B, 0xA7, 0xBE,
  0x70, 0x82, 0x15, 0x3E, 0x00, 0x00, 0x00, 0x00, 0x00, 0x00,
  0x00, 0x80, 0x5B, 0x8E, 0x68, 0xBD, 0x19, 0x17, 0x5C, 0x3E,
  0x00, 0x00, 0x00, 0x00, 0x15, 0x3E, 0x84, 0x3E, 0x00, 0x00,
  0x00, 0x00, 0xB5, 0xC5, 0xA3, 0x3E, 0x72, 0x5C, 0xDD, 0x3D,
  0x00, 0x00, 0x00, 0x00, 0x00, 0x00, 0x00, 0x00, 0x30, 0x60,
  0xF1, 0xBD, 0x1B, 0xCB, 0x5C, 0x3C, 0x9E, 0x9D, 0x85, 0x3D,
  0x4C, 0xF7, 0x4A, 0xBC, 0x72, 0xC9, 0x47, 0xBD, 0x00, 0x00,
  0x00, 0x00, 0x00, 0x00, 0x00, 0x00, 0x00, 0x00, 0x00, 0x00,
  0x86, 0x8D, 0x13, 0x3E, 0x40, 0x8B, 0x97, 0xBD, 0x00, 0x00,
  0x00, 0x00, 0x77, 0x61, 0x58, 0x3D, 0xCF, 0x49, 0xC1, 0x3D,
  0x00, 0x00, 0x00, 0x00, 0x66, 0x36, 0x1F, 0x3E, 0x55, 0x0A,
  0x20, 0x3E, 0x00, 0x00, 0x00, 0x00, 0x00, 0x00, 0x00, 0x00,
  0xAA, 0x6E, 0x13, 0x3E, 0x00, 0x00, 0x00, 0x00, 0xEB, 0x51,
  0x08, 0x3E, 0x95, 0x3C, 0xD0, 0x3D, 0x19, 0xD5, 0x44, 0xBC,
  0x99, 0xE4, 0x3B, 0xBE, 0x00, 0x00, 0x00, 0x00, 0x00, 0x00,
  0x00, 0x00, 0x4F, 0xDE, 0x75, 0x3E, 0xED, 0x35, 0x2A, 0x3E,
  0x00, 0x00, 0x00, 0x00, 0xCF, 0xBA, 0x3B, 0xBE, 0x00, 0x00,
  0x00, 0x00, 0xDE, 0x62, 0x13, 0xBE, 0x00, 0xEE, 0x94, 0xBD,
  0x00, 0x00, 0x00, 0x00, 0xB9, 0xA6, 0x07, 0x3E, 0x00, 0x00,
  0x00, 0x00, 0x14, 0xE1, 0x8B, 0x3E, 0x76, 0x8F, 0xD8, 0x3D,
  0x00, 0x00, 0x00, 0x00, 0x00, 0x00, 0x00, 0x00, 0x53, 0x2D,
  0x4E, 0x3D, 0x35, 0x0D, 0x03, 0xBE, 0x98, 0xA1, 0x93, 0x3D,
  0x00, 0x00, 0x00, 0x00, 0x00, 0x00, 0x00, 0x00, 0xC8, 0xB9,
  0xC0, 0xBD, 0xA9, 0x21, 0x83, 0x3E, 0xEA, 0x80, 0x0C, 0xBE,
  0xCE, 0x30, 0x47, 0x3E, 0x00, 0x00, 0x00, 0x00, 0x00, 0x00,
  0x00, 0x00, 0x5C, 0xF2, 0x5C, 0xBE, 0x9B, 0x93, 0x52, 0x3C,
  0x00, 0x00, 0x00, 0x80, 0xE8, 0x3F, 0x35, 0x3E, 0x6A, 0x4D,
  0x0D, 0xBE, 0x00, 0x00, 0x00, 0x00, 0x67, 0xBD, 0x27, 0xBE,
  0xE6, 0xB0, 0x1C, 0x3E, 0x00, 0x00, 0x00, 0x80, 0x00, 0x00,
  0x00, 0x00, 0x7F, 0x17, 0x0D, 0xBE, 0x44, 0xD2, 0xB2, 0x3D,
  0x00, 0x00, 0x00, 0x80, 0x7E, 0x18, 0xD7, 0xBD, 0x00, 0x00,
  0x00, 0x80, 0x8A, 0xBC, 0x62, 0x3E, 0x28, 0xA0, 0x85, 0xBE,
  0x00, 0x00, 0x00, 0x80, 0xB4, 0xCF, 0x88, 0x3E, 0x00, 0x00,
  0x00, 0x80, 0x8E, 0x25, 0x84, 0x3D, 0xAB, 0x2B, 0xB2, 0x3D,
  0x00, 0x00, 0x00, 0x80, 0x4B, 0xA5, 0xF2, 0xBD, 0x00, 0x00,
  0x00, 0x80, 0xFD, 0x5A, 0x3C, 0xBD, 0x14, 0x5B, 0x8A, 0x3D,
  0x00, 0x00, 0x00, 0x80, 0x00, 0x00, 0x00, 0x80, 0x2B, 0xCD,
  0xBA, 0x3D, 0x2A, 0xFE, 0x0E, 0x3E, 0x78, 0x3A, 0x98, 0xBD,
  0x00, 0x00, 0x00, 0x80, 0x7B, 0x94, 0x0E, 0xBE, 0x0D, 0x1C,
  0x32, 0xBE, 0x00, 0x00, 0x00, 0x00, 0x00, 0x00, 0x00, 0x00,
  0x54, 0xA5, 0xE1, 0xBD, 0x00, 0x00, 0x00, 0x80, 0xB7, 0x4A,
  0x0F, 0x3E, 0x7A, 0xB4, 0xB5, 0x3D, 0x62, 0xF3, 0xA7, 0x3D,
  0x00, 0x00, 0x00, 0x80, 0x00, 0x00, 0x00, 0x80, 0xA6, 0x27,
  0x73, 0xBE, 0x4D, 0x86, 0xDC, 0xBD, 0x00, 0x00, 0x00, 0x80,
  0x00, 0x00, 0x00, 0x80, 0x20, 0x21, 0xC4, 0x3D, 0x8C, 0x53,
  0x17, 0xBE, 0xF4, 0x1A, 0x7B, 0x3D, 0xAE, 0xE3, 0x10, 0x3E,
  0x00, 0x00, 0x00, 0x80, 0x00, 0x00, 0x00, 0x80, 0xA3, 0x37,
  0x52, 0x3E, 0x2E, 0x49, 0x3F, 0xBE, 0x00, 0x00, 0x00, 0x80,
  0x52, 0x7A, 0x1C, 0xBE, 0x48, 0xA1, 0x12, 0x3E, 0x00, 0x00,
  0x00, 0x80, 0xD0, 0xA9, 0x2F, 0x3E, 0x4D, 0xAD, 0x05, 0x3E,
  0x00, 0x00, 0x00, 0x80, 0x27, 0xE7, 0x3D, 0x3E, 0xAC, 0x89,
  0x59, 0x3E, 0x00, 0x00, 0x00, 0x80, 0x2C, 0x90, 0xE5, 0x3D,
  0x00, 0x00, 0x00, 0x80, 0x00, 0x00, 0x00, 0x80, 0x8D, 0x75,
  0x60, 0x3E, 0x46, 0xF5, 0x0E, 0xBE, 0xA8, 0x02, 0xB4, 0xBD,
  0x00, 0x00, 0x00, 0x80, 0x87, 0x4C, 0x74, 0x3E, 0x00, 0x00,
  0x00, 0x80, 0x7A, 0x5D, 0x37, 0x3E, 0x00, 0x00, 0x00, 0x80,
  0x00, 0x00, 0x00, 0x80, 0xCB, 0xCA, 0x05, 0x3E, 0x0F, 0x6F,
  0xCF, 0x3D, 0x63, 0x70, 0xB8, 0x3C, 0xD7, 0x5F, 0x62, 0x3E,
  0x3A, 0xDC, 0x38, 0x3E, 0x00, 0x00, 0x00, 0x80, 0x00, 0x00,
  0x00, 0x00, 0xDB, 0x05, 0x72, 0x3E, 0x00, 0x00, 0x00, 0x80,
  0xBA, 0x4B, 0x93, 0x3E, 0x3C, 0xB9, 0x8B, 0x3E, 0x00, 0x00,
  0x00, 0x80, 0x2A, 0x12, 0x67, 0x3E, 0x77, 0x4D, 0x77, 0x3B,
  0x51, 0x84, 0x0F, 0x3E, 0x00, 0x00, 0x00, 0x80, 0x10, 0xB0,
  0x1B, 0x3E, 0x00, 0x00, 0x00, 0x80, 0xA2, 0x64, 0xEB, 0x3D,
  0xE8, 0x9E, 0x72, 0xBE, 0x00, 0x00, 0x00, 0x80, 0x00, 0x00,
  0x00, 0x80, 0xC9, 0x39, 0xD3, 0x3D, 0xE8, 0x96, 0x07, 0x3E,
  0x63, 0xC8, 0x07, 0x3E, 0x00, 0x00, 0x00, 0x80, 0x00, 0x00,
  0x00, 0x80, 0xF0, 0x46, 0x82, 0x3E, 0x6D, 0x29, 0x16, 0x3E,
  0x00, 0x00, 0x00, 0x80, 0x5E, 0x3A, 0x77, 0xBE, 0x00, 0x00,
  0x00, 0x80, 0x20, 0x89, 0x0F, 0xBE, 0x00, 0x2C, 0x8D, 0xBD,
  0xE7, 0x93, 0x3D, 0xBE, 0x00, 0x00, 0x00, 0x80, 0x00, 0x00,
  0x00, 0x80, 0x76, 0x57, 0x03, 0x3E, 0x69, 0xF5, 0x8B, 0x3E,
  0x00, 0x00, 0x00, 0x00, 0x62, 0x4B, 0xFD, 0xBC, 0x00, 0x00,
  0x00, 0x00, 0x18, 0xE4, 0x1C, 0xBE, 0x62, 0x62, 0xC0, 0xBD,
  0x74, 0xC6, 0x1F, 0xBE, 0x00, 0x00, 0x00, 0x80, 0x00, 0x00,
  0x00, 0x00, 0x19, 0x99, 0xF9, 0x3D, 0x7E, 0x98, 0xA2, 0xBE,
  0x00, 0x00, 0x00, 0x80, 0xFE, 0x18, 0x34, 0x3E, 0x00, 0x00,
  0x00, 0x00, 0xFC, 0x76, 0x2F, 0x3C, 0x9D, 0x36, 0x1A, 0x3E,
  0x00, 0x00, 0x00, 0x80, 0x54, 0x68, 0x3C, 0x3E, 0xAD, 0x64,
  0x66, 0x3E, 0x00, 0x00, 0x00, 0x80, 0x00, 0x00, 0x00, 0x80,
  0x00, 0x00, 0x00, 0x80, 0xD1, 0xA2, 0xF8, 0xBD, 0xEA, 0x74,
  0x9B, 0xBE, 0x8F, 0x1C, 0xDA, 0xBD, 0x41, 0xA0, 0x4E, 0x3E,
  0x00, 0x00, 0x00, 0x80, 0x00, 0x00, 0x00, 0x80, 0xA7, 0xBF,
  0x50, 0x3E, 0x47, 0xE1, 0x89, 0xBE, 0xD9, 0x85, 0x5E, 0xBE,
  0x00, 0x00, 0x00, 0x80, 0x00, 0x00, 0x00, 0x80, 0xC9, 0xDF,
  0xA3, 0xBE, 0x1C, 0x44, 0x32, 0xBE, 0xCC, 0x79, 0x01, 0xBD,
  0xEE, 0xC1, 0x4A, 0x3E, 0x00, 0x00, 0x00, 0x00, 0x00, 0x00,
  0x00, 0x80, 0xEA, 0xBC, 0x84, 0xBE, 0x1E, 0xCE, 0x21, 0x3E,
  0x00, 0x00, 0x00, 0x00, 0x00, 0x00, 0x00, 0x00, 0x59, 0x9D,
  0x83, 0xBE, 0x34, 0x9A, 0x45, 0x3E, 0x15, 0xCE, 0xFC, 0x3D,
  0x00, 0x00, 0x00, 0x00, 0x00, 0x00, 0x00, 0x00, 0xEA, 0xE3,
  0x20, 0x3E, 0x53, 0x5C, 0x3C, 0xBE, 0x06, 0x53, 0x27, 0x3D,
  0x13, 0x18, 0xA0, 0xBD, 0x00, 0x00, 0x00, 0x80, 0x00, 0x00,
  0x00, 0x80, 0x30, 0x5B, 0x6C, 0x3E, 0xE9, 0x1C, 0xA6, 0x3D,
  0x00, 0x00, 0x00, 0x80, 0x37, 0xCD, 0xA3, 0x3D, 0x00, 0x00,
  0x00, 0x00, 0x46, 0x00, 0xEE, 0xBD, 0x00, 0x00, 0x00, 0x80,
  0x71, 0xE9, 0xBD, 0xBD, 0x2F, 0x24, 0x4D, 0x3E, 0x00, 0x00,
  0x00, 0x80, 0x08, 0x6F, 0x67, 0x3E, 0x1B, 0xB6, 0xE2, 0x3D,
  0x8E, 0xE7, 0xFF, 0xFF, 0x10, 0x00, 0x00, 0x00, 0x08, 0x00,
  0x00, 0x00, 0x1C, 0x00, 0x00, 0x00, 0x44, 0x00, 0x00, 0x00,
  0x04, 0x00, 0x00, 0x00, 0x0A, 0x00, 0x00, 0x00, 0x03, 0x00,
  0x00, 0x00, 0x03, 0x00, 0x00, 0x00, 0x0A, 0x00, 0x00, 0x00,
  0x26, 0x00, 0x00, 0x00, 0x6D, 0x6F, 0x64, 0x65, 0x6C, 0x5F,
  0x31, 0x30, 0x2F, 0x6D, 0x6F, 0x64, 0x65, 0x6C, 0x5F, 0x34,
  0x2F, 0x65, 0x78, 0x69, 0x74, 0x32, 0x2F, 0x63, 0x6F, 0x6E,
  0x76, 0x32, 0x64, 0x5F, 0x33, 0x2F, 0x43, 0x6F, 0x6E, 0x76,
  0x32, 0x44, 0x00, 0x00, 0x9C, 0xE7, 0xFF, 0xFF, 0x8A, 0xE8,
  0xFF, 0xFF, 0x04, 0x00, 0x00, 0x00, 0x08, 0x07, 0x00, 0x00,
  0x00, 0x00, 0x00, 0x80, 0x3A, 0xE1, 0x8F, 0xBE, 0xDC, 0x44,
  0x86, 0xBE, 0x00, 0x00, 0x00, 0x00, 0x41, 0xB1, 0x2E, 0xBE,
  0x19, 0xC6, 0xA1, 0x3E, 0x00, 0x00, 0x00, 0x00, 0x00, 0x00,
  0x00, 0x00, 0xAF, 0x9B, 0x99, 0x3E, 0xA2, 0x15, 0xAA, 0x3D,
  0x00, 0x00, 0x00, 0x00, 0x00, 0x00, 0x00, 0x00, 0x9D, 0xF2,
  0x8E, 0x3E, 0x1F, 0xAB, 0x8A, 0x3E, 0xDB, 0xA4, 0xC4, 0x3D,
  0x00, 0x00, 0x00, 0x80, 0x37, 0xD8, 0x2B, 0x3E, 0x00, 0x00,
  0x00, 0x00, 0x3F, 0x04, 0x8B, 0x3E, 0x7B, 0x9A, 0x6C, 0x3E,
  0x67, 0xA5, 0x46, 0x3E, 0x00, 0x00, 0x00, 0x00, 0x00, 0x00,
  0x00, 0x00, 0x38, 0xD3, 0x58, 0x3E, 0xAD, 0x38, 0xA7, 0x3E,
  0x00, 0x00, 0x00, 0x00, 0x9C, 0xEE, 0x9D, 0x3E, 0xEB, 0xC7,
  0x2D, 0x3E, 0x00, 0x00, 0x00, 0x00, 0x9B, 0x40, 0x32, 0x3E,
  0x00, 0x00, 0x00, 0x00, 0x34, 0x42, 0x84, 0x3E, 0xA8, 0xBB,
  0x64, 0x3E, 0x00, 0x00, 0x00, 0x00, 0x2A, 0xDB, 0x28, 0x3E,
  0x00, 0x00, 0x00, 0x00, 0x46, 0xA6, 0xA3, 0x3E, 0x00, 0x00,
  0x00, 0x00, 0xFF, 0xA4, 0xAF, 0x3D, 0x24, 0x09, 0x51, 0x3E,
  0x00, 0x00, 0x00, 0x00, 0x4A, 0xD6, 0xA5, 0x3C, 0x00, 0x00,
  0x00, 0x00, 0x71, 0x91, 0x39, 0x3E, 0xB4, 0xBD, 0x7A, 0x3E,
  0x47, 0x29, 0x8B, 0x3E, 0x48, 0x09, 0x99, 0x3E, 0x00, 0x00,
  0x00, 0x00, 0x00, 0x00, 0x00, 0x00, 0x81, 0x50, 0x06, 0x3E,
  0xA7, 0x9C, 0x3C, 0xBE, 0x46, 0xDE, 0x2C, 0x3E, 0x00, 0x00,
  0x00, 0x00, 0x00, 0x00, 0x00, 0x00, 0x22, 0x1D, 0xBD, 0x3C,
  0xE1, 0xDD, 0xB8, 0xBE, 0x00, 0x00, 0x00, 0x00, 0x22, 0x95,
  0x31, 0x3E, 0x00, 0x00, 0x00, 0x00, 0xA9, 0x1A, 0x6A, 0xBD,
  0x3A, 0x24, 0x11, 0xBE, 0xAD, 0x56, 0xC3, 0x3D, 0x00, 0x00,
  0x00, 0x00, 0x00, 0x00, 0x00, 0x00, 0xBE, 0xBC, 0x29, 0x3D,
  0x00, 0x00, 0x00, 0x00, 0x00, 0x00, 0x00, 0x00, 0x11, 0x3A,
  0x94, 0x3E, 0x4F, 0x39, 0x9B, 0x3E, 0xB5, 0x4D, 0x76, 0x3E,
  0xB4, 0x96, 0xEA, 0x3D, 0x00, 0x00, 0x00, 0x00, 0xF5, 0x40,
  0x7E, 0x3E, 0x00, 0x00, 0x00, 0x00, 0xC8, 0xFA, 0xF6, 0x3D,
  0xE9, 0x7B, 0x69, 0x3E, 0xFA, 0xE6, 0xAD, 0x3D, 0x00, 0x00,
  0x00, 0x00, 0x00, 0x00, 0x00, 0x00, 0xD9, 0x7F, 0xDF, 0x3C,
  0x0F, 0x45, 0x60, 0x3E, 0x00, 0x00, 0x00, 0x00, 0x5C, 0x64,
  0x38, 0xBE, 0x00, 0x00, 0x00, 0x00, 0x0F, 0x73, 0xA3, 0x3D,
  0x00, 0x00, 0x00, 0x00, 0x00, 0x00, 0x00, 0x00, 0x1E, 0x44,
  0x62, 0xBE, 0x85, 0xD9, 0x94, 0xBE, 0x0D, 0xAF, 0x11, 0xBD,
  0x1A, 0x76, 0x0B, 0xBE, 0x00, 0x00, 0x00, 0x00, 0xD4, 0x61,
  0x1D, 0xBE, 0x00, 0x00, 0x00, 0x80, 0x6A, 0x73, 0x08, 0x3E,
  0x00, 0x00, 0x00, 0x80, 0xEC, 0x35, 0x58, 0xBE, 0x18, 0x34,
  0xBE, 0xBE, 0x00, 0x00, 0x00, 0x80, 0x52, 0x72, 0x9D, 0xBE,
  0x4C, 0x35, 0x8E, 0xBE, 0x00, 0x00, 0x00, 0x80, 0x5F, 0xE9,
  0xB2, 0xBE, 0x00, 0x00, 0x00, 0x00, 0x2E, 0xD0, 0x83, 0xBD,
  0x4F, 0x8C, 0x12, 0x3E, 0x00, 0x00, 0x00, 0x00, 0x0D, 0x46,
  0xA3, 0x3E, 0x00, 0x00, 0x00, 0x00, 0x35, 0x3E, 0x0A, 0x3E,
  0xD4, 0xCD, 0x25, 0xBE, 0x00, 0x00, 0x00, 0x00, 0x00, 0x00,
  0x00, 0x80, 0xBB, 0xAA, 0x09, 0xBE, 0xD0, 0x37, 0xCD, 0x3D,
  0x00, 0x00, 0x00, 0x00, 0x8C, 0xD1, 0x0F, 0xBE, 0xA5, 0x74,
  0xBC, 0xBD, 0x00, 0x00, 0x00, 0x80, 0xED, 0x75, 0x99, 0xBE,
  0x00, 0x00, 0x00, 0x00, 0x1F, 0xE9, 0xA2, 0x3E, 0x14, 0x0C,
  0x68, 0x3E, 0x00, 0x00, 0x00, 0x00, 0x42, 0x08, 0xAC, 0x3E,
  0x00, 0x00, 0x00, 0x80, 0x00, 0x00, 0x00, 0x00, 0xC0, 0x3E,
  0xC4, 0xBC, 0x50, 0xCD, 0x91, 0x3E, 0xF0, 0xCB, 0x4E, 0x3E,
  0xB3, 0x7C, 0x23, 0xBE, 0x00, 0x00, 0x00, 0x80, 0x8F, 0x8F,
  0x88, 0x3E, 0x00, 0x00, 0x00, 0x80, 0xEE, 0x2C, 0x1A, 0x3D,
  0x6E, 0xD8, 0xD4, 0xBE, 0x00, 0x00, 0x00, 0x00, 0x0C, 0x13,
  0x7C, 0x3E, 0x00, 0x00, 0x00, 0x00, 0x58, 0xCF, 0x8C, 0x3C,
  0x9B, 0x1A, 0xBA, 0xBE, 0xC2, 0xA3, 0xD1, 0x3E, 0x00, 0x00,
  0x00, 0x00, 0x00, 0x00, 0x00, 0x00, 0x0A, 0x00, 0x8B, 0x3E,
  0x01, 0x94, 0x91, 0xBE, 0xDC, 0x2C, 0xA5, 0x3E, 0x00, 0x00,
  0x00, 0x00, 0x00, 0x00, 0x00, 0x00, 0x97, 0xC5, 0xEA, 0xBA,
  0x00, 0x00, 0x00, 0x00, 0x00, 0x00, 0x00, 0x80, 0xC8, 0x32,
  0x6D, 0x3E, 0x87, 0xD4, 0x40, 0x3E, 0x69, 0x86, 0xEA, 0x3C,
  0x26, 0xA1, 0x8B, 0xBE, 0x00, 0x00, 0x00, 0x80, 0x00, 0x00,
  0x00, 0x80, 0x67, 0x1E, 0x35, 0x3E, 0xCD, 0x03, 0xAB, 0x3E,
  0x00, 0x00, 0x00, 0x80, 0xE2, 0x97, 0x97, 0x3E, 0x8D, 0x6A,
  0x97, 0x3E, 0x00, 0x00, 0x00, 0x00, 0x26, 0x0F, 0x98, 0x3E,
  0x00, 0x00, 0x00, 0x80, 0x0A, 0xD5, 0xC6, 0xBE, 0x00, 0x00,
  0x00, 0x80, 0x57, 0x3E, 0xC8, 0xBE, 0x93, 0xE3, 0xC2, 0xBE,
  0x00, 0x00, 0x00, 0x80, 0x00, 0x00, 0x00, 0x80, 0xC0, 0x1D,
  0xCF, 0xBE, 0x76, 0xF0, 0xB9, 0xBE, 0x5D, 0x70, 0x91, 0xBE,
  0x2E, 0x82, 0x4A, 0xBE, 0x00, 0x00, 0x00, 0x80, 0x11, 0xD9,
  0x62, 0xBE, 0x00, 0x00, 0x00, 0x80, 0x29, 0x72, 0xC4, 0x3D,
  0x00, 0x00, 0x00, 0x80, 0x7E, 0xB8, 0x36, 0x3E, 0x00, 0x00,
  0x00, 0x00, 0x55, 0xDE, 0xA0, 0x3E, 0x6B, 0x3D, 0xB9, 0xBD,
  0x00, 0x00, 0x00, 0x80, 0xFD, 0x26, 0x87, 0x3E, 0x00, 0x36,
  0x9F, 0x3E, 0x00, 0x00, 0x00, 0x00, 0xE0, 0x8A, 0x5A, 0x3E,
  0xAC, 0x5D, 0xCC, 0x3E, 0x52, 0x65, 0xAF, 0x3E, 0x00, 0x00,
  0x00, 0x00, 0x00, 0x00, 0x00, 0x00, 0x8E, 0xD4, 0x94, 0x3E,
  0x00, 0x00, 0x00, 0x80, 0x5C, 0x19, 0x39, 0x3E, 0x65, 0xD0,
  0x9E, 0x3E, 0x00, 0x00, 0x00, 0x00, 0xBD, 0x0C, 0x21, 0x3D,
  0xB3, 0x57, 0x32, 0x3E, 0xB1, 0x31, 0x65, 0x3E, 0x00, 0x00,
  0x00, 0x00, 0x00, 0x00, 0x00, 0x00, 0xD5, 0x5E, 0x0C, 0x3E,
  0x00, 0x00, 0x00, 0x00, 0x00, 0x00, 0x00, 0x00, 0xED, 0x25,
  0x68, 0xBE, 0xB7, 0x5F, 0x6F, 0xBE, 0xAC, 0x89, 0x6B, 0xBE,
  0xF1, 0x2A, 0x18, 0xBB, 0x86, 0x07, 0x37, 0x3E, 0x00, 0x00,
  0x00, 0x00, 0x00, 0x00, 0x00, 0x00, 0x82, 0x0D, 0xE3, 0x3D,
  0x00, 0x00, 0x00, 0x00, 0x00, 0x00, 0x00, 0x80, 0x51, 0x67,
  0xD7, 0x3D, 0x9D, 0xFE, 0x90, 0xBE, 0x69, 0x66, 0x26, 0xBE,
  0x31, 0x24, 0xA0, 0xBE, 0x00, 0x00, 0x00, 0x80, 0x00, 0x00,
  0x00, 0x80, 0x3E, 0xC0, 0x8E, 0xBE, 0x6A, 0x14, 0x8A, 0x3C,
  0x40, 0x98, 0xDE, 0x3D, 0x00, 0x00, 0x00, 0x00, 0x00, 0x00,
  0x00, 0x00, 0x7F, 0x09, 0x4B, 0x3E, 0x10, 0x16, 0x8D, 0x3E,
  0x03, 0xB5, 0xEC, 0x3D, 0x0B, 0x60, 0x66, 0x3E, 0x00, 0x00,
  0x00, 0x80, 0x00, 0x00, 0x00, 0x80, 0x2C, 0x68, 0x1F, 0x3E,
  0x00, 0x00, 0x00, 0x00, 0xD9, 0x59, 0x23, 0x3E, 0x00, 0x00,
  0x00, 0x80, 0x9D, 0xFD, 0x73, 0x3E, 0x19, 0xE1, 0xF2, 0x3D,
  0x2B, 0xC0, 0x74, 0x3E, 0x00, 0x00, 0x00, 0x00, 0x6B, 0x16,
  0x34, 0xBE, 0x00, 0x00, 0x00, 0x00, 0x71, 0x7C, 0x52, 0x3E,
  0x00, 0x00, 0x00, 0x00, 0x00, 0x00, 0x00, 0x00, 0xC1, 0x4C,
  0x3F, 0x3E, 0xF2, 0x9E, 0x1B, 0xBE, 0xD5, 0xA0, 0x84, 0xBD,
  0x69, 0x74, 0x93, 0xBE, 0x00, 0x00, 0x00, 0x00, 0x00, 0x00,
  0x00, 0x00, 0x93, 0x74, 0xA7, 0x3E, 0xD1, 0x92, 0x51, 0x3E,
  0x00, 0x00, 0x00, 0x80, 0x52, 0x65, 0xA0, 0xBE, 0x71, 0xD4,
  0x38, 0xBE, 0x00, 0x00, 0x00, 0x00, 0x5A, 0x3A, 0xB8, 0xBE,
  0x00, 0x00, 0x00, 0x00, 0xE6, 0xD9, 0x96, 0x3D, 0x00, 0x00,
  0x00, 0x00, 0x96, 0xF3, 0x63, 0x3E, 0x00, 0xE9, 0x55, 0x3C,
  0x00, 0x00, 0x00, 0x00, 0x00, 0x00, 0x00, 0x00, 0x36, 0xC9,
  0xE7, 0x3D, 0x88, 0xEF, 0x9B, 0x3E, 0x14, 0x48, 0x09, 0x3E,
  0x00, 0x00, 0x00, 0x80, 0x34, 0x74, 0x2D, 0x3D, 0x88, 0x62,
  0x2E, 0x3E, 0x00, 0x00, 0x00, 0x80, 0x0B, 0x83, 0x80, 0x3E,
  0x00, 0x00, 0x00, 0x80, 0x8A, 0x7C, 0xAF, 0x3E, 0xD8, 0x8A,
  0x69, 0x3E, 0x00, 0x00, 0x00, 0x80, 0x69, 0x88, 0x04, 0x3E,
  0x0F, 0xE6, 0x98, 0x3E, 0x00, 0x00, 0x00, 0x80, 0x00, 0x00,
  0x00, 0x80, 0x52, 0x9C, 0x91, 0x3D, 0xA5, 0xF4, 0xA1, 0x3D,
  0xD5, 0xF0, 0x13, 0xBD, 0x24, 0xF1, 0x26, 0xBE, 0x00, 0x00,
  0x00, 0x80, 0x00, 0x00, 0x00, 0x80, 0xFE, 0x90, 0x19, 0x3E,
  0x00, 0x00, 0x00, 0x80, 0x82, 0xD5, 0x77, 0x3E, 0x00, 0x00,
  0x00, 0x80, 0xD9, 0x3D, 0x8E, 0x3E, 0xCE, 0xEA, 0x28, 0x3E,
  0x74, 0x26, 0x97, 0xBD, 0xA2, 0x82, 0x91, 0x3E, 0x00, 0x00,
  0x00, 0x80, 0x00, 0x00, 0x00, 0x80, 0x62, 0x58, 0xA4, 0x3E,
  0x37, 0x89, 0x09, 0xBE, 0x00, 0x00, 0x00, 0x80, 0x43, 0xA9,
  0x35, 0xBE, 0x00, 0x00, 0x00, 0x80, 0xDA, 0xCA, 0xF2, 0xBC,
  0x00, 0x00, 0x00, 0x80, 0x00, 0x00, 0x00, 0x80, 0xC4, 0x11,
  0x2D, 0x3E, 0xC8, 0xA4, 0x65, 0x3E, 0x6F, 0xDC, 0x99, 0xBD,
  0x00, 0x00, 0x00, 0x80, 0x00, 0x00, 0x00, 0x80, 0x9A, 0x46,
  0x88, 0x3E, 0x55, 0x30, 0x39, 0x3E, 0xA9, 0x32, 0x96, 0x3E,
  0x0B, 0x98, 0x91, 0x3E, 0x5A, 0xA7, 0x85, 0x3E, 0x00, 0x00,
  0x00, 0x80, 0x00, 0x00, 0x00, 0x80, 0xF1, 0x07, 0x34, 0xBC,
  0x01, 0x04, 0x88, 0x3D, 0x00, 0x00, 0x00, 0x80, 0xF4, 0x73,
  0x14, 0xBE, 0x00, 0x00, 0x00, 0x80, 0xCC, 0xB5, 0xA1, 0x3D,
  0xD0, 0x4C, 0x75, 0x3E, 0x00, 0x00, 0x00, 0x80, 0x00, 0x00,
  0x00, 0x80, 0xBE, 0x2D, 0x68, 0x3E, 0xAD, 0x37, 0x8B, 0x3E,
  0xDD, 0x22, 0xAE, 0x3E, 0xEA, 0xF7, 0x82, 0x3E, 0x00, 0x00,
  0x00, 0x80, 0x00, 0x00, 0x00, 0x80, 0x2C, 0xF7, 0x15, 0xBE,
  0x00, 0x00, 0x00, 0x80, 0x55, 0x71, 0x83, 0xBE, 0x98, 0xE8,
  0x88, 0xBE, 0x00, 0x00, 0x00, 0x80, 0x1D, 0x58, 0x5E, 0xBC,
  0x00, 0x00, 0x00, 0x00, 0xE7, 0xF8, 0x1A, 0x3E, 0x00, 0x00,
  0x00, 0x80, 0xF3, 0x2E, 0x85, 0x3E, 0x8A, 0xE1, 0x87, 0x3E,
  0x00, 0x00, 0x00, 0x00, 0xE0, 0x30, 0x8E, 0xBE, 0xA0, 0x79,
  0x5B, 0xBE, 0x00, 0x00, 0x00, 0x80, 0x28, 0x8E, 0xBC, 0xBD,
  0x00, 0x00, 0x00, 0x00, 0x01, 0x3C, 0x74, 0xBE, 0x78, 0x72,
  0x7D, 0xBE, 0x00, 0x00, 0x00, 0x80, 0x92, 0xD3, 0x26, 0xBE,
  0x00, 0x00, 0x00, 0x80, 0x00, 0x00, 0x00, 0x80, 0x6C, 0x03,
  0x9D, 0x3E, 0x93, 0xA2, 0x5F, 0x3E, 0xFD, 0x01, 0x98, 0x3E,
  0x00, 0x00, 0x00, 0x80, 0x7E, 0xD2, 0xC8, 0x3D, 0xF0, 0xB1,
  0x8C, 0x3E, 0x00, 0x00, 0x00, 0x80, 0xAE, 0x63, 0x5E, 0xBD,
  0x00, 0x00, 0x00, 0x80, 0x9C, 0x21, 0x6C, 0x3E, 0x00, 0x00,
  0x00, 0x80, 0xD1, 0x95, 0x14, 0x3E, 0x33, 0x18, 0x87, 0x3C,
  0x00, 0x00, 0x00, 0x80, 0x97, 0x91, 0x31, 0x3E, 0x00, 0x00,
  0x00, 0x80, 0x3D, 0x9D, 0x9C, 0xBE, 0x8A, 0xED, 0xE8, 0xBD,
  0x00, 0x00, 0x00, 0x80, 0x3F, 0xFD, 0x8C, 0x3E, 0x1C, 0xC1,
  0x91, 0x3E, 0x00, 0x00, 0x00, 0x00, 0xFC, 0x80, 0x23, 0x3E,
  0x00, 0x00, 0x00, 0x00, 0x4E, 0x3D, 0x8C, 0x3E, 0xF1, 0xF3,
  0x31, 0x3E, 0x00, 0x00, 0x00, 0x00, 0x19, 0x4D, 0x0F, 0xBC,
  0x67, 0x87, 0x96, 0x3E, 0x0A, 0x63, 0x8A, 0x3E, 0x00, 0x00,
  0x00, 0x80, 0x00, 0x00, 0x00, 0x80, 0x2E, 0x60, 0x64, 0x3E,
  0x03, 0x41, 0xAF, 0x3E, 0x00, 0x00, 0x00, 0x00, 0x00, 0x00,
  0x00, 0x00, 0xBF, 0xE5, 0x03, 0x3E, 0x20, 0xCF, 0x22, 0x3E,
  0x84, 0xB9, 0x06, 0xBE, 0x00, 0x00, 0x00, 0x00, 0x82, 0x87,
  0xFC, 0x3D, 0x00, 0x00, 0x00, 0x00, 0xBD, 0x01, 0xBB, 0x3D,
  0xE2, 0xED, 0x14, 0x3E, 0x82, 0x74, 0xAF, 0x3E, 0x00, 0x00,
  0x00, 0x80, 0x00, 0x00, 0x00, 0x80, 0xBD, 0x7A, 0xA4, 0x3E,
  0x00, 0x00, 0x00, 0x00, 0x61, 0xD1, 0xA7, 0x3D, 0x00, 0x00,
  0x00, 0x00, 0xE7, 0xA8, 0x8C, 0xBE, 0xA6, 0x39, 0xEE, 0x3C,
  0xE5, 0x53, 0xA6, 0xBE, 0x00, 0x00, 0x00, 0x00, 0x00, 0x00,
  0x00, 0x00, 0xA1, 0x7C, 0x9B, 0xBE, 0xEB, 0xED, 0x9D, 0xBE,
  0x00, 0x00, 0x00, 0x80, 0x0F, 0x67, 0x8C, 0xBE, 0xED, 0xF0,
  0x4B, 0xBE, 0x00, 0x00, 0x00, 0x00, 0x1D, 0x0B, 0x27, 0xBE,
  0x42, 0xBC, 0xCB, 0xBE, 0xA3, 0x1A, 0x68, 0x3D, 0x00, 0x00,
  0x00, 0x00, 0x00, 0x00, 0x00, 0x00, 0x41, 0x38, 0xA2, 0x3C,
  0xDF, 0x0C, 0xAC, 0xBE, 0x00, 0x00, 0x00, 0x00, 0xCE, 0x30,
  0x9A, 0x3E, 0x00, 0x00, 0x00, 0x00, 0xF8, 0x6C, 0x5F, 0x3E,
  0x00, 0x00, 0x00, 0x00, 0x00, 0x00, 0x00, 0x00, 0x11, 0xB8,
  0x18, 0x3E, 0x25, 0xDA, 0x8D, 0x3E, 0xA5, 0x06, 0xAB, 0x3B,
  0x00, 0x00, 0x00, 0x00, 0xF3, 0x50, 0xA0, 0x3E, 0x00, 0x00,
  0x00, 0x00, 0x06, 0x07, 0x9A, 0x3E, 0xAC, 0x8C, 0xD2, 0x3D,
  0x18, 0xA3, 0x5E, 0xBD, 0x00, 0x00, 0x00, 0x00, 0x00, 0x00,
  0x00, 0x00, 0x8A, 0xA2, 0xA6, 0x3E, 0xC6, 0xC3, 0x41, 0x3E,
  0x00, 0x00, 0x00, 0x80, 0x9E, 0xAE, 0x49, 0x3E, 0x85, 0x3B,
  0x72, 0x3E, 0x00, 0x00, 0x00, 0x00, 0x50, 0xB4, 0x54, 0x3E,
  0xFA, 0xEE, 0xFF, 0xFF, 0x10, 0x00, 0x00, 0x00, 0x07, 0x00,
  0x00, 0x00, 0x1C, 0x00, 0x00, 0x00, 0x4C, 0x00, 0x00, 0x00,
  0x04, 0x00, 0x00, 0x00, 0x0A, 0x00, 0x00, 0x00, 0x03, 0x00,
  0x00, 0x00, 0x03, 0x00, 0x00, 0x00, 0x05, 0x00, 0x00, 0x00,
  0x2C, 0x00, 0x00, 0x00, 0x6D, 0x6F, 0x64, 0x65, 0x6C, 0x5F,
  0x31, 0x30, 0x2F, 0x6D, 0x6F, 0x64, 0x65, 0x6C, 0x5F, 0x33,
  0x2F, 0x62, 0x61, 0x73, 0x65, 0x5F, 0x6D, 0x6F, 0x64, 0x65,
  0x6C, 0x32, 0x2F, 0x63, 0x6F, 0x6E, 0x76, 0x32, 0x64, 0x5F,
  0x32, 0x2F, 0x43, 0x6F, 0x6E, 0x76, 0x32, 0x44, 0x00, 0x00,
  0x00, 0x00, 0x10, 0xEF, 0xFF, 0xFF, 0xFE, 0xEF, 0xFF, 0xFF,
  0x04, 0x00, 0x00, 0x00, 0x10, 0x0E, 0x00, 0x00, 0x00, 0x00,
  0x00, 0x80, 0xAF, 0xC3, 0xEC, 0x3D, 0x00, 0x00, 0x00, 0x80,
  0xDF, 0x37, 0xC3, 0xBE, 0x00, 0x00, 0x00, 0x00, 0xEA, 0x76,
  0x26, 0x3E, 0xBE, 0x26, 0xFD, 0xBD, 0x00, 0x00, 0x00, 0x80,
  0x00, 0x00, 0x00, 0x00, 0x00, 0x00, 0x00, 0x00, 0xBF, 0x01,
  0xEB, 0x3D, 0xEB, 0x55, 0x4B, 0xBD, 0x00, 0x00, 0x00, 0x80,
  0x12, 0xBF, 0xA7, 0x3D, 0x77, 0xB4, 0x44, 0x3E, 0x00, 0x00,
  0x00, 0x00, 0x00, 0x00, 0x00, 0x00, 0x58, 0xF6, 0x39, 0xBE,
  0x6A, 0x8C, 0x3C, 0x3E, 0x00, 0x00, 0x00, 0x00, 0x00, 0x00,
  0x00, 0x00, 0x00, 0x00, 0x00, 0x80, 0x9B, 0xA5, 0x42, 0xBE,
  0x69, 0x1A, 0x33, 0x3E, 0x00, 0x00, 0x00, 0x00, 0xBA, 0x97,
  0x61, 0xBE, 0x00, 0x00, 0x00, 0x00, 0x01, 0xC4, 0x57, 0xBE,
  0x00, 0x00, 0x00, 0x00, 0x00, 0x00, 0x00, 0x00, 0xD8, 0xC6,
  0x40, 0x3E, 0x86, 0xB9, 0x1E, 0x3E, 0xD9, 0x96, 0x88, 0xBE,
  0x1B, 0xE6, 0xCB, 0xBE, 0x00, 0x00, 0x00, 0x00, 0x00, 0x00,
  0x00, 0x80, 0x00, 0x00, 0x00, 0x80, 0x53, 0x56, 0x0E, 0x3E,
  0x00, 0x00, 0x00, 0x00, 0x80, 0xE5, 0xC1, 0xBD, 0x94, 0x4F,
  0x2C, 0x3E, 0x00, 0x00, 0x00, 0x00, 0x00, 0x00, 0x00, 0x00,
  0x91, 0x04, 0x8C, 0x3D, 0xF3, 0xC1, 0xA2, 0x3D, 0x00, 0x00,
  0x00, 0x00, 0x00, 0x00, 0x00, 0x80, 0x22, 0x60, 0xBD, 0xBD,
  0x86, 0x1C, 0xB2, 0xBE, 0x00, 0x00, 0x00, 0x80, 0x00, 0x00,
  0x00, 0x00, 0x0C, 0xA1, 0x74, 0x3E, 0x02, 0xC7, 0x5D, 0xBE,
  0xB8, 0x8A, 0xC5, 0x3D, 0x00, 0x00, 0x00, 0x00, 0x00, 0x00,
  0x00, 0x80, 0x00, 0x00, 0x00, 0x00, 0x4B, 0x59, 0xB8, 0x3E,
  0x00, 0x00, 0x00, 0x00, 0x6F, 0xEC, 0x56, 0xBE, 0x00, 0x00,
  0x00, 0x00, 0x00, 0x00, 0x00, 0x00, 0x4F, 0x54, 0xB9, 0xBE,
  0xF7, 0x56, 0x2D, 0x3E, 0x00, 0x00, 0x00, 0x00, 0xC2, 0x15,
  0xAD, 0xBE, 0x00, 0x00, 0x00, 0x80, 0x08, 0xA6, 0xA6, 0xBE,
  0xBD, 0xA8, 0x8F, 0x3E, 0x9A, 0x09, 0x7D, 0xBE, 0x00, 0x00,
  0x00, 0x00, 0x00, 0x00, 0x00, 0x00, 0x00, 0x00, 0x00, 0x00,
  0x8E, 0xD2, 0x61, 0xBE, 0x95, 0x40, 0x67, 0xBE, 0x00, 0x00,
  0x00, 0x00, 0x00, 0x00, 0x00, 0x80, 0xF2, 0x0A, 0x0A, 0x3D,
  0x01, 0xE6, 0x77, 0xBE, 0x00, 0x00, 0x00, 0x80, 0xF6, 0x61,
  0xBA, 0x3D, 0x00, 0x00, 0x00, 0x00, 0x44, 0x6E, 0xCB, 0x3E,
  0x00, 0x00, 0x00, 0x00, 0x00, 0x00, 0x00, 0x00, 0x00, 0x00,
  0x00, 0x00, 0x4A, 0x81, 0xFA, 0xBE, 0x61, 0x06, 0x4E, 0x3E,
  0x09, 0xD6, 0x86, 0xBC, 0xED, 0xB0, 0x21, 0xBE, 0xE7, 0x88,
  0x02, 0xBE, 0x00, 0x00, 0x00, 0x00, 0x00, 0x00, 0x00, 0x80,
  0x6C, 0x11, 0xEC, 0xBD, 0x00, 0x00, 0x00, 0x00, 0x0D, 0xBE,
  0x52, 0xBE, 0xDF, 0x05, 0x8A, 0x3E, 0x00, 0x00, 0x00, 0x00,
  0xCF, 0x86, 0x91, 0xBE, 0x00, 0x00, 0x00, 0x00, 0x00, 0x00,
  0x00, 0x00, 0x07, 0x5D, 0x71, 0x3E, 0x84, 0x2E, 0xA5, 0x3D,
  0x00, 0x00, 0x00, 0x00, 0x00, 0x00, 0x00, 0x00, 0xAD, 0x41,
  0x03, 0x3E, 0x87, 0xB1, 0xCA, 0xBE, 0x00, 0x00, 0x00, 0x00,
  0x00, 0x00, 0x00, 0x00, 0x27, 0x64, 0x3F, 0xBE, 0xA1, 0xBC,
  0xEA, 0x3C, 0x00, 0x00, 0x00, 0x80, 0x00, 0x00, 0x00, 0x00,
  0x22, 0xD5, 0x0D, 0x3E, 0x00, 0x00, 0x00, 0x80, 0x38, 0xA3,
  0x0C, 0x3E, 0x00, 0x00, 0x00, 0x00, 0xF0, 0x87, 0x07, 0xBF,
  0x00, 0x00, 0x00, 0x80, 0x00, 0x00, 0x00, 0x00, 0xB9, 0x02,
  0x3C, 0x3E, 0x7D, 0x96, 0x53, 0x3E, 0x00, 0x00, 0x00, 0x00,
  0x00, 0x00, 0x00, 0x00, 0x40, 0x4D, 0x0C, 0x3E, 0xE6, 0xED,
  0x5F, 0x3D, 0x23, 0xAA, 0xCE, 0xBE, 0x00, 0x00, 0x00, 0x00,
  0x00, 0x00, 0x00, 0x00, 0x99, 0x01, 0x84, 0x3D, 0x00, 0x00,
  0x00, 0x00, 0x96, 0xE0, 0x91, 0x3E, 0x7A, 0x80, 0x09, 0xBE,
  0x00, 0x00, 0x00, 0x00, 0x67, 0x0B, 0x5F, 0xBE, 0xED, 0x25,
  0x60, 0x3E, 0x00, 0x00, 0x00, 0x00, 0x00, 0x00, 0x00, 0x00,
  0xE9, 0x1F, 0x21, 0xBE, 0x00, 0x00, 0x00, 0x00, 0x32, 0x33,
  0xC1, 0x3D, 0x00, 0x00, 0x00, 0x00, 0x00, 0x00, 0x00, 0x00,
  0x1B, 0x04, 0x8F, 0x3E, 0xD5, 0xC9, 0x87, 0x3E, 0x00, 0x00,
  0x00, 0x80, 0x00, 0x00, 0x00, 0x00, 0xF2, 0x30, 0xE3, 0xBE,
  0xB9, 0x2B, 0xD5, 0xBE, 0x00, 0x00, 0x00, 0x00, 0x00, 0x00,
  0x00, 0x00, 0x00, 0x00, 0x00, 0x00, 0x21, 0x1E, 0x8D, 0x3E,
  0x61, 0x2B, 0x9C, 0xBE, 0x00, 0x00, 0x00, 0x00, 0x00, 0x00,
  0x00, 0x00, 0x12, 0xB1, 0xA3, 0xBE, 0x6A, 0xF9, 0x8F, 0x3E,
  0x00, 0x00, 0x00, 0x00, 0xBF, 0x02, 0x92, 0xBD, 0x00, 0x00,
  0x00, 0x00, 0xA3, 0x7E, 0xA5, 0x3E, 0x00, 0x00, 0x00, 0x00,
  0x58, 0x9D, 0xE8, 0xBD, 0x00, 0x00, 0x00, 0x00, 0x71, 0x03,
  0xE1, 0x3D, 0x8E, 0x19, 0x94, 0xBE, 0x00, 0x00, 0x00, 0x00,
  0x00, 0x00, 0x00, 0x00, 0xD1, 0x24, 0xC1, 0x3E, 0x00, 0x00,
  0x00, 0x80, 0x00, 0x00, 0x00, 0x00, 0xE3, 0x2D, 0x93, 0x3E,
  0x47, 0xF8, 0x59, 0x3E, 0x00, 0x00, 0x00, 0x00, 0x00, 0x00,
  0x00, 0x00, 0xB7, 0xA7, 0x6D, 0xBE, 0xD3, 0x32, 0xF2, 0xBD,
  0x88, 0x91, 0x48, 0x3C, 0xD3, 0x6D, 0x03, 0xBD, 0x1D, 0x80,
  0x02, 0x3D, 0x00, 0x00, 0x00, 0x00, 0x00, 0x00, 0x00, 0x00,
  0x53, 0x25, 0x2C, 0x3E, 0x00, 0x00, 0x00, 0x00, 0x00, 0x00,
  0x00, 0x00, 0x9D, 0xD0, 0x4F, 0x3E, 0x76, 0xDC, 0x80, 0xBE,
  0x57, 0xD3, 0x19, 0x3E, 0x00, 0x00, 0x00, 0x00, 0x59, 0xA5,
  0x2E, 0xBE, 0x00, 0x00, 0x00, 0x00, 0x00, 0x00, 0x00, 0x00,
  0xC3, 0x3F, 0x42, 0x3E, 0x00, 0x00, 0x00, 0x00, 0x41, 0x6D,
  0x91, 0x3D, 0x00, 0x00, 0x00, 0x00, 0xC8, 0x46, 0x61, 0x3E,
  0x2C, 0x7E, 0x6F, 0x3E, 0x00, 0x00, 0x00, 0x00, 0x01, 0xEA,
  0x6C, 0x3E, 0x00, 0x00, 0x00, 0x00, 0x65, 0x5E, 0x59, 0xBE,
  0x00, 0x00, 0x00, 0x00, 0x19, 0x20, 0xE6, 0x3D, 0x40, 0x22,
  0x6D, 0xBE, 0x00, 0x00, 0x00, 0x00, 0x00, 0x00, 0x00, 0x80,
  0x00, 0x00, 0x00, 0x00, 0x00, 0x00, 0x00, 0x00, 0x38, 0xE0,
  0x85, 0xBE, 0x58, 0xE2, 0x86, 0xBE, 0x2E, 0x28, 0xC6, 0xBE,
  0x00, 0x00, 0x00, 0x00, 0x00, 0x00, 0x00, 0x00, 0x0C, 0xF3,
  0x8F, 0x3E, 0xF0, 0x2B, 0x69, 0xBD, 0x1A, 0xD4, 0x73, 0xBE,
  0x00, 0x00, 0x00, 0x00, 0x00, 0x00, 0x00, 0x00, 0x51, 0x9A,
  0x11, 0xBE, 0x00, 0x00, 0x00, 0x00, 0x00, 0x00, 0x00, 0x00,
  0x56, 0xB9, 0x83, 0xBE, 0xA8, 0x75, 0x84, 0x3E, 0xB1, 0xE9,
  0x6F, 0x3E, 0x00, 0x00, 0x00, 0x00, 0x00, 0x00, 0x00, 0x00,
  0x00, 0x00, 0x00, 0x00, 0x29, 0x51, 0x80, 0xBD, 0xF4, 0x9C,
  0xBB, 0xBE, 0x00, 0x00, 0x00, 0x00, 0x03, 0xE2, 0xB2, 0x3D,
  0x00, 0x00, 0x00, 0x00, 0x00, 0x00, 0x00, 0x00, 0x79, 0xEF,
  0xBB, 0xBD, 0x00, 0x00, 0x00, 0x00, 0x00, 0x00, 0x00, 0x00,
  0x1F, 0xC4, 0x28, 0xBE, 0x4D, 0x80, 0xCC, 0x3C, 0x00, 0x00,
  0x00, 0x00, 0x00, 0x00, 0x00, 0x00, 0x17, 0x54, 0x44, 0xBE,
  0x49, 0xED, 0x91, 0x3E, 0xCB, 0x94, 0xE2, 0xBE, 0x00, 0x00,
  0x00, 0x00, 0x6D, 0x02, 0x9F, 0xBE, 0x00, 0x00, 0x00, 0x00,
  0x00, 0x00, 0x00, 0x00, 0x00, 0x00, 0x00, 0x00, 0x30, 0x36,
  0x72, 0xBE, 0x98, 0xDE, 0x2A, 0xBE, 0xA7, 0x76, 0x88, 0xBE,
  0x09, 0xE5, 0x0B, 0x3E, 0x00, 0x00, 0x00, 0x00, 0x00, 0x00,
  0x00, 0x00, 0x00, 0x00, 0x00, 0x00, 0x20, 0xD6, 0x0E, 0xBD,
  0x00, 0x00, 0x00, 0x00, 0x30, 0xF6, 0x01, 0x3E, 0xAA, 0x33,
  0x22, 0xBF, 0xCF, 0x33, 0xDA, 0x3E, 0x00, 0x00, 0x00, 0x00,
  0x00, 0x00, 0x00, 0x00, 0x00, 0x00, 0x00, 0x00, 0xE0, 0x0D,
  0x38, 0x3E, 0x00, 0x00, 0x00, 0x00, 0xAA, 0x5E, 0x86, 0x3E,
  0x78, 0x1A, 0x6C, 0xBD, 0x93, 0x46, 0x5F, 0xBE, 0x2C, 0x75,
  0xAB, 0xBE, 0x00, 0x00, 0x00, 0x80, 0x00, 0x00, 0x00, 0x00,
  0x0A, 0x91, 0xBF, 0x3E, 0x00, 0x00, 0x00, 0x00, 0x9B, 0xCD,
  0x0D, 0x3E, 0x00, 0x00, 0x00, 0x00, 0xE6, 0x80, 0x28, 0x3E,
  0x56, 0x84, 0x3A, 0xBE, 0x23, 0xF5, 0x99, 0xBD, 0x00, 0x00,
  0x00, 0x80, 0x00, 0x00, 0x00, 0x80, 0xE6, 0x3F, 0xC2, 0x3D,
  0x00, 0x00, 0x00, 0x00, 0x00, 0x00, 0x00, 0x00, 0x93, 0x4B,
  0x83, 0xBE, 0x00, 0x00, 0x00, 0x00, 0x8B, 0x0B, 0x18, 0x3E,
  0x00, 0x00, 0x00, 0x00, 0x5D, 0x3C, 0x83, 0x3C, 0x57, 0xF5,
  0x89, 0x3E, 0x00, 0x00, 0x00, 0x80, 0xC5, 0xF3, 0x2B, 0x3E,
  0x00, 0x00, 0x00, 0x80, 0x00, 0x00, 0x00, 0x80, 0x00, 0x00,
  0x00, 0x80, 0x80, 0xD0, 0x38, 0x3E, 0xC9, 0x85, 0xBD, 0xBE,
  0x73, 0xDD, 0x91, 0xBE, 0x74, 0xB2, 0x60, 0x3E, 0x00, 0x00,
  0x00, 0x80, 0x00, 0x00, 0x00, 0x00, 0x00, 0x00, 0x00, 0x80,
  0x00, 0x00, 0x00, 0x00, 0x49, 0x92, 0xB0, 0x3D, 0x3B, 0x7A,
  0x42, 0x3E, 0xB9, 0x7D, 0x44, 0x3E, 0x00, 0x00, 0x00, 0x00,
  0x24, 0x06, 0xA1, 0xBE, 0x00, 0x00, 0x00, 0x80, 0xB7, 0x46,
  0x7F, 0xBE, 0x00, 0x00, 0x00, 0x80, 0x00, 0x00, 0x00, 0x80,
  0xB1, 0x37, 0x75, 0x3D, 0x00, 0x00, 0x00, 0x80, 0xE6, 0x80,
  0x0E, 0xBE, 0x00, 0x00, 0x00, 0x00, 0x4A, 0x1D, 0x5B, 0x3E,
  0x00, 0x00, 0x00, 0x00, 0x46, 0x66, 0x83, 0xBE, 0xA1, 0x11,
  0x48, 0xBE, 0x00, 0x00, 0x00, 0x00, 0x26, 0xEC, 0x8B, 0xBE,
  0x00, 0x00, 0x00, 0x80, 0x00, 0x00, 0x00, 0x80, 0x0D, 0xBF,
  0x6A, 0xBE, 0x00, 0x00, 0x00, 0x00, 0x54, 0x34, 0xD0, 0xBD,
  0xD9, 0xCB, 0x76, 0x3E, 0x00, 0x00, 0x00, 0x00, 0x00, 0x00,
  0x00, 0x80, 0x00, 0x00, 0x00, 0x80, 0xAD, 0xC4, 0x80, 0x3E,
  0xD1, 0x73, 0xCA, 0x3D, 0x00, 0x00, 0x00, 0x00, 0x00, 0x00,
  0x00, 0x00, 0x5A, 0x3E, 0x95, 0x3E, 0xA5, 0x10, 0x7F, 0xBE,
  0xE5, 0x0E, 0x32, 0xBE, 0x00, 0x00, 0x00, 0x00, 0x00, 0x00,
  0x00, 0x80, 0x66, 0x23, 0xE4, 0xBD, 0x00, 0x00, 0x00, 0x00,
  0x19, 0xCB, 0x92, 0xBE, 0x49, 0xD7, 0x0A, 0x3E, 0x00, 0x00,
  0x00, 0x00, 0xA7, 0x29, 0x87, 0x3E, 0x00, 0x00, 0x00, 0x80,
  0x33, 0x80, 0xAE, 0xBD, 0x00, 0x00, 0x00, 0x00, 0x36, 0x64,
  0x8E, 0xBD, 0x00, 0x00, 0x00, 0x80, 0x00, 0x00, 0x00, 0x00,
  0x0E, 0xB8, 0x60, 0x3E, 0x2B, 0x1C, 0x2F, 0xBE, 0x5E, 0x9C,
  0x45, 0xBE, 0x00, 0x00, 0x00, 0x00, 0x00, 0x00, 0x00, 0x00,
  0x01, 0xFE, 0x71, 0xBD, 0x65, 0x70, 0xA4, 0x3E, 0x2A, 0xCE,
  0x9A, 0x3E, 0x6A, 0xE8, 0x3F, 0xBD, 0x00, 0x00, 0x00, 0x00,
  0x00, 0x00, 0x00, 0x80, 0x00, 0x00, 0x00, 0x80, 0x4F, 0xED,
  0x1F, 0xBE, 0x00, 0x00, 0x00, 0x80, 0xFB, 0x27, 0x1F, 0xBE,
  0xEB, 0x69, 0x27, 0xBE, 0x00, 0x00, 0x00, 0x80, 0x00, 0x00,
  0x00, 0x80, 0xC1, 0x18, 0x77, 0xBE, 0x00, 0x00, 0x00, 0x80,
  0xA3, 0xF9, 0x97, 0xBE, 0x00, 0x00, 0x00, 0x80, 0x85, 0xB8,
  0x04, 0xBE, 0x00, 0x00, 0x00, 0x80, 0xA1, 0x72, 0xB2, 0xBE,
  0x00, 0x00, 0x00, 0x80, 0xC9, 0x3E, 0x61, 0xBE, 0x00, 0x00,
  0x00, 0x80, 0x00, 0x00, 0x00, 0x00, 0x72, 0x50, 0xFC, 0x3D,
  0x83, 0xAA, 0xBD, 0xBD, 0x00, 0x00, 0x00, 0x80, 0x15, 0xB3,
  0x28, 0xBE, 0x00, 0x00, 0x00, 0x80, 0x12, 0xD0, 0xDA, 0xBE,
  0x00, 0x00, 0x00, 0x80, 0x74, 0xF5, 0x88, 0xBE, 0x84, 0x44,
  0xCD, 0x3E, 0x00, 0x00, 0x00, 0x80, 0xA6, 0x51, 0x81, 0xBE,
  0x00, 0x00, 0x00, 0x80, 0x30, 0xD2, 0xB1, 0xBD, 0x00, 0x00,
  0x00, 0x80, 0x00, 0x00, 0x00, 0x80, 0x00, 0x00, 0x00, 0x80,
  0x38, 0x55, 0x84, 0x3E, 0xFA, 0xF7, 0xD8, 0x3D, 0x00, 0x00,
  0x00, 0x80, 0x66, 0xBA, 0xEF, 0xBD, 0x7E, 0x25, 0x6A, 0xBE,
  0x00, 0x00, 0x00, 0x80, 0x00, 0x00, 0x00, 0x80, 0x92, 0x02,
  0xDF, 0xBE, 0x00, 0x00, 0x00, 0x80, 0x2B, 0x55, 0x47, 0x3E,
  0xC1, 0x1F, 0x72, 0x3E, 0x00, 0x00, 0x00, 0x80, 0x00, 0x00,
  0x00, 0x00, 0xA2, 0x0F, 0x2F, 0xBE, 0x01, 0xF7, 0x86, 0x3E,
  0x00, 0x00, 0x00, 0x80, 0x6C, 0xBF, 0xBC, 0x3E, 0x00, 0x00,
  0x00, 0x80, 0xAF, 0xF8, 0x90, 0xBE, 0x53, 0xDD, 0xC0, 0xBE,
  0x00, 0x00, 0x00, 0x80, 0x00, 0x00, 0x00, 0x80, 0x2D, 0x07,
  0x49, 0x3E, 0xD2, 0xE6, 0x97, 0x3E, 0x00, 0x00, 0x00, 0x80,
  0x00, 0x00, 0x00, 0x80, 0x21, 0x93, 0x2F, 0xBE, 0x00, 0x00,
  0x00, 0x80, 0xA2, 0x17, 0x47, 0xBE, 0x00, 0x00, 0x00, 0x80,
  0xB8, 0x5E, 0x89, 0xBE, 0x00, 0x00, 0x00, 0x80, 0x00, 0x00,
  0x00, 0x80, 0xF8, 0x3E, 0x3C, 0x3E, 0x75, 0x64, 0x02, 0x3E,
  0x00, 0x00, 0x00, 0x80, 0x43, 0x68, 0x0D, 0xBE, 0x00, 0x00,
  0x00, 0x80, 0x00, 0x00, 0x00, 0x80, 0x00, 0x00, 0x00, 0x80,
  0x9A, 0x14, 0x67, 0xBE, 0x30, 0x4B, 0x95, 0xBE, 0x00, 0x00,
  0x00, 0x80, 0x24, 0x39, 0x97, 0xBE, 0x4D, 0x21, 0x86, 0xBE,
  0x00, 0x00, 0x00, 0x80, 0x98, 0x02, 0x6E, 0xBE, 0x00, 0x00,
  0x00, 0x80, 0x00, 0x00, 0x00, 0x80, 0xEF, 0xCB, 0x47, 0x3D,
  0x7C, 0xB6, 0x26, 0xBE, 0x30, 0x85, 0xBA, 0xBD, 0x80, 0x76,
  0x83, 0xBE, 0x00, 0x00, 0x00, 0x00, 0x00, 0x00, 0x00, 0x80,
  0x3F, 0xD9, 0x97, 0xBE, 0x85, 0xFA, 0x48, 0xBE, 0x8D, 0x35,
  0x27, 0xBE, 0x00, 0x00, 0x00, 0x80, 0x00, 0x00, 0x00, 0x80,
  0x00, 0x00, 0x00, 0x80, 0x00, 0x00, 0x00, 0x80, 0x77, 0x0D,
  0x57, 0x3E, 0xD4, 0xA9, 0x38, 0xBE, 0x5E, 0x7D, 0xE2, 0xBD,
  0x00, 0x00, 0x00, 0x80, 0x34, 0x5B, 0x50, 0xBE, 0x00, 0x00,
  0x00, 0x80, 0xC7, 0x77, 0x9F, 0x3D, 0x83, 0x5A, 0x46, 0xBE,
  0x00, 0x00, 0x00, 0x80, 0x00, 0x00, 0x00, 0x80, 0xEE, 0x9C,
  0x37, 0xBF, 0x00, 0x00, 0x00, 0x80, 0xDB, 0x76, 0x95, 0xBE,
  0x00, 0x00, 0x00, 0x00, 0x84, 0xAB, 0x17, 0x3E, 0xCE, 0xB2,
  0x76, 0x3E, 0x00, 0x00, 0x00, 0x80, 0x00, 0x00, 0x00, 0x00,
  0x00, 0x00, 0x00, 0x80, 0x00, 0x00, 0x00, 0x80, 0x52, 0xCB,
  0x6E, 0x3E, 0x81, 0x9F, 0x88, 0xBD, 0x09, 0x47, 0x2A, 0xBE,
  0x8F, 0x29, 0xFE, 0x3D, 0x00, 0x00, 0x00, 0x80, 0x00, 0x00,
  0x00, 0x80, 0x4F, 0xB3, 0x1F, 0x3E, 0x30, 0x4C, 0x4A, 0xBD,
  0x00, 0x00, 0x00, 0x80, 0x00, 0x00, 0x00, 0x00, 0x90, 0x58,
  0x3E, 0xBE, 0x00, 0x00, 0x00, 0x00, 0x00, 0x00, 0x00, 0x00,
  0xCE, 0x40, 0x5C, 0x3E, 0x00, 0x00, 0x00, 0x00, 0x49, 0x90,
  0x15, 0xBE, 0x57, 0xB2, 0x82, 0x3E, 0x00, 0x00, 0x00, 0x80,
  0x7F, 0x68, 0x3A, 0xBE, 0x00, 0x00, 0x00, 0x80, 0x01, 0x0A,
  0x59, 0xBE, 0x00, 0x00, 0x00, 0x80, 0x00, 0x00, 0x00, 0x80,
  0xE9, 0x60, 0x90, 0xBE, 0xB4, 0xC4, 0x96, 0xBE, 0x00, 0x00,
  0x00, 0x00, 0x00, 0x00, 0x00, 0x80, 0x5D, 0x06, 0x81, 0x3E,
  0xED, 0x4F, 0xA9, 0xBE, 0x00, 0x00, 0x00, 0x00, 0x00, 0x00,
  0x00, 0x00, 0xDF, 0x84, 0xFE, 0xBD, 0x00, 0x00, 0x00, 0x80,
  0x04, 0x35, 0xB4, 0x3D, 0x95, 0x0A, 0x7D, 0x3D, 0x00, 0x00,
  0x00, 0x80, 0x79, 0x9E, 0x8E, 0x3E, 0x00, 0x00, 0x00, 0x00,
  0x00, 0x00, 0x00, 0x80, 0xCA, 0x03, 0x1D, 0x3E, 0xF5, 0x2A,
  0xED, 0xBD, 0x00, 0x00, 0x00, 0x00, 0x4C, 0x34, 0x9A, 0x3E,
  0x00, 0x00, 0x00, 0x80, 0x6D, 0x8F, 0x4E, 0x3E, 0x00, 0x00,
  0x00, 0x80, 0x90, 0x49, 0x2F, 0x3D, 0x00, 0x00, 0x00, 0x00,
  0x00, 0x00, 0x00, 0x00, 0x5F, 0xEB, 0x02, 0x3E, 0x5A, 0x4B,
  0x11, 0x3E, 0x00, 0x00, 0x00, 0x80, 0x00, 0x00, 0x00, 0x00,
  0x38, 0x38, 0x1D, 0x3E, 0x00, 0x00, 0x00, 0x80, 0x4E, 0xC0,
  0x70, 0x3D, 0x00, 0x00, 0x00, 0x00, 0xAF, 0x50, 0x27, 0x3D,
  0x51, 0xE7, 0x63, 0x3D, 0x7B, 0x5E, 0x8B, 0x3E, 0x5F, 0x38,
  0x90, 0x3E, 0x00, 0x00, 0x00, 0x00, 0x8D, 0xFA, 0xDC, 0x3E,
  0x00, 0x00, 0x00, 0x80, 0xE3, 0xD2, 0x3C, 0x3E, 0x00, 0x00,
  0x00, 0x00, 0xE3, 0xC8, 0x7D, 0xBE, 0x00, 0x00, 0x00, 0x00,
  0x00, 0x00, 0x00, 0x00, 0xCA, 0x57, 0x48, 0xBE, 0x73, 0x11,
  0x65, 0x3D, 0x00, 0x00, 0x00, 0x00, 0x00, 0x00, 0x00, 0x00,
  0xD8, 0x6F, 0x15, 0x3E, 0x83, 0xAB, 0xB1, 0xBE, 0x00, 0x00,
  0x00, 0x00, 0xCC, 0x77, 0xF3, 0xBE, 0x00, 0x00, 0x00, 0x00,
  0xA1, 0x70, 0x99, 0xBE, 0x00, 0x00, 0x00, 0x00, 0x00, 0x00,
  0x00, 0x00, 0x00, 0x00, 0x00, 0x80, 0x5A, 0x0F, 0x82, 0xBE,
  0xF5, 0x77, 0x99, 0x3E, 0x73, 0x11, 0x42, 0xBE, 0x00, 0x00,
  0x00, 0x80, 0x1C, 0xDF, 0x2C, 0xBE, 0x00, 0x00, 0x00, 0x00,
  0x00, 0x00, 0x00, 0x00, 0x00, 0x00, 0x00, 0x00, 0xB0, 0x67,
  0x0A, 0x3E, 0xEB, 0x52, 0x1D, 0x3E, 0x00, 0x00, 0x00, 0x00,
  0x60, 0x66, 0xAA, 0xBE, 0xCE, 0xE4, 0xA1, 0xBE, 0x00, 0x00,
  0x00, 0x80, 0xAA, 0x65, 0x89, 0xBE, 0x0F, 0xF9, 0xDB, 0x3D,
  0x00, 0x00, 0x00, 0x00, 0x00, 0x00, 0x00, 0x80, 0x7E, 0xC3,
  0x6E, 0x3E, 0x1F, 0xF4, 0x80, 0xBE, 0x00, 0x00, 0x00, 0x00,
  0x00, 0x00, 0x00, 0x00, 0x00, 0x00, 0x00, 0x00, 0x9E, 0x87,
  0x63, 0xBE, 0x01, 0xA1, 0xB0, 0x3D, 0x00, 0x00, 0x00, 0x00,
  0x00, 0x00, 0x00, 0x00, 0x5D, 0x3A, 0x93, 0x3E, 0x00, 0x00,
  0x00, 0x80, 0x3C, 0xE6, 0x8A, 0xBE, 0xA5, 0x58, 0x7F, 0x3E,
  0x00, 0x00, 0x00, 0x00, 0xD0, 0xB5, 0xAD, 0xBE, 0x00, 0x00,
  0x00, 0x00, 0x84, 0x08, 0xCF, 0x3D, 0x00, 0x00, 0x00, 0x00,
  0x00, 0x00, 0x00, 0x00, 0x3E, 0x5B, 0x98, 0x3E, 0x3C, 0x6B,
  0x8D, 0x3E, 0xE0, 0x60, 0x86, 0x3E, 0x00, 0x00, 0x00, 0x80,
  0x00, 0x00, 0x00, 0x00, 0x00, 0x00, 0x00, 0x00, 0x54, 0x61,
  0x08, 0xBF, 0xB4, 0xF7, 0xC7, 0xBD, 0x00, 0x00, 0x00, 0x00,
  0x00, 0x00, 0x00, 0x00, 0x9A, 0xED, 0x12, 0xBE, 0xB9, 0x66,
  0xA3, 0xBE, 0x00, 0x00, 0x00, 0x00, 0x51, 0xA1, 0x50, 0xBE,
  0x00, 0x00, 0x00, 0x00, 0x00, 0x00, 0x00, 0x00, 0xE0, 0x2A,
  0x8C, 0xBE, 0x35, 0xE9, 0x28, 0xBE, 0xA1, 0x36, 0x43, 0x3E,
  0x00, 0x00, 0x00, 0x00, 0x00, 0x00, 0x00, 0x00, 0x01, 0x64,
  0x66, 0xBE, 0xB9, 0xA2, 0xA0, 0xBE, 0x00, 0x00, 0x00, 0x00,
  0x00, 0x00, 0x00, 0x00, 0x68, 0x8E, 0x92, 0xBD, 0x00, 0x00,
  0x00, 0x80, 0xFA, 0x82, 0x6D, 0x3D, 0x00, 0x00, 0x00, 0x00,
  0xE8, 0xD7, 0x0B, 0xBD, 0xA5, 0x3D, 0xB9, 0xBE, 0x00, 0x00,
  0x00, 0x80, 0x00, 0x00, 0x00, 0x00, 0x5D, 0x63, 0xCA, 0xBD,
  0x1D, 0x86, 0xA2, 0x3E, 0x7D, 0xC0, 0xEE, 0x3D, 0x00, 0x00,
  0x00, 0x80, 0x00, 0x00, 0x00, 0x80, 0x46, 0x11, 0x57, 0x3E,
  0xF7, 0x5E, 0x65, 0x3E, 0x6E, 0x35, 0x87, 0x3E, 0x00, 0x00,
  0x00, 0x80, 0x00, 0x00, 0x00, 0x80, 0x00, 0x00, 0x00, 0x00,
  0x6D, 0x5F, 0xBB, 0xBE, 0x00, 0x00, 0x00, 0x00, 0xE2, 0xED,
  0x6A, 0x3E, 0x00, 0x00, 0x00, 0x80, 0xA6, 0x79, 0x43, 0x3E,
  0x00, 0x00, 0x00, 0x80, 0x88, 0x22, 0x39, 0x3E, 0x00, 0x00,
  0x00, 0x80, 0x00, 0x00, 0x00, 0x80, 0x15, 0xBE, 0x3D, 0x3E,
  0xB7, 0x66, 0xAA, 0xBE, 0x00, 0x00, 0x00, 0x00, 0x32, 0x1D,
  0x5F, 0x3E, 0x4A, 0x19, 0xA6, 0xBE, 0x00, 0x00, 0x00, 0x00,
  0x00, 0x00, 0x00, 0x80, 0x00, 0x00, 0x00, 0x80, 0xBC, 0x29,
  0xA8, 0xBE, 0x52, 0xD1, 0xA8, 0xBE, 0x2F, 0xC2, 0x98, 0x3E,
  0x00, 0x00, 0x00, 0x00, 0x00, 0x00, 0x00, 0x00, 0x0B, 0x72,
  0xC2, 0xBD, 0x00, 0x00, 0x00, 0x00, 0x91, 0x60, 0xEF, 0xBD,
  0x43, 0x98, 0xC1, 0xBD, 0x00, 0x00, 0x00, 0x00, 0x00, 0x00,
  0x00, 0x00, 0xB0, 0x62, 0xC3, 0xBD, 0x80, 0xCC, 0x0E, 0xBE,
  0x00, 0x00, 0x00, 0x80, 0x00, 0x00, 0x00, 0x80, 0x19, 0x1C,
  0x8F, 0x3E, 0x00, 0x00, 0x00, 0x80, 0x3B, 0x6F, 0x8E, 0x3E,
  0x00, 0x00, 0x00, 0x80, 0xD4, 0xE2, 0x70, 0xBE, 0x00, 0x00,
  0x00, 0x80, 0x76, 0x01, 0x6E, 0xBE, 0x00, 0x00, 0x00, 0x80,
  0xB1, 0x58, 0x37, 0xBE, 0x31, 0x56, 0x32, 0x3E, 0x00, 0x00,
  0x00, 0x80, 0x00, 0x00, 0x00, 0x80, 0xDA, 0xA0, 0x36, 0x3E,
  0x00, 0x00, 0x00, 0x80, 0xBC, 0x4C, 0x0E, 0xBE, 0x00, 0x00,
  0x00, 0x80, 0x00, 0x00, 0x00, 0x80, 0xA5, 0x09, 0xBD, 0xBD,
  0x5E, 0x0E, 0x8B, 0xBE, 0x12, 0x1F, 0xCA, 0xBE, 0x00, 0x00,
  0x00, 0x00, 0x23, 0x34, 0xA5, 0xBE, 0x00, 0x00, 0x00, 0x80,
  0x00, 0x00, 0x00, 0x80, 0x00, 0x00, 0x00, 0x00, 0x90, 0x16,
  0x7A, 0x3E, 0x1B, 0xCA, 0x49, 0x3E, 0xF8, 0x3E, 0x8C, 0x3E,
  0x00, 0x00, 0x00, 0x80, 0x0D, 0xE9, 0x86, 0xBE, 0x00, 0x00,
  0x00, 0x80, 0x00, 0x00, 0x00, 0x80, 0x1F, 0x74, 0x8A, 0xBE,
  0x00, 0x00, 0x00, 0x80, 0x74, 0x4D, 0xA6, 0xBE, 0x00, 0x00,
  0x00, 0x80, 0x00, 0x00, 0x00, 0x80, 0xF2, 0x6C, 0x70, 0xBE,
  0x83, 0x36, 0x53, 0x3E, 0xD8, 0x7F, 0x54, 0x3E, 0x00, 0x00,
  0x00, 0x00, 0xA8, 0xBC, 0x9B, 0xBE, 0x00, 0x00, 0x00, 0x80,
  0x00, 0x29, 0x9F, 0xBE, 0x7A, 0x11, 0xB3, 0xBC, 0x2A, 0x9B,
  0xE5, 0xBD, 0x00, 0x00, 0x00, 0x80, 0x00, 0x00, 0x00, 0x00,
  0x03, 0xB6, 0xD1, 0xBE, 0x00, 0x00, 0x00, 0x80, 0x00, 0x00,
  0x00, 0x80, 0x85, 0x4A, 0x6D, 0x3E, 0xD2, 0xAD, 0xF7, 0xBD,
  0x00, 0x00, 0x00, 0x80, 0x36, 0x9E, 0xF5, 0x3C, 0x61, 0xDA,
  0xA4, 0xBD, 0x00, 0x00, 0x00, 0x80, 0x00, 0x00, 0x00, 0x80,
  0x00, 0x00, 0x00, 0x00, 0x8F, 0xFB, 0x06, 0x3E, 0x07, 0x05,
  0x71, 0xBE, 0x00, 0x00, 0x00, 0x80, 0x00, 0x00, 0x00, 0x80,
  0x0C, 0xCD, 0x09, 0x3E, 0xB9, 0xB4, 0xEE, 0xBD, 0xB3, 0x3A,
  0x97, 0xBD, 0x00, 0x00, 0x00, 0x80, 0x00, 0x00, 0x00, 0x80,
  0x08, 0xFD, 0xD7, 0x3D, 0x38, 0xEF, 0x02, 0xBE, 0x00, 0x00,
  0x00, 0x00, 0x00, 0x00, 0x00, 0x80, 0xA5, 0xD9, 0xEF, 0xBC,
  0x00, 0x00, 0x00, 0x00, 0x00, 0x00, 0x00, 0x80, 0x01, 0x56,
  0x96, 0x3E, 0x51, 0xA8, 0x7F, 0x3E, 0x33, 0xF5, 0x78, 0xBD,
  0x0A, 0xA2, 0x46, 0xBE, 0x00, 0x00, 0x00, 0x80, 0x00, 0x00,
  0x00, 0x80, 0x1F, 0x13, 0x1A, 0x3E, 0x00, 0x00, 0x00, 0x80,
  0x7B, 0xB4, 0x72, 0x3E, 0x00, 0x00, 0x00, 0x80, 0xDD, 0xB1,
  0x23, 0xBE, 0x00, 0x00, 0x00, 0x80, 0x1E, 0xC5, 0x42, 0xBE,
  0x00, 0x00, 0x00, 0x80, 0xE9, 0x83, 0x48, 0xBE, 0xCF, 0xEF,
  0x23, 0xBE, 0x00, 0x00, 0x00, 0x00, 0x00, 0x00, 0x00, 0x80,
  0x00, 0x00, 0x00, 0x80, 0x00, 0x00, 0x00, 0x80, 0x4E, 0x6D,
  0x7A, 0xBE, 0x8D, 0x16, 0x8C, 0xBE, 0xF5, 0x5C, 0x4B, 0xBE,
  0x00, 0x00, 0x00, 0x80, 0x00, 0x00, 0x00, 0x80, 0x50, 0xD7,
  0x95, 0xBE, 0x00, 0x00, 0x00, 0x80, 0x33, 0xA7, 0x11, 0x3D,
  0x00, 0x00, 0x00, 0x00, 0x19, 0xE5, 0xB0, 0xBE, 0x87, 0x3B,
  0xF1, 0xBD, 0x00, 0x00, 0x00, 0x80, 0x00, 0x00, 0x00, 0x80,
  0x9B, 0xAC, 0x8F, 0xBC, 0x00, 0x00, 0x00, 0x00, 0x00, 0x00,
  0x00, 0x80, 0x15, 0xDF, 0x85, 0xBE, 0x4C, 0x1C, 0x61, 0x3E,
  0x00, 0x00, 0x00, 0x00, 0x74, 0xD4, 0x23, 0xBF, 0x8D, 0x56,
  0x0F, 0x3E, 0x00, 0x00, 0x00, 0x80, 0xAB, 0xE1, 0xF1, 0xBD,
  0x00, 0x00, 0x00, 0x80, 0x1B, 0x92, 0xFA, 0x3E, 0x00, 0x00,
  0x00, 0x80, 0xF5, 0xBE, 0xBD, 0xBD, 0x00, 0x00, 0x00, 0x80,
  0x00, 0x00, 0x00, 0x80, 0xD9, 0xE2, 0x80, 0xBE, 0x26, 0x50,
  0x25, 0x3E, 0x00, 0x00, 0x00, 0x80, 0x00, 0x00, 0x00, 0x80,
  0x26, 0x2B, 0x80, 0xBE, 0x73, 0x97, 0xC3, 0xBE, 0x00, 0x00,
  0x00, 0x00, 0x00, 0x00, 0x00, 0x80, 0xAD, 0x56, 0x49, 0xBE,
  0x90, 0x92, 0xBE, 0xBD, 0x18, 0x2D, 0xA6, 0x3E, 0x20, 0xAD,
  0xA8, 0x3E, 0x16, 0xD2, 0x6A, 0xBE, 0x00, 0x00, 0x00, 0x80,
  0x00, 0x00, 0x00, 0x80, 0x00, 0x00, 0x00, 0x80, 0x00, 0x00,
  0x00, 0x80, 0x07, 0xEF, 0x40, 0xBE, 0x5C, 0x50, 0x8B, 0xBE,
  0x67, 0x64, 0x0C, 0xBE, 0x00, 0x00, 0x00, 0x80, 0x00, 0x00,
  0x00, 0x80, 0x18, 0xA7, 0xF4, 0xBE, 0xF1, 0xB6, 0x1D, 0xBE,
  0x00, 0x00, 0x00, 0x80, 0x00, 0x00, 0x00, 0x80, 0xDC, 0xB3,
  0xD5, 0x3E, 0x00, 0x00, 0x00, 0x80, 0xBB, 0x56, 0x8B, 0xBD,
  0x92, 0x47, 0x85, 0x3E, 0x00, 0x00, 0x00, 0x80, 0x96, 0x4E,
  0x3B, 0xBE, 0x00, 0x00, 0x00, 0x80, 0x00, 0x00, 0x00, 0x80,
  0x1F, 0xE7, 0x73, 0xBE, 0xEC, 0xB4, 0xB1, 0x3D, 0x00, 0x00,
  0x00, 0x00, 0x31, 0xDD, 0x27, 0xBE, 0x00, 0x00, 0x00, 0x80,
  0x57, 0xA2, 0x22, 0x3E, 0x73, 0x42, 0x32, 0x3E, 0x00, 0x00,
  0x00, 0x80, 0x00, 0x00, 0x00, 0x80, 0x00, 0x00, 0x00, 0x80,
  0x00, 0x00, 0x00, 0x80, 0x56, 0x3E, 0x2C, 0xBE, 0x4C, 0x0C,
  0x74, 0xBE, 0x64, 0x75, 0x8A, 0xBE, 0x00, 0x00, 0x00, 0x80,
  0x00, 0x00, 0x00, 0x80, 0xFC, 0x61, 0xD1, 0xBE, 0x00, 0x00,
  0x00, 0x80, 0xB0, 0x5F, 0x06, 0x3E, 0xED, 0x5D, 0x65, 0xBE,
  0x00, 0x00, 0x00, 0x80, 0x00, 0x00, 0x00, 0x80, 0xEE, 0x84,
  0x96, 0xBE, 0x53, 0xDF, 0x10, 0x3E, 0x00, 0x00, 0x00, 0x80,
  0x00, 0x00, 0x00, 0x80, 0x48, 0xB3, 0xCA, 0xBE, 0x6D, 0x05,
  0x4F, 0xBE, 0x00, 0x00, 0x00, 0x80, 0x09, 0x42, 0x7A, 0x3C,
  0x00, 0x00, 0x00, 0x80, 0x00, 0x00, 0x00, 0x80, 0x0B, 0x5E,
  0x08, 0x3D, 0x00, 0x00, 0x00, 0x80, 0x93, 0xEA, 0xB6, 0xBE,
  0x00, 0x00, 0x00, 0x80, 0x3D, 0xE1, 0x92, 0x3E, 0x52, 0x54,
  0x66, 0x3E, 0x00, 0x00, 0x00, 0x80, 0x16, 0xE9, 0xC0, 0xBD,
  0x00, 0x00, 0x00, 0x80, 0xAC, 0x4B, 0xA7, 0x3E, 0x04, 0xA9,
  0x8C, 0x3E, 0x00, 0x00, 0x00, 0x80, 0x00, 0x00, 0x00, 0x80,
  0xCA, 0x72, 0x59, 0xBE, 0x00, 0x00, 0x00, 0x00, 0x00, 0x00,
  0x00, 0x00, 0xB1, 0x28, 0x8A, 0x3E, 0x00, 0x00, 0x00, 0x80,
  0x9E, 0x4B, 0x1F, 0xBE, 0x00, 0x00, 0x00, 0x80, 0xBC, 0xA3,
  0xFE, 0xBD, 0x00, 0x00, 0x00, 0x80, 0x72, 0x95, 0x42, 0x3E,
  0xB5, 0x8D, 0x53, 0xBE, 0x00, 0x00, 0x00, 0x80, 0x00, 0x00,
  0x00, 0x00, 0x5C, 0x15, 0x00, 0x3E, 0xC5, 0x25, 0xBF, 0xBE,
  0x00, 0x00, 0x00, 0x80, 0x3B, 0x20, 0xED, 0xBD, 0x00, 0x00,
  0x00, 0x80, 0x00, 0x00, 0x00, 0x80, 0xDB, 0x67, 0xB5, 0xBE,
  0x7A, 0xCB, 0x99, 0xBD, 0x7D, 0xB7, 0xF1, 0xBD, 0x76, 0xFD,
  0xFF, 0xFF, 0x10, 0x00, 0x00, 0x00, 0x06, 0x00, 0x00, 0x00,
  0x14, 0x00, 0x00, 0x00, 0x3C, 0x00, 0x00, 0x00, 0x02, 0x00,
  0x00, 0x00, 0x0A, 0x00, 0x00, 0x00, 0x5A, 0x00, 0x00, 0x00,
  0x25, 0x00, 0x00, 0x00, 0x6D, 0x6F, 0x64, 0x65, 0x6C, 0x5F,
  0x31, 0x30, 0x2F, 0x6D, 0x6F, 0x64, 0x65, 0x6C, 0x5F, 0x34,
  0x2F, 0x65, 0x78, 0x69, 0x74, 0x32, 0x2F, 0x64, 0x65, 0x6E,
  0x73, 0x65, 0x5F, 0x31, 0x2F, 0x4D, 0x61, 0x74, 0x4D, 0x75,
  0x6C, 0x00, 0x00, 0x00, 0x7C, 0xFD, 0xFF, 0xFF, 0x6A, 0xFE,
  0xFF, 0xFF, 0x04, 0x00, 0x00, 0x00, 0x08, 0x00, 0x00, 0x00,
  0xFF, 0xFF, 0xFF, 0xFF, 0x5A, 0x00, 0x00, 0x00, 0x00, 0x00,
  0x0E, 0x00, 0x18, 0x00, 0x08, 0x00, 0x07, 0x00, 0x0C, 0x00,
  0x10, 0x00, 0x14, 0x00, 0x0E, 0x00, 0x00, 0x00, 0x00, 0x00,
  0x00, 0x02, 0x10, 0x00, 0x00, 0x00, 0x05, 0x00, 0x00, 0x00,
  0x10, 0x00, 0x00, 0x00, 0x38, 0x00, 0x00, 0x00, 0x01, 0x00,
  0x00, 0x00, 0x02, 0x00, 0x00, 0x00, 0x26, 0x00, 0x00, 0x00,
  0x6D, 0x6F, 0x64, 0x65, 0x6C, 0x5F, 0x31, 0x30, 0x2F, 0x6D,
  0x6F, 0x64, 0x65, 0x6C, 0x5F, 0x34, 0x2F, 0x65, 0x78, 0x69,
  0x74, 0x32, 0x2F, 0x66, 0x6C, 0x61, 0x74, 0x74, 0x65, 0x6E,
  0x5F, 0x31, 0x2F, 0x43, 0x6F, 0x6E, 0x73, 0x74, 0x00, 0x00,
  0xF0, 0xFD, 0xFF, 0xFF, 0xDE, 0xFE, 0xFF, 0xFF, 0x04, 0x00,
  0x00, 0x00, 0x28, 0x00, 0x00, 0x00, 0x24, 0x79, 0x97, 0xBD,
  0xB4, 0x78, 0x80, 0x3D, 0xF7, 0xD2, 0xC9, 0x3A, 0x67, 0x1E,
  0xEF, 0xBC, 0xD6, 0x92, 0x8B, 0x3C, 0xE4, 0xC8, 0x75, 0x3A,
  0xFC, 0x9B, 0x97, 0x3C, 0x54, 0x73, 0xAD, 0x3B, 0x48, 0x93,
  0x3C, 0xBD, 0x44, 0x1D, 0x37, 0x3D, 0x6E, 0xFE, 0xFF, 0xFF,
  0x10, 0x00, 0x00, 0x00, 0x04, 0x00, 0x00, 0x00, 0x10, 0x00,
  0x00, 0x00, 0x48, 0x00, 0x00, 0x00, 0x01, 0x00, 0x00, 0x00,
  0x0A, 0x00, 0x00, 0x00, 0x35, 0x00, 0x00, 0x00, 0x6D, 0x6F,
  0x64, 0x65, 0x6C, 0x5F, 0x31, 0x30, 0x2F, 0x6D, 0x6F, 0x64,
  0x65, 0x6C, 0x5F, 0x34, 0x2F, 0x65, 0x78, 0x69, 0x74, 0x32,
  0x2F, 0x64, 0x65, 0x6E, 0x73, 0x65, 0x5F, 0x31, 0x2F, 0x42,
  0x69, 0x61, 0x73, 0x41, 0x64, 0x64, 0x2F, 0x52, 0x65, 0x61,
  0x64, 0x56, 0x61, 0x72, 0x69, 0x61, 0x62, 0x6C, 0x65, 0x4F,
  0x70, 0x00, 0x00, 0x00, 0x80, 0xFE, 0xFF, 0xFF, 0x6E, 0xFF,
  0xFF, 0xFF, 0x04, 0x00, 0x00, 0x00, 0x28, 0x00, 0x00, 0x00,
  0xAC, 0xCF, 0x27, 0x3C, 0xC1, 0x8E, 0x05, 0xBD, 0x8E, 0xC7,
  0xBA, 0x3D, 0x34, 0xAE, 0x82, 0x3D, 0x7F, 0x4F, 0x14, 0x3C,
  0x90, 0x00, 0xAD, 0x3D, 0x44, 0xCF, 0x75, 0xBD, 0xE7, 0xC8,
  0xA8, 0x3D, 0xFA, 0x42, 0xAA, 0xBD, 0xC8, 0x05, 0x09, 0x3E,
  0xFE, 0xFE, 0xFF, 0xFF, 0x10, 0x00, 0x00, 0x00, 0x03, 0x00,
  0x00, 0x00, 0x10, 0x00, 0x00, 0x00, 0x48, 0x00, 0x00, 0x00,
  0x01, 0x00, 0x00, 0x00, 0x0A, 0x00, 0x00, 0x00, 0x36, 0x00,
  0x00, 0x00, 0x6D, 0x6F, 0x64, 0x65, 0x6C, 0x5F, 0x31, 0x30,
  0x2F, 0x6D, 0x6F, 0x64, 0x65, 0x6C, 0x5F, 0x34, 0x2F, 0x65,
  0x78, 0x69, 0x74, 0x32, 0x2F, 0x63, 0x6F, 0x6E, 0x76, 0x32,
  0x64, 0x5F, 0x33, 0x2F, 0x42, 0x69, 0x61, 0x73, 0x41, 0x64,
  0x64, 0x2F, 0x52, 0x65, 0x61, 0x64, 0x56, 0x61, 0x72, 0x69,
  0x61, 0x62, 0x6C, 0x65, 0x4F, 0x70, 0x00, 0x00, 0x60, 0xFF,
  0xFF, 0xFF, 0x00, 0x00, 0x06, 0x00, 0x08, 0x00, 0x04, 0x00,
  0x06, 0x00, 0x00, 0x00, 0x04, 0x00, 0x00, 0x00, 0x28, 0x00,
  0x00, 0x00, 0x50, 0x59, 0xB2, 0xBC, 0x96, 0x7B, 0x24, 0x3A,
  0xE4, 0x38, 0x8E, 0x3D, 0xDC, 0x82, 0x28, 0x3D, 0x74, 0xA7,
  0x56, 0x3D, 0xBE, 0x8C, 0xF5, 0xBC, 0xB4, 0x3B, 0x54, 0xBD,
  0xFD, 0x19, 0xBB, 0xBC, 0xD7, 0x19, 0xD6, 0xBC, 0x1B, 0xF0,
  0xBA, 0x3D, 0x96, 0xFF, 0xFF, 0xFF, 0x10, 0x00, 0x00, 0x00,
  0x02, 0x00, 0x00, 0x00, 0x10, 0x00, 0x00, 0x00, 0x54, 0x00,
  0x00, 0x00, 0x01, 0x00, 0x00, 0x00, 0x0A, 0x00, 0x00, 0x00,
  0x3C, 0x00, 0x00, 0x00, 0x6D, 0x6F, 0x64, 0x65, 0x6C, 0x5F,
  0x31, 0x30, 0x2F, 0x6D, 0x6F, 0x64, 0x65, 0x6C, 0x5F, 0x33,
  0x2F, 0x62, 0x61, 0x73, 0x65, 0x5F, 0x6D, 0x6F, 0x64, 0x65,
  0x6C, 0x32, 0x2F, 0x63, 0x6F, 0x6E, 0x76, 0x32, 0x64, 0x5F,
  0x32, 0x2F, 0x42, 0x69, 0x61, 0x73, 0x41, 0x64, 0x64, 0x2F,
  0x52, 0x65, 0x61, 0x64, 0x56, 0x61, 0x72, 0x69, 0x61, 0x62,
  0x6C, 0x65, 0x4F, 0x70, 0x00, 0x00, 0x00, 0x00, 0x04, 0x00,
  0x06, 0x00, 0x04, 0x00, 0x00, 0x00, 0x00, 0x00, 0x0E, 0x00,
  0x14, 0x00, 0x04, 0x00, 0x00, 0x00, 0x08, 0x00, 0x0C, 0x00,
  0x10, 0x00, 0x0E, 0x00, 0x00, 0x00, 0x10, 0x00, 0x00, 0x00,
  0x01, 0x00, 0x00, 0x00, 0x1C, 0x00, 0x00, 0x00, 0x24, 0x00,
  0x00, 0x00, 0x04, 0x00, 0x00, 0x00, 0x01, 0x00, 0x00, 0x00,
  0x0E, 0x00, 0x00, 0x00, 0x0E, 0x00, 0x00, 0x00, 0x05, 0x00,
  0x00, 0x00, 0x07, 0x00, 0x00, 0x00, 0x69, 0x6E, 0x70, 0x75,
  0x74, 0x5F, 0x33, 0x00, 0xFC, 0xFF, 0xFF, 0xFF, 0x04, 0x00,
  0x04, 0x00, 0x04, 0x00, 0x00, 0x00
};

const int pruned_model_chunk2_len = 11796;

