
// This is a TensorFlow Lite model file that has been converted into a C data
// array using the tensorflow.lite.util.convert_bytes_to_c_source() function.
// This form is useful for compiling into a binary for devices that don't have a
// file system.

#include "pruned_model_chunk3.h"

// We need to keep the data array aligned on some architectures.
#ifdef __has_attribute
#define HAVE_ATTRIBUTE(x) __has_attribute(x)
#else
#define HAVE_ATTRIBUTE(x) 0
#endif
#if HAVE_ATTRIBUTE(aligned) || (defined(__GNUC__) && !defined(__clang__))
#define DATA_ALIGN_ATTRIBUTE __attribute__((aligned(16)))
#else
#define DATA_ALIGN_ATTRIBUTE
#endif

const unsigned char pruned_model_chunk3[] DATA_ALIGN_ATTRIBUTE =
{
  0x1C, 0x00, 0x00, 0x00, 0x54, 0x46, 0x4C, 0x33, 0x00, 0x00,
  0x12, 0x00, 0x1C, 0x00, 0x04, 0x00, 0x08, 0x00, 0x0C, 0x00,
  0x10, 0x00, 0x14, 0x00, 0x00, 0x00, 0x18, 0x00, 0x12, 0x00,
  0x00, 0x00, 0x03, 0x00, 0x00, 0x00, 0x14, 0x00, 0x00, 0x00,
  0x28, 0x00, 0x00, 0x00, 0xC0, 0x00, 0x00, 0x00, 0x28, 0x00,
  0x00, 0x00, 0x68, 0x00, 0x00, 0x00, 0x05, 0x00, 0x00, 0x00,
  0x40, 0x05, 0x00, 0x00, 0x5C, 0x03, 0x00, 0x00, 0x9C, 0x02,
  0x00, 0x00, 0x0C, 0x02, 0x00, 0x00, 0x84, 0x01, 0x00, 0x00,
  0x01, 0x00, 0x00, 0x00, 0xBC, 0x00, 0x00, 0x00, 0x10, 0x00,
  0x00, 0x00, 0x8C, 0x7A, 0x00, 0x00, 0x88, 0x7A, 0x00, 0x00,
  0x7C, 0x79, 0x00, 0x00, 0xB8, 0x78, 0x00, 0x00, 0x28, 0x78,
  0x00, 0x00, 0xB0, 0x77, 0x00, 0x00, 0x34, 0x5B, 0x00, 0x00,
  0xAC, 0x3E, 0x00, 0x00, 0x04, 0x06, 0x00, 0x00, 0x68, 0x7A,
  0x00, 0x00, 0x64, 0x7A, 0x00, 0x00, 0x60, 0x7A, 0x00, 0x00,
  0x5C, 0x7A, 0x00, 0x00, 0x58, 0x7A, 0x00, 0x00, 0x54, 0x7A,
  0x00, 0x00, 0x38, 0x00, 0x00, 0x00, 0x01, 0x00, 0x00, 0x00,
  0x0C, 0x00, 0x00, 0x00, 0x08, 0x00, 0x0C, 0x00, 0x04, 0x00,
  0x08, 0x00, 0x08, 0x00, 0x00, 0x00, 0x08, 0x00, 0x00, 0x00,
  0x0F, 0x00, 0x00, 0x00, 0x13, 0x00, 0x00, 0x00, 0x6D, 0x69,
  0x6E, 0x5F, 0x72, 0x75, 0x6E, 0x74, 0x69, 0x6D, 0x65, 0x5F,
  0x76, 0x65, 0x72, 0x73, 0x69, 0x6F, 0x6E, 0x00, 0xF6, 0x86,
  0xFF, 0xFF, 0x04, 0x00, 0x00, 0x00, 0x10, 0x00, 0x00, 0x00,
  0x31, 0x2E, 0x35, 0x2E, 0x30, 0x00, 0x00, 0x00, 0x00, 0x00,
  0x00, 0x00, 0x00, 0x00, 0x00, 0x00, 0x0F, 0x00, 0x00, 0x00,
  0x4D, 0x4C, 0x49, 0x52, 0x20, 0x43, 0x6F, 0x6E, 0x76, 0x65,
  0x72, 0x74, 0x65, 0x64, 0x2E, 0x00, 0x00, 0x00, 0x0E, 0x00,
  0x18, 0x00, 0x04, 0x00, 0x08, 0x00, 0x0C, 0x00, 0x10, 0x00,
  0x14, 0x00, 0x0E, 0x00, 0x00, 0x00, 0x14, 0x00, 0x00, 0x00,
  0x4C, 0x00, 0x00, 0x00, 0x50, 0x00, 0x00, 0x00, 0x58, 0x00,
  0x00, 0x00, 0x70, 0x00, 0x00, 0x00, 0x0E, 0x00, 0x00, 0x00,
  0x80, 0x79, 0x00, 0x00, 0x0C, 0x79, 0x00, 0x00, 0x48, 0x78,
  0x00, 0x00, 0x90, 0x77, 0x00, 0x00, 0x08, 0x77, 0x00, 0x00,
  0x94, 0x76, 0x00, 0x00, 0x0C, 0x5A, 0x00, 0x00, 0x84, 0x3D,
  0x00, 0x00, 0x3C, 0x04, 0x00, 0x00, 0xF4, 0x02, 0x00, 0x00,
  0x54, 0x02, 0x00, 0x00, 0x94, 0x01, 0x00, 0x00, 0x04, 0x01,
  0x00, 0x00, 0x7C, 0x00, 0x00, 0x00, 0x01, 0x00, 0x00, 0x00,
  0x00, 0x00, 0x00, 0x00, 0x02, 0x00, 0x00, 0x00, 0x0D, 0x00,
  0x00, 0x00, 0x0D, 0x00, 0x00, 0x00, 0x06, 0x00, 0x00, 0x00,
  0xAC, 0x03, 0x00, 0x00, 0x88, 0x02, 0x00, 0x00, 0xC8, 0x01,
  0x00, 0x00, 0x34, 0x01, 0x00, 0x00, 0x94, 0x00, 0x00, 0x00,
  0x10, 0x00, 0x00, 0x00, 0x04, 0x00, 0x00, 0x00, 0x6D, 0x61,
  0x69, 0x6E, 0x00, 0x00, 0x00, 0x00, 0x8E, 0xFF, 0xFF, 0xFF,
  0x00, 0x00, 0x00, 0x09, 0x04, 0x00, 0x00, 0x00, 0x1C, 0x00,
  0x00, 0x00, 0x10, 0x00, 0x00, 0x00, 0x04, 0x00, 0x00, 0x00,
  0xDE, 0x87, 0xFF, 0xFF, 0x00, 0x00, 0x80, 0x3F, 0x01, 0x00,
  0x00, 0x00, 0x0D, 0x00, 0x00, 0x00, 0x01, 0x00, 0x00, 0x00,
  0x0C, 0x00, 0x00, 0x00, 0x5E, 0xFC, 0xFF, 0xFF, 0x00, 0x00,
  0x00, 0x19, 0x01, 0x00, 0x00, 0x00, 0x3E, 0x87, 0xFF, 0xFF,
  0x10, 0x00, 0x00, 0x00, 0x0E, 0x00, 0x00, 0x00, 0x14, 0x00,
  0x00, 0x00, 0x20, 0x00, 0x00, 0x00, 0x02, 0x00, 0x00, 0x00,
  0x01, 0x00, 0x00, 0x00, 0x0A, 0x00, 0x00, 0x00, 0x08, 0x00,
  0x00, 0x00, 0x49, 0x64, 0x65, 0x6E, 0x74, 0x69, 0x74, 0x79,
  0x00, 0x00, 0x00, 0x00, 0x78, 0x87, 0xFF, 0xFF, 0x00, 0x00,
  0x0E, 0x00, 0x18, 0x00, 0x08, 0x00, 0x0C, 0x00, 0x10, 0x00,
  0x07, 0x00, 0x14, 0x00, 0x0E, 0x00, 0x00, 0x00, 0x00, 0x00,
  0x00, 0x08, 0x03, 0x00, 0x00, 0x00, 0x18, 0x00, 0x00, 0x00,
  0x0C, 0x00, 0x00, 0x00, 0x04, 0x00, 0x00, 0x00, 0x54, 0x87,
  0xFF, 0xFF, 0x01, 0x00, 0x00, 0x00, 0x0C, 0x00, 0x00, 0x00,
  0x03, 0x00, 0x00, 0x00, 0x0B, 0x00, 0x00, 0x00, 0x05, 0x00,
  0x00, 0x00, 0x03, 0x00, 0x00, 0x00, 0xE2, 0xFC, 0xFF, 0xFF,
  0x00, 0x00, 0x00, 0x09, 0x01, 0x00, 0x00, 0x00, 0xC2, 0x87,
  0xFF, 0xFF, 0x10, 0x00, 0x00, 0x00, 0x0D, 0x00, 0x00, 0x00,
  0x14, 0x00, 0x00, 0x00, 0x3C, 0x00, 0x00, 0x00, 0x02, 0x00,
  0x00, 0x00, 0x01, 0x00, 0x00, 0x00, 0x0A, 0x00, 0x00, 0x00,
  0x24, 0x00, 0x00, 0x00, 0x6D, 0x6F, 0x64, 0x65, 0x6C, 0x5F,
  0x31, 0x31, 0x2F, 0x62, 0x61, 0x73, 0x65, 0x5F, 0x6D, 0x6F,
  0x64, 0x65, 0x6C, 0x33, 0x2F, 0x64, 0x65, 0x6E, 0x73, 0x65,
  0x5F, 0x32, 0x2F, 0x42, 0x69, 0x61, 0x73, 0x41, 0x64, 0x64,
  0x00, 0x00, 0x00, 0x00, 0x18, 0x88, 0xFF, 0xFF, 0x00, 0x00,
  0x0A, 0x00, 0x10, 0x00, 0x04, 0x00, 0x08, 0x00, 0x0C, 0x00,
  0x0A, 0x00, 0x00, 0x00, 0x02, 0x00, 0x00, 0x00, 0x10, 0x00,
  0x00, 0x00, 0x04, 0x00, 0x00, 0x00, 0x01, 0x00, 0x00, 0x00,
  0x0B, 0x00, 0x00, 0x00, 0x02, 0x00, 0x00, 0x00, 0x0A, 0x00,
  0x00, 0x00, 0x04, 0x00, 0x00, 0x00, 0x6E, 0xFD, 0xFF, 0xFF,
  0x00, 0x00, 0x00, 0x16, 0x01, 0x00, 0x00, 0x00, 0x4E, 0x88,
  0xFF, 0xFF, 0x10, 0x00, 0x00, 0x00, 0x0C, 0x00, 0x00, 0x00,
  0x14, 0x00, 0x00, 0x00, 0x3C, 0x00, 0x00, 0x00, 0x02, 0x00,
  0x00, 0x00, 0x01, 0x00, 0x00, 0x00, 0xB4, 0x00, 0x00, 0x00,
  0x26, 0x00, 0x00, 0x00, 0x6D, 0x6F, 0x64, 0x65, 0x6C, 0x5F,
  0x31, 0x31, 0x2F, 0x62, 0x61, 0x73, 0x65, 0x5F, 0x6D, 0x6F,
  0x64, 0x65, 0x6C, 0x33, 0x2F, 0x66, 0x6C, 0x61, 0x74, 0x74,
  0x65, 0x6E, 0x5F, 0x32, 0x2F, 0x52, 0x65, 0x73, 0x68, 0x61,
  0x70, 0x65, 0x00, 0x00, 0xA4, 0x88, 0xFF, 0xFF, 0x00, 0x00,
  0x0E, 0x00, 0x1A, 0x00, 0x08, 0x00, 0x0C, 0x00, 0x10, 0x00,
  0x07, 0x00, 0x14, 0x00, 0x0E, 0x00, 0x00, 0x00, 0x00, 0x00,
  0x00, 0x05, 0x01, 0x00, 0x00, 0x00, 0x3C, 0x00, 0x00, 0x00,
  0x30, 0x00, 0x00, 0x00, 0x14, 0x00, 0x00, 0x00, 0x00, 0x00,
  0x0E, 0x00, 0x18, 0x00, 0x17, 0x00, 0x10, 0x00, 0x0C, 0x00,
  0x08, 0x00, 0x04, 0x00, 0x0E, 0x00, 0x00, 0x00, 0x02, 0x00,
  0x00, 0x00, 0x02, 0x00, 0x00, 0x00, 0x02, 0x00, 0x00, 0x00,
  0x02, 0x00, 0x00, 0x00, 0x00, 0x00, 0x00, 0x01, 0x01, 0x00,
  0x00, 0x00, 0x0A, 0x00, 0x00, 0x00, 0x01, 0x00, 0x00, 0x00,
  0x09, 0x00, 0x00, 0x00, 0x2A, 0xFE, 0xFF, 0xFF, 0x00, 0x00,
  0x00, 0x11, 0x01, 0x00, 0x00, 0x00, 0x0A, 0x89, 0xFF, 0xFF,
  0x10, 0x00, 0x00, 0x00, 0x0B, 0x00, 0x00, 0x00, 0x1C, 0x00,
  0x00, 0x00, 0x4C, 0x00, 0x00, 0x00, 0x04, 0x00, 0x00, 0x00,
  0x01, 0x00, 0x00, 0x00, 0x03, 0x00, 0x00, 0x00, 0x03, 0x00,
  0x00, 0x00, 0x14, 0x00, 0x00, 0x00, 0x2C, 0x00, 0x00, 0x00,
  0x6D, 0x6F, 0x64, 0x65, 0x6C, 0x5F, 0x31, 0x31, 0x2F, 0x62,
  0x61, 0x73, 0x65, 0x5F, 0x6D, 0x6F, 0x64, 0x65, 0x6C, 0x33,
  0x2F, 0x6D, 0x61, 0x78, 0x5F, 0x70, 0x6F, 0x6F, 0x6C, 0x69,
  0x6E, 0x67, 0x32, 0x64, 0x5F, 0x34, 0x2F, 0x4D, 0x61, 0x78,
  0x50, 0x6F, 0x6F, 0x6C, 0x00, 0x00, 0x00, 0x00, 0x20, 0x89,
  0xFF, 0xFF, 0xEE, 0xFE, 0xFF, 0xFF, 0x00, 0x00, 0x00, 0x01,
  0x24, 0x00, 0x00, 0x00, 0x18, 0x00, 0x00, 0x00, 0x04, 0x00,
  0x00, 0x00, 0xE0, 0xFE, 0xFF, 0xFF, 0x01, 0x00, 0x00, 0x00,
  0x01, 0x00, 0x00, 0x00, 0x00, 0x00, 0x00, 0x01, 0x01, 0x00,
  0x00, 0x00, 0x09, 0x00, 0x00, 0x00, 0x03, 0x00, 0x00, 0x00,
  0x08, 0x00, 0x00, 0x00, 0x07, 0x00, 0x00, 0x00, 0x02, 0x00,
  0x00, 0x00, 0xA6, 0x89, 0xFF, 0xFF, 0x10, 0x00, 0x00, 0x00,
  0x0A, 0x00, 0x00, 0x00, 0x1C, 0x00, 0x00, 0x00, 0xC0, 0x00,
  0x00, 0x00, 0x04, 0x00, 0x00, 0x00, 0x01, 0x00, 0x00, 0x00,
  0x07, 0x00, 0x00, 0x00, 0x07, 0x00, 0x00, 0x00, 0x14, 0x00,
  0x00, 0x00, 0xA2, 0x00, 0x00, 0x00, 0x6D, 0x6F, 0x64, 0x65,
  0x6C, 0x5F, 0x31, 0x31, 0x2F, 0x62, 0x61, 0x73, 0x65, 0x5F,
  0x6D, 0x6F, 0x64, 0x65, 0x6C, 0x33, 0x2F, 0x63, 0x6F, 0x6E,
  0x76, 0x32, 0x64, 0x5F, 0x35, 0x2F, 0x52, 0x65, 0x6C, 0x75,
  0x3B, 0x6D, 0x6F, 0x64, 0x65, 0x6C, 0x5F, 0x31, 0x31, 0x2F,
  0x62, 0x61, 0x73, 0x65, 0x5F, 0x6D, 0x6F, 0x64, 0x65, 0x6C,
  0x33, 0x2F, 0x63, 0x6F, 0x6E, 0x76, 0x32, 0x64, 0x5F, 0x35,
  0x2F, 0x42, 0x69, 0x61, 0x73, 0x41, 0x64, 0x64, 0x3B, 0x6D,
  0x6F, 0x64, 0x65, 0x6C, 0x5F, 0x31, 0x31, 0x2F, 0x62, 0x61,
  0x73, 0x65, 0x5F, 0x6D, 0x6F, 0x64, 0x65, 0x6C, 0x33, 0x2F,
  0x63, 0x6F, 0x6E, 0x76, 0x32, 0x64, 0x5F, 0x35, 0x2F, 0x43,
  0x6F, 0x6E, 0x76, 0x32, 0x44, 0x3B, 0x6D, 0x6F, 0x64, 0x65,
  0x6C, 0x5F, 0x31, 0x31, 0x2F, 0x62, 0x61, 0x73, 0x65, 0x5F,
  0x6D, 0x6F, 0x64, 0x65, 0x6C, 0x33, 0x2F, 0x63, 0x6F, 0x6E,
  0x76, 0x32, 0x64, 0x5F, 0x35, 0x2F, 0x42, 0x69, 0x61, 0x73,
  0x41, 0x64, 0x64, 0x2F, 0x52, 0x65, 0x61, 0x64, 0x56, 0x61,
  0x72, 0x69, 0x61, 0x62, 0x6C, 0x65, 0x4F, 0x70, 0x00, 0x00,
  0x80, 0x8A, 0xFF, 0xFF, 0x00, 0x00, 0x0E, 0x00, 0x14, 0x00,
  0x00, 0x00, 0x08, 0x00, 0x0C, 0x00, 0x07, 0x00, 0x10, 0x00,
  0x0E, 0x00, 0x00, 0x00, 0x00, 0x00, 0x00, 0x01, 0x30, 0x00,
  0x00, 0x00, 0x24, 0x00, 0x00, 0x00, 0x10, 0x00, 0x00, 0x00,
  0x0C, 0x00, 0x10, 0x00, 0x00, 0x00, 0x04, 0x00, 0x08, 0x00,
  0x0F, 0x00, 0x0C, 0x00, 0x00, 0x00, 0x01, 0x00, 0x00, 0x00,
  0x01, 0x00, 0x00, 0x00, 0x00, 0x00, 0x00, 0x01, 0x01, 0x00,
  0x00, 0x00, 0x08, 0x00, 0x00, 0x00, 0x03, 0x00, 0x00, 0x00,
  0x00, 0x00, 0x00, 0x00, 0x06, 0x00, 0x00, 0x00, 0x01, 0x00,
  0x00, 0x00, 0x00, 0x00, 0x0A, 0x00, 0x0C, 0x00, 0x07, 0x00,
  0x00, 0x00, 0x08, 0x00, 0x0A, 0x00, 0x00, 0x00, 0x00, 0x00,
  0x00, 0x03, 0x01, 0x00, 0x00, 0x00, 0xEA, 0x8A, 0xFF, 0xFF,
  0x10, 0x00, 0x00, 0x00, 0x09, 0x00, 0x00, 0x00, 0x1C, 0x00,
  0x00, 0x00, 0xE4, 0x00, 0x00, 0x00, 0x04, 0x00, 0x00, 0x00,
  0x01, 0x00, 0x00, 0x00, 0x07, 0x00, 0x00, 0x00, 0x07, 0x00,
  0x00, 0x00, 0x14, 0x00, 0x00, 0x00, 0xC7, 0x00, 0x00, 0x00,
  0x6D, 0x6F, 0x64, 0x65, 0x6C, 0x5F, 0x31, 0x31, 0x2F, 0x62,
  0x61, 0x73, 0x65, 0x5F, 0x6D, 0x6F, 0x64, 0x65, 0x6C, 0x33,
  0x2F, 0x63, 0x6F, 0x6E, 0x76, 0x32, 0x64, 0x5F, 0x34, 0x2F,
  0x52, 0x65, 0x6C, 0x75, 0x3B, 0x6D, 0x6F, 0x64, 0x65, 0x6C,
  0x5F, 0x31, 0x31, 0x2F, 0x62, 0x61, 0x73, 0x65, 0x5F, 0x6D,
  0x6F, 0x64, 0x65, 0x6C, 0x33, 0x2F, 0x63, 0x6F, 0x6E, 0x76,
  0x32, 0x64, 0x5F, 0x34, 0x2F, 0x42, 0x69, 0x61, 0x73, 0x41,
  0x64, 0x64, 0x3B, 0x6D, 0x6F, 0x64, 0x65, 0x6C, 0x5F, 0x31,
  0x31, 0x2F, 0x62, 0x61, 0x73, 0x65, 0x5F, 0x6D, 0x6F, 0x64,
  0x65, 0x6C, 0x33, 0x2F, 0x63, 0x6F, 0x6E, 0x76, 0x32, 0x64,
  0x5F, 0x35, 0x2F, 0x43, 0x6F, 0x6E, 0x76, 0x32, 0x44, 0x3B,
  0x6D, 0x6F, 0x64, 0x65, 0x6C, 0x5F, 0x31, 0x31, 0x2F, 0x62,
  0x61, 0x73, 0x65, 0x5F, 0x6D, 0x6F, 0x64, 0x65, 0x6C, 0x33,
  0x2F, 0x63, 0x6F, 0x6E, 0x76, 0x32, 0x64, 0x5F, 0x34, 0x2F,
  0x43, 0x6F, 0x6E, 0x76, 0x32, 0x44, 0x3B, 0x6D, 0x6F, 0x64,
  0x65, 0x6C, 0x5F, 0x31, 0x31, 0x2F, 0x62, 0x61, 0x73, 0x65,
  0x5F, 0x6D, 0x6F, 0x64, 0x65, 0x6C, 0x33, 0x2F, 0x63, 0x6F,
  0x6E, 0x76, 0x32, 0x64, 0x5F, 0x34, 0x2F, 0x42, 0x69, 0x61,
  0x73, 0x41, 0x64, 0x64, 0x2F, 0x52, 0x65, 0x61, 0x64, 0x56,
  0x61, 0x72, 0x69, 0x61, 0x62, 0x6C, 0x65, 0x4F, 0x70, 0x00,
  0x98, 0x8B, 0xFF, 0xFF, 0xA6, 0x8C, 0xFF, 0xFF, 0x04, 0x00,
  0x00, 0x00, 0x40, 0x38, 0x00, 0x00, 0x00, 0x00, 0x00, 0x80,
  0x00, 0x00, 0x00, 0x00, 0xB6, 0x35, 0x40, 0xBE, 0xDA, 0xC4,
  0x31, 0xBD, 0x2E, 0x02, 0xE4, 0x3D, 0x00, 0x00, 0x00, 0x80,
  0x98, 0x44, 0xA6, 0x3C, 0x00, 0x00, 0x00, 0x80, 0x90, 0xB4,
  0x8E, 0xBD, 0x00, 0x00, 0x00, 0x00, 0x00, 0x00, 0x00, 0x00,
  0x10, 0x74, 0xF3, 0x3D, 0x00, 0x00, 0x00, 0x00, 0x0F, 0x26,
  0x04, 0x3E, 0xBB, 0x2A, 0xCD, 0x3D, 0x00, 0x00, 0x00, 0x80,
  0x52, 0x6D, 0xFB, 0x3D, 0x77, 0x10, 0x59, 0xBE, 0x00, 0x00,
  0x00, 0x00, 0x00, 0x00, 0x00, 0x00, 0x02, 0xAD, 0xD8, 0x3D,
  0x00, 0x00, 0x00, 0x00, 0x00, 0x00, 0x00, 0x00, 0xC9, 0x76,
  0xA1, 0xBD, 0x00, 0x00, 0x00, 0x80, 0x01, 0x08, 0xA4, 0x3D,
  0x5B, 0x6A, 0x45, 0xBE, 0x00, 0x00, 0x00, 0x80, 0x00, 0x00,
  0x00, 0x80, 0x88, 0x40, 0x04, 0x3E, 0xEB, 0xFA, 0x1C, 0x3E,
  0x00, 0x00, 0x00, 0x00, 0x00, 0x00, 0x00, 0x80, 0x68, 0x67,
  0xE4, 0x3D, 0x52, 0x56, 0x3E, 0x3E, 0x00, 0x00, 0x00, 0x00,
  0x00, 0x00, 0x00, 0x80, 0xD7, 0x35, 0x1F, 0xBE, 0x00, 0x00,
  0x00, 0x00, 0x0D, 0x5F, 0x21, 0x3E, 0x00, 0x00, 0x00, 0x00,
  0x00, 0x00, 0x00, 0x80, 0x68, 0xA5, 0x06, 0xBE, 0xA5, 0x39,
  0xB9, 0x3D, 0x00, 0x00, 0x00, 0x80, 0x00, 0x00, 0x00, 0x80,
  0xA3, 0x88, 0xD2, 0x3D, 0x35, 0xB6, 0xA0, 0xBD, 0x00, 0x00,
  0x00, 0x80, 0xEA, 0xC9, 0x03, 0x3E, 0x00, 0x00, 0x00, 0x80,
  0x4E, 0xD9, 0xBB, 0xBD, 0xD0, 0x55, 0xDF, 0x3D, 0x44, 0x4C,
  0x7E, 0xBD, 0x00, 0x00, 0x00, 0x80, 0x00, 0x00, 0x00, 0x80,
  0x57, 0x57, 0x36, 0x3D, 0x00, 0x00, 0x00, 0x00, 0x00, 0x00,
  0x00, 0x00, 0x4F, 0x05, 0xB3, 0x3D, 0x93, 0x55, 0x10, 0x3E,
  0x2E, 0x70, 0xAA, 0x3D, 0x00, 0x00, 0x00, 0x80, 0x00, 0x00,
  0x00, 0x00, 0x7C, 0x9A, 0x27, 0x3E, 0x00, 0x00, 0x00, 0x80,
  0x33, 0x03, 0xA5, 0xBD, 0x00, 0x00, 0x00, 0x00, 0x00, 0x00,
  0x00, 0x80, 0x00, 0x00, 0x00, 0x00, 0xE2, 0x93, 0x58, 0xBE,
  0xB9, 0x2C, 0x88, 0xBE, 0x00, 0x00, 0x00, 0x00, 0x00, 0x00,
  0x00, 0x00, 0x1D, 0x48, 0x55, 0xBE, 0xB9, 0x0D, 0x12, 0x3D,
  0x00, 0x00, 0x00, 0x80, 0x00, 0x00, 0x00, 0x00, 0x67, 0x41,
  0x1E, 0x3E, 0x58, 0x2D, 0xD6, 0x3D, 0x10, 0xEC, 0x35, 0xBE,
  0xBD, 0x27, 0x4A, 0xBD, 0x00, 0x00, 0x00, 0x80, 0x00, 0x00,
  0x00, 0x00, 0x00, 0x00, 0x00, 0x80, 0x06, 0x31, 0x0B, 0xBE,
  0x51, 0xAD, 0x8B, 0xBD, 0x00, 0x00, 0x00, 0x80, 0x00, 0x00,
  0x00, 0x80, 0x6B, 0x04, 0x93, 0x3D, 0x36, 0xF1, 0xE4, 0x3D,
  0x00, 0x00, 0x00, 0x00, 0x00, 0x00, 0x00, 0x80, 0x88, 0x83,
  0x0C, 0x3E, 0x00, 0x00, 0x00, 0x00, 0x7A, 0x21, 0x84, 0x3D,
  0xD6, 0xA4, 0xC3, 0x3D, 0x00, 0x00, 0x00, 0x00, 0xFC, 0x40,
  0x2E, 0xBE, 0x00, 0x00, 0x00, 0x00, 0x00, 0x00, 0x00, 0x80,
  0x26, 0xAB, 0xCD, 0x3D, 0xD6, 0x42, 0xF2, 0xBD, 0x00, 0x00,
  0x00, 0x80, 0x00, 0x00, 0x00, 0x80, 0xC7, 0x43, 0x3F, 0xBE,
  0x00, 0x00, 0x00, 0x80, 0x46, 0x12, 0xB0, 0x3D, 0xDD, 0x99,
  0xDF, 0xBD, 0x00, 0x00, 0x00, 0x00, 0x00, 0x00, 0x00, 0x80,
  0xED, 0x08, 0xFA, 0xBD, 0xBF, 0xDC, 0x2E, 0xBE, 0x00, 0x00,
  0x00, 0x80, 0x00, 0x00, 0x00, 0x00, 0xCB, 0xB0, 0x51, 0xBE,
  0x33, 0x4A, 0xC3, 0xBD, 0x00, 0x00, 0x00, 0x00, 0xC3, 0xD3,
  0xF8, 0xBD, 0x00, 0x00, 0x00, 0x00, 0x00, 0x00, 0x00, 0x00,
  0x00, 0x00, 0x00, 0x00, 0xC9, 0x50, 0xF9, 0x3D, 0x5F, 0xC8,
  0x15, 0x3E, 0x3C, 0xE3, 0xD9, 0x3D, 0x00, 0x00, 0x00, 0x00,
  0xAD, 0x55, 0xD0, 0xBD, 0x00, 0x00, 0x00, 0x80, 0x00, 0x00,
  0x00, 0x80, 0x00, 0x00, 0x00, 0x00, 0x20, 0x19, 0x06, 0x3E,
  0x72, 0xB9, 0xA0, 0xBE, 0x0F, 0xF2, 0xC1, 0x3D, 0x00, 0x00,
  0x00, 0x00, 0x00, 0x00, 0x00, 0x00, 0xD9, 0x75, 0xF3, 0x3D,
  0x31, 0xC8, 0x18, 0x3E, 0x00, 0x00, 0x00, 0x00, 0x01, 0x02,
  0x7E, 0xBD, 0x00, 0x00, 0x00, 0x00, 0x00, 0x00, 0x00, 0x80,
  0xE9, 0x05, 0xFB, 0x3D, 0xF3, 0x5B, 0x04, 0x3E, 0x00, 0x00,
  0x00, 0x80, 0x2F, 0xA4, 0xE0, 0xBD, 0x00, 0x00, 0x00, 0x80,
  0x00, 0x00, 0x00, 0x80, 0x5C, 0x88, 0x0E, 0x3E, 0xE5, 0xC6,
  0xEE, 0xBD, 0x00, 0x00, 0x00, 0x00, 0x41, 0xED, 0x1E, 0x3D,
  0x00, 0x00, 0x00, 0x00, 0x05, 0x55, 0x42, 0xBD, 0x00, 0x00,
  0x00, 0x00, 0x6E, 0x2E, 0x95, 0xBD, 0x00, 0x00, 0x00, 0x80,
  0x00, 0x00, 0x00, 0x80, 0x0F, 0x3B, 0x19, 0xBE, 0x7C, 0x88,
  0x30, 0x3E, 0x00, 0x00, 0x00, 0x00, 0x00, 0x00, 0x00, 0x80,
  0x00, 0x00, 0x00, 0x00, 0x4E, 0x15, 0xF5, 0xBD, 0x5A, 0xF3,
  0x34, 0x3E, 0x52, 0xC4, 0x80, 0x3D, 0x00, 0x00, 0x00, 0x80,
  0xF2, 0xBC, 0x0A, 0x3E, 0x00, 0x00, 0x00, 0x80, 0x04, 0xBF,
  0xB9, 0xBD, 0x00, 0x00, 0x00, 0x00, 0x00, 0x00, 0x00, 0x00,
  0x23, 0xB4, 0x04, 0x3E, 0x48, 0x79, 0x20, 0xBE, 0x01, 0x3F,
  0xE1, 0x3D, 0x00, 0x00, 0x00, 0x00, 0x00, 0x00, 0x00, 0x80,
  0xA5, 0x1E, 0x8C, 0x3D, 0x15, 0xE4, 0xA2, 0xBC, 0x00, 0x00,
  0x00, 0x80, 0x00, 0x00, 0x00, 0x80, 0x00, 0x00, 0x00, 0x80,
  0x00, 0x00, 0x00, 0x80, 0x12, 0xEE, 0x98, 0x3D, 0x4C, 0x21,
  0x50, 0x3E, 0x00, 0x00, 0x00, 0x80, 0x00, 0x00, 0x00, 0x80,
  0xBC, 0x78, 0x24, 0x3B, 0x19, 0x98, 0x28, 0xBE, 0x15, 0x77,
  0x59, 0xBE, 0xF0, 0x2B, 0xDC, 0x3D, 0x00, 0x00, 0x00, 0x80,
  0x00, 0x00, 0x00, 0x80, 0x22, 0xC5, 0x67, 0x3D, 0x7D, 0xF1,
  0xF5, 0x3D, 0x00, 0x00, 0x00, 0x80, 0x00, 0x00, 0x00, 0x00,
  0x00, 0x00, 0x00, 0x80, 0x00, 0x00, 0x00, 0x00, 0xA1, 0xB0,
  0xD4, 0xBD, 0x20, 0x38, 0xA9, 0xBD, 0x00, 0x00, 0x00, 0x00,
  0xB8, 0xDF, 0xB3, 0x3D, 0x00, 0x00, 0x00, 0x00, 0xB1, 0xB0,
  0x27, 0x3E, 0x00, 0x00, 0x00, 0x00, 0x00, 0x00, 0x00, 0x80,
  0x9C, 0x05, 0xE4, 0xBD, 0x8C, 0x6E, 0xA3, 0x3C, 0x00, 0x00,
  0x00, 0x00, 0x38, 0x1F, 0xA0, 0x3D, 0x92, 0x50, 0x52, 0x3D,
  0x00, 0x00, 0x00, 0x00, 0x5F, 0x20, 0x3E, 0x3D, 0x00, 0x00,
  0x00, 0x00, 0xDF, 0xDE, 0xC5, 0x3D, 0x00, 0x00, 0x00, 0x00,
  0x00, 0x00, 0x00, 0x80, 0x00, 0x00, 0x00, 0x80, 0x8D, 0x95,
  0x73, 0xBD, 0x7A, 0x51, 0x10, 0x3E, 0xE3, 0x83, 0x4A, 0xBE,
  0x00, 0x00, 0x00, 0x80, 0x14, 0xB7, 0x0D, 0xBE, 0x00, 0x00,
  0x00, 0x80, 0x00, 0x00, 0x00, 0x00, 0x94, 0xC7, 0xCB, 0xBD,
  0x00, 0x00, 0x00, 0x00, 0xA9, 0x1C, 0x14, 0xBE, 0x00, 0x00,
  0x00, 0x00, 0x5E, 0x01, 0x86, 0x3D, 0x00, 0x00, 0x00, 0x80,
  0x49, 0xD4, 0x18, 0xBD, 0x6B, 0xB1, 0x50, 0xBE, 0x00, 0x00,
  0x00, 0x80, 0x00, 0x00, 0x00, 0x80, 0x28, 0xE5, 0x0A, 0xBE,
  0x57, 0xF0, 0x16, 0x3E, 0x00, 0x00, 0x00, 0x80, 0x42, 0xF0,
  0xBA, 0xBD, 0x00, 0x00, 0x00, 0x80, 0x00, 0x00, 0x00, 0x00,
  0x25, 0x6C, 0xDF, 0x3D, 0x00, 0x00, 0x00, 0x00, 0x4A, 0xFB,
  0x6C, 0x3D, 0x00, 0x00, 0x00, 0x00, 0xAD, 0x1E, 0x0B, 0xBD,
  0x1F, 0x07, 0x5C, 0x3D, 0x00, 0x00, 0x00, 0x80, 0x00, 0x00,
  0x00, 0x00, 0x64, 0xF5, 0x2C, 0xBD, 0x00, 0x00, 0x00, 0x80,
  0xDD, 0xBE, 0x30, 0xBC, 0x00, 0x00, 0x00, 0x00, 0x3C, 0x7E,
  0xDD, 0x3D, 0x00, 0x00, 0x00, 0x00, 0xB6, 0x25, 0xFF, 0x3D,
  0x19, 0xD1, 0x5E, 0xBD, 0x6C, 0x19, 0xD1, 0xBD, 0x00, 0x00,
  0x00, 0x80, 0x00, 0x00, 0x00, 0x80, 0x5F, 0x11, 0xB0, 0x3D,
  0x2B, 0x10, 0x04, 0x3E, 0x00, 0x00, 0x00, 0x80, 0x00, 0x00,
  0x00, 0x00, 0x00, 0x00, 0x00, 0x80, 0xFA, 0x73, 0xA2, 0xBD,
  0xE4, 0x45, 0xA3, 0x3D, 0x00, 0x00, 0x00, 0x00, 0x00, 0x00,
  0x00, 0x00, 0x7B, 0x3B, 0xF7, 0x3D, 0x31, 0x75, 0xC5, 0xBD,
  0x00, 0x00, 0x00, 0x00, 0x00, 0x00, 0x00, 0x00, 0x00, 0x00,
  0x00, 0x80, 0x41, 0x4D, 0xEC, 0x3D, 0x4E, 0x18, 0x35, 0x3D,
  0x58, 0x8A, 0xFC, 0x3D, 0x54, 0x6B, 0x04, 0xBE, 0x00, 0x00,
  0x00, 0x80, 0x00, 0x00, 0x00, 0x80, 0x03, 0xA9, 0x3A, 0xBD,
  0x00, 0x00, 0x00, 0x80, 0xC9, 0x5E, 0x84, 0xBD, 0x00, 0x00,
  0x00, 0x00, 0x00, 0x00, 0x00, 0x80, 0x00, 0x00, 0x00, 0x00,
  0x5F, 0x9D, 0x36, 0x3E, 0x63, 0x69, 0xA5, 0x3D, 0x50, 0x8B,
  0xE4, 0x3D, 0x00, 0x00, 0x00, 0x00, 0x00, 0x00, 0x00, 0x00,
  0x2F, 0xDE, 0xA6, 0xBD, 0x00, 0x00, 0x00, 0x80, 0xA1, 0x25,
  0xF5, 0x3D, 0x8B, 0x53, 0xD6, 0xBC, 0x00, 0x00, 0x00, 0x00,
  0x00, 0x00, 0x00, 0x00, 0x7B, 0x0B, 0x42, 0xBE, 0xC0, 0x24,
  0x9E, 0xBD, 0x00, 0x00, 0x00, 0x00, 0x00, 0x00, 0x00, 0x80,
  0xDB, 0xB5, 0xBF, 0xBD, 0x2D, 0x01, 0xA8, 0x3D, 0x00, 0x00,
  0x00, 0x00, 0xE0, 0x2B, 0xCA, 0x3D, 0x62, 0x39, 0x0E, 0xBE,
  0x00, 0x00, 0x00, 0x80, 0x00, 0x00, 0x00, 0x00, 0x00, 0x00,
  0x00, 0x00, 0x88, 0xC1, 0x87, 0x3D, 0x25, 0xEB, 0x37, 0xBE,
  0x00, 0x00, 0x00, 0x80, 0x00, 0x00, 0x00, 0x80, 0x94, 0xA7,
  0x8A, 0xBD, 0x0F, 0xCE, 0x01, 0xBE, 0x00, 0x00, 0x00, 0x80,
  0x77, 0xA8, 0xBF, 0x3D, 0x20, 0x4E, 0xB4, 0xBD, 0x00, 0x00,
  0x00, 0x80, 0x00, 0x00, 0x00, 0x00, 0xD0, 0xB9, 0x07, 0xBE,
  0x00, 0x00, 0x00, 0x00, 0xBB, 0xA2, 0xFC, 0xBD, 0x00, 0x00,
  0x00, 0x00, 0x00, 0x00, 0x00, 0x80, 0x00, 0x00, 0x00, 0x00,
  0x7C, 0x6E, 0xDA, 0xBD, 0x99, 0x04, 0xFC, 0x3D, 0x47, 0xB4,
  0x84, 0x3D, 0x0F, 0x03, 0x00, 0x3E, 0x00, 0x00, 0x00, 0x00,
  0x00, 0x00, 0x00, 0x80, 0x1E, 0xA4, 0x19, 0xBE, 0x00, 0x00,
  0x00, 0x80, 0x8B, 0x77, 0x4C, 0x3D, 0x00, 0x00, 0x00, 0x80,
  0x2C, 0xE4, 0x05, 0xBE, 0x00, 0x00, 0x00, 0x00, 0x00, 0x00,
  0x00, 0x80, 0x45, 0x7F, 0xE9, 0x3D, 0x00, 0x00, 0x00, 0x80,
  0x00, 0x00, 0x00, 0x80, 0xA3, 0x9B, 0x27, 0xBE, 0x85, 0x66,
  0x0B, 0x3E, 0x07, 0x10, 0x80, 0x3D, 0x00, 0x00, 0x00, 0x00,
  0x91, 0xC9, 0xA1, 0x3D, 0x00, 0x00, 0x00, 0x00, 0x00, 0x00,
  0x00, 0x00, 0x00, 0x00, 0x00, 0x00, 0xF3, 0x7A, 0xE8, 0xBD,
  0x4B, 0x12, 0xBB, 0xBD, 0x00, 0x00, 0x00, 0x00, 0x44, 0x31,
  0xDE, 0x3D, 0x00, 0x00, 0x00, 0x00, 0x62, 0xAD, 0x06, 0x3E,
  0x00, 0x00, 0x00, 0x00, 0x18, 0x77, 0xCB, 0x3D, 0x00, 0x00,
  0x00, 0x00, 0xE0, 0x32, 0xA5, 0x3D, 0xBB, 0xB2, 0xB9, 0x3D,
  0x00, 0x00, 0x00, 0x00, 0x28, 0x10, 0xAD, 0xBD, 0x00, 0x00,
  0x00, 0x80, 0x00, 0x00, 0x00, 0x00, 0x60, 0x87, 0x3A, 0x3E,
  0x00, 0x00, 0x00, 0x00, 0x8A, 0x6E, 0x04, 0x3E, 0x00, 0x00,
  0x00, 0x00, 0x78, 0xD1, 0x34, 0xBE, 0x9A, 0xE1, 0xCE, 0xBD,
  0x00, 0x00, 0x00, 0x80, 0x21, 0x27, 0xCF, 0xBD, 0x00, 0x00,
  0x00, 0x00, 0x00, 0x00, 0x00, 0x00, 0x6D, 0x41, 0x8D, 0x3D,
  0x00, 0x00, 0x00, 0x00, 0x2C, 0x9B, 0x14, 0xBD, 0xDD, 0x8A,
  0xAB, 0xBD, 0x00, 0x00, 0x00, 0x80, 0x00, 0x00, 0x00, 0x80,
  0x4C, 0x42, 0x18, 0xBE, 0x00, 0x00, 0x00, 0x00, 0x9E, 0xB9,
  0xD5, 0x3D, 0x96, 0x7A, 0x8E, 0x3D, 0x00, 0x00, 0x00, 0x80,
  0xCC, 0xBE, 0x59, 0x3D, 0x00, 0x00, 0x00, 0x00, 0x55, 0x92,
  0x39, 0xBD, 0xD5, 0x81, 0x22, 0x3E, 0x00, 0x00, 0x00, 0x00,
  0x00, 0x00, 0x00, 0x80, 0x00, 0x00, 0x00, 0x00, 0x00, 0x00,
  0x00, 0x00, 0xC0, 0xBC, 0xF4, 0x3D, 0x01, 0xF1, 0xE6, 0xBD,
  0xB6, 0x3A, 0x0C, 0xBE, 0x00, 0x00, 0x00, 0x00, 0xD0, 0x9F,
  0x2C, 0x3E, 0x00, 0x00, 0x00, 0x00, 0x84, 0x5B, 0x17, 0x3E,
  0x59, 0xFB, 0x35, 0x3E, 0x00, 0x00, 0x00, 0x00, 0x00, 0x00,
  0x00, 0x00, 0x00, 0x00, 0x00, 0x00, 0xD8, 0xD0, 0x51, 0x3E,
  0x00, 0x00, 0x00, 0x80, 0x1A, 0x1D, 0xFE, 0x3D, 0x00, 0x00,
  0x00, 0x00, 0x00, 0x00, 0x00, 0x00, 0xE2, 0xD5, 0x08, 0xBE,
  0xCE, 0xCF, 0x2B, 0xBD, 0x00, 0x00, 0x00, 0x00, 0x00, 0x00,
  0x00, 0x80, 0xB0, 0x02, 0x28, 0x3E, 0x46, 0x13, 0x3A, 0x3E,
  0x00, 0x00, 0x00, 0x80, 0xC7, 0x1E, 0xA0, 0xBC, 0x00, 0x00,
  0x00, 0x80, 0x81, 0x65, 0x9A, 0x3D, 0x00, 0x00, 0x00, 0x00,
  0x00, 0x00, 0x00, 0x80, 0xAB, 0xB3, 0x9A, 0xBD, 0x60, 0x22,
  0x46, 0x3E, 0x00, 0x00, 0x00, 0x80, 0xBF, 0x50, 0xE1, 0xBD,
  0x7D, 0x94, 0x15, 0xBE, 0x00, 0x00, 0x00, 0x80, 0x2A, 0xD8,
  0x2D, 0xBE, 0xC1, 0x46, 0x49, 0xBE, 0x00, 0x00, 0x00, 0x80,
  0x00, 0x00, 0x00, 0x80, 0x00, 0x00, 0x00, 0x00, 0xFA, 0x3C,
  0x90, 0xBD, 0x00, 0x00, 0x00, 0x80, 0x5E, 0x29, 0x05, 0xBD,
  0x00, 0x00, 0x00, 0x80, 0x5B, 0xFC, 0xBE, 0x3D, 0x00, 0x00,
  0x00, 0x00, 0x0B, 0x45, 0xDB, 0x3D, 0x00, 0x00, 0x00, 0x00,
  0x20, 0xD5, 0x91, 0xBD, 0x00, 0x00, 0x00, 0x00, 0x3F, 0x02,
  0xD3, 0x3D, 0x0C, 0xA2, 0x1A, 0xBD, 0x00, 0x00, 0x00, 0x00,
  0x26, 0xC5, 0x43, 0xBD, 0x00, 0x00, 0x00, 0x00, 0xC8, 0x3F,
  0xCF, 0xBC, 0x83, 0x91, 0x75, 0x3D, 0x00, 0x00, 0x00, 0x80,
  0x00, 0x00, 0x00, 0x00, 0x00, 0x00, 0x00, 0x00, 0x00, 0x00,
  0x00, 0x80, 0xC5, 0xDE, 0xD3, 0x3D, 0xFF, 0xA7, 0xEB, 0xBD,
  0x00, 0x00, 0x00, 0x00, 0x55, 0x55, 0xE0, 0xBD, 0x00, 0x00,
  0x00, 0x00, 0x4A, 0xA3, 0x8A, 0xBD, 0x00, 0x00, 0x00, 0x80,
  0x00, 0x00, 0x00, 0x00, 0x80, 0xDA, 0x4B, 0x3D, 0x54, 0xEA,
  0xD8, 0x3D, 0x00, 0x00, 0x00, 0x80, 0x8B, 0xA8, 0x0A, 0x3E,
  0xC8, 0xB9, 0x74, 0xBD, 0x00, 0x00, 0x00, 0x00, 0x00, 0x00,
  0x00, 0x00, 0xE3, 0xBF, 0x0F, 0x3E, 0x7A, 0xF4, 0xF9, 0x3D,
  0x00, 0x00, 0x00, 0x80, 0x98, 0x98, 0x72, 0xBE, 0xBA, 0x4D,
  0xA0, 0xBD, 0x00, 0x00, 0x00, 0x00, 0x00, 0x00, 0x00, 0x80,
  0xDB, 0xC7, 0xE7, 0x3D, 0x5D, 0xF3, 0xDE, 0x3D, 0x00, 0x00,
  0x00, 0x80, 0x00, 0x00, 0x00, 0x00, 0x33, 0x2C, 0x40, 0xBE,
  0x82, 0xE5, 0xDA, 0x3D, 0x00, 0x00, 0x00, 0x80, 0x00, 0x00,
  0x00, 0x80, 0x43, 0xFB, 0xAB, 0x3D, 0x00, 0x00, 0x00, 0x80,
  0x00, 0x00, 0x00, 0x80, 0xB0, 0x64, 0x03, 0x3E, 0xF2, 0xE9,
  0x0C, 0xBE, 0x00, 0x00, 0x00, 0x00, 0xA5, 0xC9, 0x01, 0x3E,
  0x00, 0x00, 0x00, 0x80, 0x00, 0x00, 0x00, 0x80, 0x97, 0xA7,
  0xED, 0xBD, 0x00, 0x00, 0x00, 0x80, 0xDF, 0x14, 0xB5, 0xBD,
  0x00, 0x00, 0x00, 0x80, 0xEB, 0x64, 0x07, 0x3E, 0x00, 0x00,
  0x00, 0x80, 0x7C, 0x5F, 0x21, 0x3E, 0xA4, 0x39, 0x18, 0xBE,
  0x00, 0x00, 0x00, 0x80, 0x7D, 0x07, 0x26, 0x3D, 0x00, 0x00,
  0x00, 0x80, 0x00, 0x00, 0x00, 0x80, 0x41, 0xC6, 0x1C, 0xBE,
  0x00, 0x00, 0x00, 0x00, 0x26, 0x33, 0x2E, 0xBD, 0x00, 0x00,
  0x00, 0x00, 0x2F, 0x56, 0xA0, 0x3D, 0x00, 0x00, 0x00, 0x80,
  0xA8, 0xBB, 0x1D, 0xBE, 0x7B, 0xE4, 0xE8, 0xBD, 0x00, 0x00,
  0x00, 0x80, 0x00, 0x00, 0x00, 0x80, 0xEF, 0xF8, 0xD6, 0xBD,
  0x00, 0x00, 0x00, 0x00, 0x00, 0x00, 0x00, 0x80, 0xE1, 0x5F,
  0x29, 0x3E, 0xB8, 0xDB, 0xE5, 0x3D, 0x6D, 0x99, 0xBA, 0xBD,
  0xE0, 0x52, 0x1B, 0x3E, 0x00, 0x00, 0x00, 0x80, 0x00, 0x00,
  0x00, 0x00, 0x00, 0x00, 0x00, 0x00, 0x0C, 0xF1, 0xD0, 0xBD,
  0xD3, 0x1E, 0x2A, 0x3E, 0x00, 0x00, 0x00, 0x00, 0x32, 0xF6,
  0x16, 0x3D, 0x00, 0x00, 0x00, 0x80, 0x83, 0x58, 0x6E, 0xBD,
  0x00, 0x00, 0x00, 0x80, 0x00, 0x00, 0x00, 0x00, 0x86, 0xAF,
  0x82, 0xBD, 0x00, 0x00, 0x00, 0x80, 0xC7, 0x56, 0x64, 0x3D,
  0xF1, 0xDE, 0xF8, 0xBD, 0x00, 0x00, 0x00, 0x80, 0x00, 0x00,
  0x00, 0x00, 0xB8, 0xBE, 0xB1, 0x3D, 0x20, 0x98, 0xDB, 0xBD,
  0x00, 0x00, 0x00, 0x00, 0xE6, 0x65, 0x08, 0x3E, 0x00, 0x00,
  0x00, 0x80, 0x13, 0xEB, 0x77, 0xBD, 0x00, 0x00, 0x00, 0x80,
  0x45, 0x01, 0x2C, 0xBE, 0x00, 0x00, 0x00, 0x80, 0x00, 0x00,
  0x00, 0x80, 0x08, 0xF6, 0xC7, 0xBD, 0x51, 0x87, 0x4D, 0xB8,
  0x00, 0x00, 0x00, 0x00, 0xD8, 0x69, 0xB9, 0x3D, 0x00, 0x00,
  0x00, 0x80, 0xDB, 0x51, 0x2B, 0x3E, 0x00, 0x00, 0x00, 0x80,
  0x60, 0x8E, 0x16, 0xBE, 0x00, 0x00, 0x00, 0x00, 0x9D, 0x1B,
  0xEB, 0x3D, 0x00, 0x00, 0x00, 0x80, 0x00, 0x00, 0x00, 0x80,
  0x00, 0x00, 0x00, 0x80, 0x80, 0x5D, 0x4A, 0xBE, 0xB3, 0x4A,
  0x4F, 0x3E, 0xFF, 0xC7, 0x56, 0xBE, 0x00, 0x00, 0x00, 0x00,
  0x00, 0x00, 0x00, 0x00, 0x23, 0x2F, 0x91, 0x3D, 0x14, 0xD0,
  0x04, 0x3E, 0x00, 0x00, 0x00, 0x00, 0x00, 0x00, 0x00, 0x80,
  0x6E, 0x70, 0x33, 0xBD, 0x94, 0xDB, 0xCE, 0x3D, 0x00, 0x00,
  0x00, 0x80, 0x00, 0x00, 0x00, 0x80, 0x87, 0xFE, 0x90, 0x3D,
  0xA0, 0xCC, 0xCF, 0x3D, 0x83, 0xB1, 0x7B, 0x3D, 0x00, 0x00,
  0x00, 0x00, 0x00, 0x00, 0x00, 0x80, 0x00, 0x00, 0x00, 0x80,
  0x06, 0xC1, 0x61, 0xBE, 0x8C, 0x0B, 0xA8, 0xBC, 0x00, 0x00,
  0x00, 0x80, 0x3D, 0xF5, 0x6B, 0x3D, 0xC5, 0x69, 0xBE, 0x3D,
  0x00, 0x00, 0x00, 0x00, 0x00, 0x00, 0x00, 0x80, 0x00, 0x00,
  0x00, 0x80, 0x9A, 0x65, 0x04, 0x3D, 0x00, 0x00, 0x00, 0x80,
  0xF5, 0x25, 0x83, 0x3C, 0x00, 0x00, 0x00, 0x80, 0x00, 0x00,
  0x00, 0x80, 0x51, 0x64, 0x0B, 0xBE, 0x33, 0xBA, 0xE6, 0x3D,
  0xF9, 0x5A, 0x8C, 0xBD, 0x00, 0x00, 0x00, 0x80, 0x00, 0x00,
  0x00, 0x80, 0x30, 0x2F, 0xDB, 0xBD, 0x00, 0x00, 0x00, 0x80,
  0x00, 0x00, 0x00, 0x00, 0x5F, 0x16, 0xB1, 0xBD, 0x8C, 0x34,
  0x04, 0x3E, 0x00, 0x00, 0x00, 0x80, 0x00, 0x00, 0x00, 0x80,
  0xAE, 0x34, 0x18, 0xBE, 0x0B, 0xBB, 0x29, 0xBE, 0x00, 0x00,
  0x00, 0x80, 0xC6, 0x4A, 0xE8, 0x3D, 0x00, 0x00, 0x00, 0x00,
  0x1B, 0xEF, 0x14, 0xBE, 0xB4, 0xE4, 0x47, 0xBE, 0x00, 0x00,
  0x00, 0x80, 0x74, 0x9A, 0x44, 0x3E, 0x00, 0x00, 0x00, 0x80,
  0x00, 0x00, 0x00, 0x00, 0x2C, 0xC7, 0x87, 0x3D, 0x41, 0x99,
  0x09, 0xBE, 0x00, 0x00, 0x00, 0x80, 0x92, 0x9E, 0x2E, 0x3E,
  0x00, 0x00, 0x00, 0x80, 0x94, 0x74, 0x17, 0xBE, 0x00, 0x00,
  0x00, 0x80, 0xAE, 0xA2, 0xEB, 0xBD, 0xA6, 0x15, 0xB7, 0x3D,
  0x00, 0x00, 0x00, 0x00, 0x00, 0x00, 0x00, 0x80, 0x00, 0x00,
  0x00, 0x80, 0x00, 0x00, 0x00, 0x00, 0x83, 0x58, 0xDF, 0x3D,
  0xAE, 0xF8, 0x57, 0x3D, 0xB9, 0xC5, 0x38, 0xBE, 0x00, 0x00,
  0x00, 0x80, 0x00, 0x00, 0x00, 0x00, 0x59, 0x64, 0xF4, 0x3D,
  0xC2, 0xF7, 0xDD, 0x3D, 0xCD, 0x50, 0x1E, 0xBE, 0x00, 0x00,
  0x00, 0x80, 0x00, 0x00, 0x00, 0x80, 0x71, 0x91, 0x31, 0x3E,
  0x00, 0x00, 0x00, 0x80, 0x00, 0x00, 0x00, 0x80, 0x69, 0x3C,
  0x09, 0x3D, 0x33, 0x55, 0xA0, 0x3D, 0x00, 0x00, 0x00, 0x00,
  0x00, 0x00, 0x00, 0x80, 0x18, 0x19, 0x29, 0xBE, 0x5D, 0x8B,
  0xC1, 0x3D, 0x57, 0x2B, 0xB3, 0x3D, 0x00, 0x00, 0x00, 0x80,
  0x00, 0x00, 0x00, 0x00, 0x00, 0x00, 0x00, 0x80, 0xB8, 0x5E,
  0xCF, 0xBD, 0x00, 0x00, 0x00, 0x80, 0x72, 0x92, 0x38, 0x3E,
  0xF1, 0xDE, 0xDB, 0xBD, 0x75, 0xF9, 0xC1, 0x3D, 0x00, 0x00,
  0x00, 0x80, 0x00, 0x00, 0x00, 0x80, 0xD2, 0xA6, 0xBE, 0x3D,
  0x6B, 0xA8, 0x3B, 0x3D, 0x00, 0x00, 0x00, 0x80, 0x00, 0x00,
  0x00, 0x80, 0x00, 0x00, 0x00, 0x80, 0xCD, 0x2D, 0x78, 0x3D,
  0x00, 0x00, 0x00, 0x80, 0x1D, 0x93, 0x93, 0x3D, 0x00, 0x00,
  0x00, 0x80, 0x00, 0x00, 0x00, 0x00, 0x53, 0x6F, 0x93, 0x3D,
  0x86, 0x95, 0xD9, 0xBD, 0x00, 0x00, 0x00, 0x00, 0xC7, 0x12,
  0x10, 0x3E, 0x00, 0x00, 0x00, 0x00, 0x9E, 0x5D, 0xD7, 0x3D,
  0xF8, 0xAC, 0x84, 0x3D, 0x00, 0x00, 0x00, 0x00, 0x63, 0x0B,
  0x9B, 0x3D, 0x00, 0x00, 0x00, 0x00, 0x00, 0x00, 0x00, 0x80,
  0x00, 0x00, 0x00, 0x00, 0xB4, 0x82, 0xEF, 0x3D, 0x58, 0x3D,
  0x70, 0xBD, 0x00, 0x00, 0x00, 0x80, 0x05, 0xDB, 0x8B, 0x3D,
  0xC2, 0x39, 0x8E, 0x3D, 0x00, 0x00, 0x00, 0x80, 0x00, 0x00,
  0x00, 0x80, 0x6D, 0xC1, 0x3F, 0x3E, 0x00, 0x00, 0x00, 0x00,
  0x58, 0x52, 0xC8, 0xBD, 0xF2, 0x9E, 0x09, 0x3E, 0x00, 0x00,
  0x00, 0x80, 0x5C, 0x92, 0x22, 0x3E, 0x00, 0x00, 0x00, 0x80,
  0x23, 0xC6, 0xF4, 0x3D, 0x03, 0x85, 0xF3, 0xBD, 0x00, 0x00,
  0x00, 0x80, 0x00, 0x00, 0x00, 0x80, 0x00, 0x00, 0x00, 0x80,
  0x00, 0x00, 0x00, 0x80, 0xFA, 0x0C, 0xE4, 0x3D, 0x46, 0x50,
  0xFD, 0xBD, 0x18, 0x2F, 0x18, 0xBE, 0x26, 0x35, 0xA3, 0x3B,
  0x00, 0x00, 0x00, 0x80, 0x00, 0x00, 0x00, 0x80, 0x00, 0x00,
  0x00, 0x80, 0xCD, 0xA6, 0x09, 0x3E, 0x04, 0xB0, 0xBC, 0x3D,
  0x00, 0x00, 0x00, 0x00, 0x5A, 0xA1, 0xDE, 0x3C, 0x8E, 0xB1,
  0x7A, 0xBC, 0x00, 0x00, 0x00, 0x00, 0x00, 0x00, 0x00, 0x80,
  0x56, 0x08, 0x85, 0x3D, 0x1E, 0x09, 0x48, 0x3D, 0x00, 0x00,
  0x00, 0x80, 0x00, 0x00, 0x00, 0x80, 0x91, 0x23, 0xE6, 0xBD,
  0x00, 0x00, 0x00, 0x80, 0x15, 0x8F, 0x3A, 0xBE, 0x00, 0x00,
  0x00, 0x80, 0x00, 0x00, 0x00, 0x80, 0x22, 0xFE, 0x3B, 0x3E,
  0x00, 0x00, 0x00, 0x00, 0xD3, 0x81, 0x33, 0xBE, 0x00, 0x00,
  0x00, 0x80, 0x00, 0x00, 0x00, 0x80, 0x83, 0xB2, 0x83, 0xBD,
  0x1D, 0xB1, 0xF7, 0xBD, 0x00, 0x00, 0x00, 0x00, 0x87, 0x27,
  0x10, 0xBE, 0x6B, 0xC4, 0x31, 0x3E, 0x00, 0x00, 0x00, 0x00,
  0x00, 0x00, 0x00, 0x80, 0x00, 0x00, 0x00, 0x80, 0x32, 0xE8,
  0x95, 0xBD, 0x3A, 0x2B, 0xED, 0x3D, 0xC3, 0x4F, 0x91, 0xBD,
  0x42, 0x17, 0xE8, 0x3B, 0x00, 0x00, 0x00, 0x80, 0x00, 0x00,
  0x00, 0x80, 0x85, 0x8A, 0x67, 0x3D, 0x41, 0x73, 0xE9, 0x3D,
  0x00, 0x00, 0x00, 0x80, 0x00, 0x00, 0x00, 0x80, 0x00, 0x00,
  0x00, 0x80, 0x00, 0x00, 0x00, 0x80, 0xEA, 0x7B, 0x1D, 0x3E,
  0xBD, 0x75, 0xB7, 0x3D, 0x00, 0x00, 0x00, 0x00, 0x00, 0x00,
  0x00, 0x00, 0x9A, 0xDB, 0x08, 0x3D, 0x9B, 0x87, 0xC3, 0xBD,
  0x00, 0x00, 0x00, 0x80, 0xBD, 0x6D, 0x2B, 0x3E, 0xE0, 0xA4,
  0x93, 0xBD, 0x00, 0x00, 0x00, 0x80, 0xF3, 0xF0, 0x10, 0xBE,
  0x00, 0x00, 0x00, 0x80, 0xC7, 0xC6, 0xDD, 0xBD, 0x00, 0x00,
  0x00, 0x80, 0x2D, 0xEF, 0x59, 0xBD, 0xDA, 0xAE, 0x85, 0x3D,
  0x00, 0x00, 0x00, 0x80, 0x00, 0x00, 0x00, 0x80, 0x38, 0xAA,
  0x13, 0xBE, 0x84, 0xD8, 0xED, 0x3D, 0x00, 0x00, 0x00, 0x80,
  0x00, 0x00, 0x00, 0x80, 0x91, 0xDB, 0xDF, 0xBD, 0xA9, 0xAD,
  0xE4, 0xBD, 0x00, 0x00, 0x00, 0x80, 0x00, 0x00, 0x00, 0x00,
  0x00, 0x00, 0x00, 0x80, 0x88, 0x92, 0xA5, 0xBD, 0x00, 0x00,
  0x00, 0x00, 0x19, 0xD3, 0x1F, 0x3D, 0xD7, 0x52, 0x48, 0x3E,
  0x00, 0x00, 0x00, 0x80, 0x00, 0x00, 0x00, 0x80, 0xB7, 0xA5,
  0x20, 0xBE, 0x00, 0x00, 0x00, 0x80, 0xF0, 0xEB, 0x42, 0x3D,
  0x00, 0x00, 0x00, 0x80, 0xB2, 0xF6, 0x15, 0xBE, 0x84, 0x2D,
  0x02, 0xBE, 0x00, 0x00, 0x00, 0x80, 0xCB, 0x87, 0x23, 0xBE,
  0x00, 0x00, 0x00, 0x80, 0x00, 0x00, 0x00, 0x80, 0x00, 0x00,
  0x00, 0x80, 0x16, 0x81, 0x41, 0x3E, 0x47, 0xC9, 0x57, 0x3D,
  0xA0, 0xB8, 0xC4, 0x3C, 0x00, 0x00, 0x00, 0x80, 0x00, 0x00,
  0x00, 0x80, 0x42, 0x00, 0xAC, 0xBD, 0x00, 0x00, 0x00, 0x00,
  0x99, 0xD7, 0x1C, 0x3E, 0x00, 0x00, 0x00, 0x80, 0x99, 0xC5,
  0x18, 0xBE, 0x00, 0x00, 0x00, 0x80, 0x46, 0x2D, 0xB3, 0x3D,
  0xBE, 0x71, 0xCF, 0x3D, 0x00, 0x00, 0x00, 0x80, 0x00, 0x00,
  0x00, 0x80, 0x15, 0xC5, 0xB0, 0x3D, 0xDF, 0x5D, 0xB0, 0xBD,
  0x00, 0x00, 0x00, 0x00, 0x00, 0x00, 0x00, 0x80, 0x00, 0x00,
  0x00, 0x80, 0xFA, 0x8E, 0xE1, 0x3D, 0x2A, 0x20, 0x26, 0xBE,
  0x72, 0x01, 0xEA, 0x3D, 0x00, 0x00, 0x00, 0x80, 0x6F, 0xAF,
  0xF5, 0x3D, 0x00, 0x00, 0x00, 0x80, 0x00, 0x00, 0x00, 0x80,
  0x00, 0x00, 0x00, 0x80, 0x13, 0x45, 0x38, 0x3E, 0x34, 0x7F,
  0x13, 0x3E, 0x00, 0x00, 0x00, 0x80, 0x00, 0x00, 0x00, 0x80,
  0xBE, 0x9D, 0xA4, 0x3D, 0xCB, 0x47, 0xAA, 0x3D, 0x00, 0x00,
  0x00, 0x00, 0x00, 0x00, 0x00, 0x80, 0x07, 0x8C, 0x89, 0x3D,
  0x08, 0x73, 0xAF, 0x3D, 0x00, 0x00, 0x00, 0x80, 0x48, 0x25,
  0x04, 0xBE, 0x95, 0xDB, 0xEE, 0xBD, 0x00, 0x00, 0x00, 0x80,
  0x00, 0x00, 0x00, 0x00, 0x64, 0xD3, 0x3E, 0xBE, 0x00, 0x00,
  0x00, 0x80, 0x5E, 0x57, 0xFF, 0x3D, 0x00, 0x00, 0x00, 0x00,
  0x72, 0x49, 0xD9, 0x3D, 0x00, 0x00, 0x00, 0x00, 0x8F, 0xBC,
  0x2C, 0x3E, 0x00, 0x00, 0x00, 0x80, 0x94, 0xEF, 0x1B, 0xBD,
  0x00, 0x00, 0x00, 0x80, 0xE9, 0x5C, 0xF2, 0xBD, 0xE2, 0x1F,
  0x84, 0x3C, 0x00, 0x00, 0x00, 0x80, 0xAA, 0x06, 0x43, 0xBD,
  0x00, 0x00, 0x00, 0x00, 0x18, 0xF2, 0x14, 0xBE, 0x98, 0x6D,
  0xDE, 0x3D, 0x00, 0x00, 0x00, 0x80, 0x00, 0x00, 0x00, 0x00,
  0x19, 0xDC, 0xE4, 0xBD, 0x8E, 0x60, 0x3D, 0xBE, 0x00, 0x00,
  0x00, 0x00, 0x00, 0x00, 0x00, 0x80, 0x55, 0x58, 0x09, 0x3E,
  0x00, 0x00, 0x00, 0x80, 0x00, 0x00, 0x00, 0x80, 0x3B, 0xEF,
  0x48, 0xBE, 0x00, 0x00, 0x00, 0x80, 0x00, 0x00, 0x00, 0x00,
  0x96, 0x2F, 0xD4, 0xBD, 0x4C, 0xDE, 0xAB, 0x3D, 0x00, 0x00,
  0x00, 0x80, 0x03, 0x75, 0x18, 0x3D, 0x00, 0x00, 0x00, 0x80,
  0x13, 0x34, 0x86, 0x3E, 0x31, 0x9B, 0xF1, 0x3D, 0x61, 0x66,
  0x02, 0x3E, 0x00, 0x00, 0x00, 0x80, 0x00, 0x00, 0x00, 0x00,
  0xF1, 0xF6, 0x03, 0xBE, 0x00, 0x00, 0x00, 0x80, 0x00, 0x00,
  0x00, 0x80, 0xD6, 0xB3, 0x1E, 0x3E, 0x00, 0x00, 0x00, 0x80,
  0x00, 0x00, 0x00, 0x80, 0xCF, 0xE4, 0x8F, 0x3D, 0x7E, 0x6F,
  0xDC, 0x3D, 0xFB, 0x77, 0x31, 0x3D, 0x00, 0x00, 0x00, 0x00,
  0x00, 0x00, 0x00, 0x00, 0xA1, 0x80, 0xA7, 0xBD, 0x83, 0x0E,
  0xAD, 0xBD, 0x8C, 0x4C, 0xD4, 0xBD, 0x00, 0x00, 0x00, 0x80,
  0x00, 0x00, 0x00, 0x80, 0x8B, 0x0B, 0xCE, 0x3D, 0x00, 0x00,
  0x00, 0x80, 0x44, 0x63, 0x21, 0x3E, 0x00, 0x00, 0x00, 0x00,
  0x10, 0x5C, 0x92, 0x3D, 0x00, 0x00, 0x00, 0x80, 0x00, 0x00,
  0x00, 0x00, 0x6D, 0x88, 0x23, 0xBD, 0x2E, 0xAA, 0x08, 0x3E,
  0x00, 0x00, 0x00, 0x00, 0x00, 0x00, 0x00, 0x00, 0x6C, 0x7B,
  0xA4, 0x3D, 0xE3, 0xF0, 0xBB, 0xBD, 0xF5, 0x48, 0x00, 0xBE,
  0x00, 0x00, 0x00, 0x00, 0x00, 0x00, 0x00, 0x00, 0x00, 0x00,
  0x00, 0x00, 0xE9, 0xD1, 0xAE, 0x3D, 0x00, 0x00, 0x00, 0x00,
  0xF0, 0x9F, 0xFD, 0x3D, 0x00, 0x00, 0x00, 0x80, 0x00, 0x00,
  0x00, 0x00, 0xEE, 0x06, 0xAA, 0x3D, 0xF8, 0xA5, 0x6E, 0xBD,
  0xEC, 0x40, 0x8F, 0x3D, 0x00, 0x00, 0x00, 0x00, 0x00, 0x00,
  0x00, 0x00, 0x81, 0x35, 0x83, 0xBD, 0x16, 0x40, 0x98, 0x3C,
  0x00, 0x00, 0x00, 0x00, 0x00, 0x00, 0x00, 0x00, 0xAD, 0xCB,
  0x2A, 0x3E, 0x00, 0x00, 0x00, 0x00, 0xE2, 0x74, 0x72, 0x3D,
  0x64, 0xB3, 0x93, 0xBE, 0x00, 0x00, 0x00, 0x00, 0x9D, 0xB5,
  0x57, 0x3D, 0x00, 0x00, 0x00, 0x00, 0xCE, 0xFA, 0x36, 0x3E,
  0x00, 0x00, 0x00, 0x00, 0x00, 0x00, 0x00, 0x00, 0xC3, 0xF9,
  0xA8, 0xBD, 0xBE, 0xB0, 0x38, 0x3E, 0x00, 0x00, 0x00, 0x80,
  0x18, 0x4F, 0xAB, 0xBD, 0x00, 0x00, 0x00, 0x00, 0x00, 0x00,
  0x00, 0x80, 0xC6, 0xCC, 0x8D, 0x3D, 0x00, 0x00, 0x00, 0x80,
  0x50, 0xFD, 0x18, 0xBE, 0x98, 0xC3, 0xB0, 0xBD, 0x00, 0x00,
  0x00, 0x00, 0x2D, 0x15, 0x20, 0xBE, 0x00, 0x00, 0x00, 0x00,
  0x00, 0x00, 0x00, 0x00, 0x09, 0xAC, 0x42, 0x3D, 0x51, 0xFB,
  0x68, 0xBD, 0x00, 0x00, 0x00, 0x00, 0x00, 0x00, 0x00, 0x00,
  0x61, 0xA7, 0xF5, 0xBD, 0x00, 0x00, 0x00, 0x80, 0x4C, 0x87,
  0x49, 0xBE, 0x00, 0x00, 0x00, 0x00, 0x66, 0x55, 0x23, 0xBE,
  0x3C, 0x16, 0xD9, 0xBD, 0xDC, 0x3C, 0xB8, 0xBD, 0x00, 0x00,
  0x00, 0x00, 0x00, 0x00, 0x00, 0x00, 0x00, 0x00, 0x00, 0x00,
  0x00, 0x00, 0x00, 0x00, 0x5D, 0x7F, 0x9A, 0x3D, 0xAA, 0x3C,
  0xB6, 0x3D, 0xCC, 0x32, 0x92, 0xBD, 0x00, 0x00, 0x00, 0x00,
  0x8B, 0x85, 0xBC, 0xBC, 0x00, 0x00, 0x00, 0x00, 0x12, 0xFB,
  0x87, 0xBC, 0x00, 0x00, 0x00, 0x00, 0x00, 0x00, 0x00, 0x00,
  0x43, 0x55, 0xED, 0x3D, 0xE7, 0x8F, 0x0B, 0x3E, 0x00, 0x00,
  0x00, 0x00, 0x0E, 0x65, 0xE1, 0x3D, 0x00, 0x00, 0x00, 0x00,
  0x00, 0x00, 0x00, 0x00, 0xF0, 0x2E, 0x24, 0x3E, 0xCF, 0x4B,
  0x47, 0xBB, 0x00, 0x00, 0x00, 0x00, 0x80, 0x76, 0x32, 0x3E,
  0x00, 0x00, 0x00, 0x00, 0x00, 0x00, 0x00, 0x00, 0xA8, 0x9C,
  0x19, 0x3E, 0x00, 0x00, 0x00, 0x00, 0xDD, 0xD2, 0xF3, 0x3D,
  0x25, 0x92, 0x16, 0xBE, 0x00, 0x00, 0x00, 0x00, 0xF6, 0x3D,
  0xF4, 0x3D, 0xCD, 0x26, 0xC8, 0x3D, 0x00, 0x00, 0x00, 0x00,
  0x00, 0x00, 0x00, 0x00, 0x00, 0x00, 0x00, 0x00, 0x09, 0x81,
  0xAE, 0xBD, 0x68, 0xAD, 0x2B, 0x3E, 0x00, 0x00, 0x00, 0x00,
  0x00, 0x00, 0x00, 0x00, 0xC1, 0xFD, 0x91, 0xBD, 0x00, 0x00,
  0x00, 0x00, 0x3F, 0xFE, 0x99, 0x3D, 0x00, 0x00, 0x00, 0x80,
  0x92, 0xCC, 0xF6, 0x3D, 0x00, 0x00, 0x00, 0x00, 0xAB, 0xC9,
  0x42, 0xBD, 0x68, 0x9A, 0xD7, 0x3D, 0x2E, 0xB8, 0x51, 0x3E,
  0x00, 0x00, 0x00, 0x00, 0x00, 0x00, 0x00, 0x00, 0xD3, 0x17,
  0x72, 0x3E, 0x00, 0x00, 0x00, 0x00, 0x16, 0x7F, 0xCC, 0xBD,
  0x00, 0x00, 0x00, 0x00, 0x8C, 0x20, 0x22, 0x3E, 0x49, 0xDC,
  0xF4, 0x3D, 0x00, 0x00, 0x00, 0x00, 0x00, 0x00, 0x00, 0x80,
  0x9B, 0x30, 0xC0, 0xBD, 0x00, 0x00, 0x00, 0x00, 0x36, 0x44,
  0x2B, 0xBE, 0x00, 0x00, 0x00, 0x00, 0x00, 0x00, 0x00, 0x00,
  0x35, 0x0B, 0x87, 0x3D, 0xAF, 0x9A, 0x11, 0xBD, 0x00, 0x00,
  0x00, 0x00, 0x00, 0x00, 0x00, 0x00, 0xBC, 0x5A, 0xE6, 0x3D,
  0x5C, 0x26, 0x99, 0x3D, 0x00, 0x00, 0x00, 0x00, 0x00, 0x00,
  0x00, 0x00, 0xEC, 0xAF, 0xC5, 0xBD, 0x00, 0x00, 0x00, 0x00,
  0x4F, 0xD2, 0x2C, 0x3E, 0x00, 0x00, 0x00, 0x00, 0x56, 0xFA,
  0xAF, 0xBD, 0x26, 0xF8, 0x39, 0x3E, 0x00, 0x00, 0x00, 0x00,
  0x00, 0x00, 0x00, 0x00, 0x51, 0x87, 0xC2, 0x3D, 0x00, 0x00,
  0x00, 0x00, 0xC0, 0xF7, 0xE5, 0x3D, 0x71, 0x5B, 0x03, 0x3E,
  0x00, 0x00, 0x00, 0x00, 0xB7, 0x02, 0x12, 0x3E, 0x00, 0x00,
  0x00, 0x00, 0x00, 0x00, 0x00, 0x00, 0x58, 0xB7, 0x25, 0xBD,
  0xCF, 0x88, 0xDE, 0x3D, 0x00, 0x00, 0x00, 0x00, 0x00, 0x00,
  0x00, 0x00, 0x00, 0x00, 0x00, 0x00, 0x3C, 0x52, 0x07, 0xBE,
  0x27, 0x62, 0x1C, 0xBE, 0x00, 0x00, 0x00, 0x00, 0xEC, 0xF1,
  0x98, 0x3D, 0x00, 0x00, 0x00, 0x00, 0x50, 0x7C, 0x14, 0x3E,
  0x00, 0x00, 0x00, 0x00, 0x10, 0x3C, 0xEB, 0xBD, 0x00, 0x00,
  0x00, 0x00, 0x26, 0xE5, 0xFA, 0xBD, 0x3B, 0xE4, 0xB2, 0x3D,
  0x00, 0x00, 0x00, 0x00, 0xB5, 0xD5, 0xDC, 0xBD, 0x00, 0x00,
  0x00, 0x80, 0x1E, 0x66, 0x1D, 0xBE, 0x54, 0xE7, 0x70, 0xBD,
  0x00, 0x00, 0x00, 0x80, 0x00, 0x00, 0x00, 0x80, 0xF2, 0xF5,
  0x12, 0xBE, 0x00, 0x00, 0x00, 0x80, 0x00, 0x00, 0x00, 0x00,
  0xA4, 0x62, 0x0B, 0xBE, 0x0A, 0x6F, 0x4B, 0x3D, 0x00, 0x00,
  0x00, 0x00, 0x00, 0x00, 0x00, 0x80, 0x83, 0x4F, 0x52, 0xBD,
  0xB7, 0x53, 0x06, 0xBD, 0xF7, 0x52, 0x9D, 0xBD, 0x00, 0x00,
  0x00, 0x00, 0x00, 0x00, 0x00, 0x80, 0x00, 0x00, 0x00, 0x80,
  0x00, 0x00, 0x00, 0x80, 0xF5, 0xFA, 0x59, 0x3E, 0xB3, 0x64,
  0x30, 0xBE, 0x00, 0x00, 0x00, 0x80, 0xBA, 0xEA, 0x2D, 0x3E,
  0x4B, 0xDF, 0x2C, 0x3E, 0x00, 0x00, 0x00, 0x80, 0x00, 0x00,
  0x00, 0x80, 0x00, 0x00, 0x00, 0x00, 0xB3, 0x14, 0x2C, 0xBE,
  0x9B, 0xFF, 0x2F, 0x3E, 0x90, 0x2C, 0x81, 0x3E, 0x00, 0x00,
  0x00, 0x00, 0x00, 0x00, 0x00, 0x00, 0x8D, 0xD6, 0x17, 0x3E,
  0x38, 0xE5, 0xC0, 0xBD, 0x00, 0x00, 0x00, 0x00, 0x00, 0x00,
  0x00, 0x80, 0x58, 0xD0, 0x28, 0xBE, 0xCF, 0x2B, 0x34, 0x3D,
  0x02, 0x73, 0xB0, 0xBD, 0x00, 0x00, 0x00, 0x80, 0x00, 0x00,
  0x00, 0x80, 0x00, 0x00, 0x00, 0x80, 0x2D, 0x1F, 0x03, 0xBE,
  0x85, 0x0B, 0x1B, 0x3E, 0x00, 0x00, 0x00, 0x80, 0x00, 0x00,
  0x00, 0x80, 0x00, 0x00, 0x00, 0x80, 0x50, 0x89, 0xC1, 0xBD,
  0x88, 0xC5, 0x26, 0x3E, 0xEE, 0x91, 0x41, 0x3E, 0x00, 0x00,
  0x00, 0x80, 0x33, 0x9D, 0x50, 0x3E, 0x00, 0x00, 0x00, 0x80,
  0xCC, 0x64, 0x14, 0xBE, 0xC5, 0xFB, 0x29, 0x3E, 0x00, 0x00,
  0x00, 0x80, 0x00, 0x00, 0x00, 0x80, 0x28, 0x37, 0x12, 0xBE,
  0x00, 0x00, 0x00, 0x80, 0x00, 0x00, 0x00, 0x80, 0x6E, 0x93,
  0xE9, 0x3D, 0x81, 0xF6, 0xEE, 0x3D, 0xF0, 0xCF, 0x18, 0xBD,
  0x00, 0x00, 0x00, 0x80, 0x00, 0x00, 0x00, 0x80, 0x80, 0x05,
  0x02, 0x3E, 0x22, 0x4E, 0xFE, 0xBD, 0x00, 0x00, 0x00, 0x80,
  0x00, 0x00, 0x00, 0x80, 0xE5, 0xCC, 0x13, 0x3E, 0x00, 0x00,
  0x00, 0x80, 0x00, 0x00, 0x00, 0x00, 0x0C, 0x68, 0x18, 0xBE,
  0x04, 0xEC, 0x00, 0xBE, 0x00, 0x00, 0x00, 0x80, 0x34, 0xDD,
  0x01, 0xBE, 0x00, 0x00, 0x00, 0x80, 0xA4, 0xF8, 0x5B, 0x3E,
  0x00, 0x00, 0x00, 0x00, 0x00, 0x00, 0x00, 0x00, 0xF2, 0xE2,
  0x00, 0x3E, 0x00, 0x00, 0x00, 0x80, 0xF9, 0xFC, 0xAF, 0xBD,
  0x00, 0x00, 0x00, 0x80, 0x4E, 0x4A, 0xBD, 0x3D, 0x47, 0x7A,
  0xF3, 0xBD, 0x00, 0x00, 0x00, 0x80, 0xA8, 0x4B, 0x32, 0xBC,
  0x00, 0x00, 0x00, 0x80, 0x6A, 0x0E, 0x94, 0xBD, 0x00, 0x00,
  0x00, 0x80, 0xD0, 0xDE, 0x03, 0x3E, 0x00, 0x00, 0x00, 0x80,
  0xE0, 0x4D, 0xBE, 0xBD, 0x00, 0x00, 0x00, 0x00, 0xDA, 0x2E,
  0x8B, 0xBD, 0x00, 0x00, 0x00, 0x00, 0x00, 0x00, 0x00, 0x80,
  0x00, 0x00, 0x00, 0x80, 0x3B, 0xF1, 0x34, 0x3E, 0xBB, 0x7A,
  0x02, 0x3E, 0x00, 0x00, 0x00, 0x80, 0xA4, 0x6C, 0x22, 0xBE,
  0xA5, 0x63, 0x0D, 0xBE, 0x00, 0x00, 0x00, 0x00, 0x00, 0x00,
  0x00, 0x00, 0x16, 0x5D, 0xD4, 0xBD, 0x00, 0x00, 0x00, 0x00,
  0x88, 0xC0, 0x18, 0x3E, 0x00, 0x00, 0x00, 0x80, 0x00, 0x00,
  0x00, 0x80, 0x00, 0x1E, 0x77, 0x3D, 0x79, 0xEE, 0x47, 0xBD,
  0xF7, 0xBF, 0x77, 0x3D, 0x00, 0x00, 0x00, 0x00, 0x15, 0x64,
  0x7A, 0xBD, 0x00, 0x00, 0x00, 0x00, 0x7D, 0xAA, 0x11, 0xBE,
  0xEA, 0xB0, 0x1E, 0x3E, 0x00, 0x00, 0x00, 0x80, 0x00, 0x00,
  0x00, 0x00, 0x00, 0x00, 0x00, 0x80, 0x61, 0x85, 0xD0, 0x3D,
  0x20, 0x10, 0xC3, 0x3D, 0x00, 0x00, 0x00, 0x00, 0x40, 0x26,
  0x4B, 0x3E, 0xDD, 0x1C, 0xED, 0x3D, 0x00, 0x00, 0x00, 0x00,
  0x00, 0x00, 0x00, 0x80, 0xD5, 0x1A, 0xFD, 0xBD, 0x69, 0x0A,
  0xE9, 0x3D, 0x00, 0x00, 0x00, 0x00, 0x00, 0x00, 0x00, 0x80,
  0x00, 0x00, 0x00, 0x00, 0x4D, 0x36, 0x06, 0xBE, 0xA5, 0xF5,
  0xB6, 0x3D, 0x00, 0x00, 0x00, 0x00, 0x7C, 0xFE, 0x3C, 0xBE,
  0x00, 0x00, 0x00, 0x00, 0x10, 0xBF, 0x82, 0x3D, 0x00, 0x00,
  0x00, 0x80, 0x4F, 0xC9, 0x10, 0xBE, 0x00, 0x00, 0x00, 0x00,
  0x66, 0x5E, 0x59, 0xBD, 0x00, 0x00, 0x00, 0x00, 0x90, 0xB9,
  0x0E, 0x3E, 0x00, 0x00, 0x00, 0x80, 0xD2, 0xFE, 0x9E, 0xBD,
  0x00, 0x00, 0x00, 0x80, 0x00, 0x00, 0x00, 0x00, 0x00, 0x00,
  0x00, 0x80, 0x79, 0x3A, 0x2B, 0x3E, 0x55, 0x69, 0x0A, 0xBE,
  0x00, 0x00, 0x00, 0x00, 0x00, 0x00, 0x00, 0x00, 0x94, 0xA6,
  0x98, 0x3D, 0x33, 0x56, 0xF9, 0x3D, 0x3C, 0x2C, 0x1E, 0xBE,
  0xE8, 0xCE, 0xBC, 0x3D, 0x00, 0x00, 0x00, 0x00, 0x00, 0x00,
  0x00, 0x00, 0x0F, 0x17, 0xEA, 0x3D, 0x00, 0x00, 0x00, 0x00,
  0x67, 0x61, 0x11, 0x3E, 0x00, 0x00, 0x00, 0x00, 0xFE, 0xDB,
  0xD5, 0x3D, 0xF5, 0x32, 0x11, 0x3E, 0x00, 0x00, 0x00, 0x00,
  0x00, 0x00, 0x00, 0x80, 0x00, 0x00, 0x00, 0x00, 0xEC, 0xA5,
  0x8C, 0xBD, 0xCA, 0xF7, 0xC4, 0x3D, 0x00, 0x00, 0x00, 0x80,
  0x76, 0x8D, 0xAD, 0x3D, 0x00, 0x00, 0x00, 0x00, 0x00, 0x00,
  0x00, 0x00, 0xA0, 0x67, 0xE6, 0x3D, 0x00, 0x00, 0x00, 0x80,
  0x97, 0xAD, 0x89, 0x3D, 0x00, 0x00, 0x00, 0x00, 0xCF, 0xBE,
  0xCA, 0xBD, 0x00, 0x00, 0x00, 0x00, 0x17, 0x34, 0x9D, 0x3D,
  0x00, 0x00, 0x00, 0x00, 0x3A, 0x80, 0x58, 0x3E, 0x6C, 0x4C,
  0xE1, 0xBC, 0x00, 0x00, 0x00, 0x00, 0xED, 0xD4, 0xD6, 0xBD,
  0x00, 0x00, 0x00, 0x80, 0x00, 0x00, 0x00, 0x80, 0x46, 0xDE,
  0x0C, 0x3E, 0x00, 0x00, 0x00, 0x00, 0xD0, 0x65, 0x50, 0xBD,
  0x00, 0x00, 0x00, 0x00, 0xC4, 0xFD, 0x3E, 0xBE, 0x35, 0x75,
  0xE4, 0xBD, 0x00, 0x00, 0x00, 0x00, 0xCB, 0x3F, 0x7E, 0x3D,
  0x00, 0x00, 0x00, 0x80, 0x64, 0x54, 0xDA, 0xBD, 0x00, 0x00,
  0x00, 0x00, 0x00, 0x00, 0x00, 0x00, 0xD3, 0x50, 0x34, 0x3E,
  0x7F, 0xAB, 0x8D, 0xBD, 0x00, 0x00, 0x00, 0x00, 0x9B, 0x81,
  0xA3, 0xBD, 0xC3, 0xD6, 0xF8, 0x3D, 0x00, 0x00, 0x00, 0x00,
  0x00, 0x00, 0x00, 0x00, 0xBA, 0x9D, 0x31, 0xBE, 0x00, 0x00,
  0x00, 0x80, 0x00, 0x00, 0x00, 0x80, 0x38, 0xE2, 0x97, 0x3D,
  0x85, 0x97, 0xDE, 0xBC, 0x00, 0x00, 0x00, 0x80, 0x1B, 0x12,
  0xBA, 0xBC, 0x00, 0x00, 0x00, 0x00, 0x95, 0x05, 0xC2, 0x3D,
  0x21, 0xB8, 0x11, 0xBE, 0x00, 0x00, 0x00, 0x00, 0x00, 0x00,
  0x00, 0x00, 0x00, 0x00, 0x00, 0x00, 0x00, 0x00, 0x00, 0x80,
  0xAC, 0x07, 0xEF, 0x3D, 0x99, 0xDA, 0x28, 0xBD, 0x77, 0x79,
  0x84, 0x3D, 0x00, 0x00, 0x00, 0x80, 0x00, 0x00, 0x00, 0x00,
  0xAF, 0x77, 0x80, 0xBE, 0x00, 0x00, 0x00, 0x00, 0x00, 0x00,
  0x00, 0x00, 0x8B, 0x98, 0xE5, 0xBD, 0xE1, 0xC3, 0x78, 0xBD,
  0x00, 0x00, 0x00, 0x00, 0xA4, 0x0E, 0x76, 0xBE, 0x00, 0x00,
  0x00, 0x00, 0x5D, 0x5B, 0xF3, 0x3D, 0x5B, 0xBD, 0xA0, 0x3D,
  0x2D, 0xF0, 0x12, 0xBD, 0x00, 0x00, 0x00, 0x00, 0x00, 0x00,
  0x00, 0x80, 0xC5, 0xE0, 0xFB, 0x3D, 0x00, 0x00, 0x00, 0x80,
  0x00, 0x00, 0x00, 0x80, 0x71, 0x1C, 0x8F, 0xBD, 0x00, 0x00,
  0x00, 0x00, 0x00, 0x00, 0x00, 0x80, 0xF8, 0x6A, 0xE6, 0x3D,
  0x5C, 0x2F, 0x1D, 0xBE, 0x27, 0xFD, 0xE2, 0xBD, 0x4E, 0xE9,
  0x3D, 0x3E, 0x00, 0x00, 0x00, 0x80, 0x00, 0x00, 0x00, 0x80,
  0x00, 0x00, 0x00, 0x00, 0xCF, 0x9A, 0xF2, 0xBD, 0x00, 0x00,
  0x00, 0x80, 0x16, 0x0C, 0xFA, 0x3D, 0x00, 0x00, 0x00, 0x00,
  0xB1, 0xE9, 0x10, 0xBE, 0x00, 0x00, 0x00, 0x00, 0x14, 0x15,
  0x82, 0xBD, 0x45, 0x53, 0x1C, 0xBE, 0x62, 0x5A, 0x02, 0x3E,
  0x00, 0x00, 0x00, 0x00, 0x00, 0x00, 0x00, 0x00, 0x00, 0x00,
  0x00, 0x80, 0x00, 0x00, 0x00, 0x00, 0x9E, 0x78, 0xD3, 0xBD,
  0x54, 0x30, 0xB1, 0x3D, 0x00, 0x00, 0x00, 0x00, 0x00, 0x00,
  0x00, 0x00, 0x87, 0xE4, 0x32, 0xBA, 0xC3, 0x6E, 0xD6, 0x3D,
  0x00, 0x00, 0x00, 0x00, 0xE2, 0xDA, 0x7A, 0xBE, 0xAB, 0x97,
  0xFA, 0xBD, 0x00, 0x00, 0x00, 0x00, 0x00, 0x00, 0x00, 0x80,
  0x10, 0xB1, 0x97, 0x3D, 0x6C, 0xC2, 0x08, 0x3E, 0x00, 0x00,
  0x00, 0x80, 0x00, 0x00, 0x00, 0x00, 0x00, 0x00, 0x00, 0x00,
  0x5C, 0xE1, 0x2D, 0xBD, 0x58, 0xE9, 0x1C, 0x3E, 0x00, 0x00,
  0x00, 0x00, 0xBE, 0xF9, 0x11, 0x3E, 0x00, 0x00, 0x00, 0x80,
  0x61, 0xA7, 0x3E, 0xBE, 0x5F, 0xA5, 0x00, 0x3E, 0x00, 0x00,
  0x00, 0x00, 0x12, 0xAA, 0x97, 0xBE, 0x00, 0x00, 0x00, 0x00,
  0x00, 0x00, 0x00, 0x00, 0x7E, 0x14, 0x3B, 0xBE, 0xDE, 0x45,
  0xF5, 0x3D, 0x00, 0x00, 0x00, 0x80, 0x00, 0x00, 0x00, 0x80,
  0x96, 0x2F, 0x10, 0x3E, 0x00, 0x00, 0x00, 0x00, 0x19, 0x3B,
  0x19, 0xBD, 0x00, 0x00, 0x00, 0x00, 0x00, 0x00, 0x00, 0x00,
  0x1A, 0x18, 0xD8, 0x3D, 0x3F, 0xEE, 0x04, 0x3E, 0x00, 0x00,
  0x00, 0x80, 0x00, 0x00, 0x00, 0x80, 0x3B, 0x0E, 0xD7, 0x3D,
  0x4D, 0xC3, 0x6A, 0xBE, 0xB9, 0x84, 0x14, 0xBE, 0x00, 0x00,
  0x00, 0x00, 0x4C, 0xFC, 0xE8, 0xBD, 0x00, 0x00, 0x00, 0x00,
  0x00, 0x00, 0x00, 0x00, 0x74, 0x18, 0xAD, 0xBD, 0x6B, 0x91,
  0xA4, 0xBD, 0x00, 0x00, 0x00, 0x80, 0xC7, 0x74, 0xE7, 0xBD,
  0x00, 0x00, 0x00, 0x00, 0x84, 0x95, 0xCA, 0xBD, 0x00, 0x00,
  0x00, 0x80, 0x00, 0x00, 0x00, 0x80, 0xA0, 0x08, 0x52, 0xBE,
  0x03, 0x9D, 0x13, 0xBE, 0x00, 0x00, 0x00, 0x00, 0x00, 0x00,
  0x00, 0x80, 0x00, 0x00, 0x00, 0x80, 0xA2, 0xCD, 0xD8, 0x3C,
  0x13, 0x66, 0x26, 0x3D, 0x00, 0x00, 0x00, 0x00, 0xE8, 0x4F,
  0x38, 0xBE, 0xAA, 0xD0, 0xDB, 0x3D, 0x00, 0x00, 0x00, 0x00,
  0x42, 0x55, 0xB1, 0x3D, 0x00, 0x00, 0x00, 0x80, 0x50, 0x7C,
  0x02, 0xBE, 0x00, 0x00, 0x00, 0x00, 0x00, 0x00, 0x00, 0x00,
  0x81, 0x15, 0x34, 0x3E, 0xA4, 0xDE, 0x82, 0x3E, 0x00, 0x00,
  0x00, 0x80, 0x00, 0x00, 0x00, 0x00, 0x00, 0x00, 0x00, 0x80,
  0xB0, 0x74, 0x19, 0xBE, 0x4D, 0x46, 0x25, 0x3E, 0x3C, 0x12,
  0x17, 0x3E, 0x00, 0x00, 0x00, 0x00, 0x00, 0x00, 0x00, 0x00,
  0xF7, 0x12, 0x54, 0xBE, 0x00, 0x00, 0x00, 0x80, 0xBD, 0xE8,
  0x7A, 0xBD, 0x9C, 0x62, 0xC2, 0xBD, 0x00, 0x00, 0x00, 0x00,
  0x00, 0x00, 0x00, 0x00, 0xD5, 0xCB, 0x2C, 0x3D, 0xA7, 0xBA,
  0x7F, 0x3D, 0x00, 0x00, 0x00, 0x00, 0x00, 0x00, 0x00, 0x80,
  0xD5, 0x13, 0x25, 0x3E, 0x00, 0x00, 0x00, 0x00, 0xAA, 0xBA,
  0x36, 0x3E, 0x00, 0x00, 0x00, 0x00, 0x65, 0xDE, 0x3D, 0x3D,
  0xE4, 0xE6, 0x9D, 0xBD, 0x00, 0x00, 0x00, 0x00, 0xA0, 0x00,
  0x0B, 0xBE, 0x27, 0x2F, 0x09, 0x3E, 0x00, 0x00, 0x00, 0x80,
  0x00, 0x00, 0x00, 0x00, 0x85, 0x4D, 0x4D, 0xBE, 0x00, 0x00,
  0x00, 0x00, 0x00, 0x00, 0x00, 0x80, 0xB2, 0x9F, 0xC2, 0x3D,
  0x9A, 0x08, 0x3D, 0xBE, 0x00, 0x00, 0x00, 0x00, 0x3C, 0x77,
  0x46, 0xBE, 0x00, 0x00, 0x00, 0x80, 0xED, 0x90, 0x4D, 0x3D,
  0x00, 0x00, 0x00, 0x00, 0xC6, 0x02, 0x03, 0x3E, 0x00, 0x00,
  0x00, 0x80, 0x86, 0x49, 0xE9, 0xBD, 0xCD, 0x42, 0xF8, 0x3D,
  0x00, 0x00, 0x00, 0x00, 0x00, 0x00, 0x00, 0x00, 0x00, 0x00,
  0x00, 0x00, 0xF8, 0xCB, 0xC4, 0xBD, 0x00, 0x00, 0x00, 0x80,
  0x81, 0x3A, 0x52, 0xBE, 0xB4, 0x9D, 0x0E, 0x3E, 0x3A, 0x27,
  0xA6, 0x3D, 0x00, 0x00, 0x00, 0x80, 0x00, 0x00, 0x00, 0x00,
  0x47, 0xD8, 0x89, 0xBD, 0x00, 0x00, 0x00, 0x00, 0x00, 0x00,
  0x00, 0x00, 0x2F, 0x56, 0x0E, 0x3E, 0x00, 0x00, 0x00, 0x00,
  0x83, 0x59, 0x16, 0x3E, 0x00, 0x00, 0x00, 0x00, 0xC3, 0x4B,
  0xD6, 0xBD, 0x41, 0xDB, 0xEC, 0xBC, 0x00, 0x00, 0x00, 0x00,
  0x00, 0x00, 0x00, 0x00, 0x27, 0x01, 0x12, 0x3D, 0x00, 0x00,
  0x00, 0x80, 0x00, 0x00, 0x00, 0x00, 0x83, 0x7C, 0xB8, 0xBD,
  0x6E, 0x96, 0xD2, 0x3D, 0x29, 0x7F, 0x9E, 0x3D, 0xBD, 0x4F,
  0xA5, 0xBD, 0x00, 0x00, 0x00, 0x00, 0x00, 0x00, 0x00, 0x00,
  0xDC, 0x7B, 0x1E, 0xBD, 0x00, 0x00, 0x00, 0x00, 0xAA, 0x9A,
  0x52, 0x3D, 0x00, 0x00, 0x00, 0x80, 0x06, 0xF2, 0xFC, 0x3D,
  0x00, 0x00, 0x00, 0x00, 0x99, 0x98, 0xE9, 0x3D, 0x00, 0x00,
  0x00, 0x80, 0xAD, 0x68, 0x8B, 0x3D, 0x00, 0x00, 0x00, 0x00,
  0x45, 0x0F, 0x2C, 0x3D, 0x00, 0x00, 0x00, 0x80, 0x00, 0x00,
  0x00, 0x80, 0x3A, 0xBB, 0x20, 0xBE, 0xCE, 0x6D, 0x0D, 0x3E,
  0x00, 0x00, 0x00, 0x00, 0x00, 0x00, 0x00, 0x80, 0xDE, 0xFA,
  0x14, 0x3E, 0xAE, 0xCB, 0x24, 0x3E, 0x00, 0x00, 0x00, 0x00,
  0xD1, 0x6A, 0xE1, 0xBD, 0x29, 0x64, 0x04, 0x3E, 0x00, 0x00,
  0x00, 0x00, 0x00, 0x00, 0x00, 0x80, 0x00, 0x00, 0x00, 0x00,
  0x00, 0x00, 0x00, 0x00, 0x96, 0xDE, 0xC9, 0xBD, 0x8C, 0x11,
  0x94, 0x3D, 0x00, 0x00, 0x00, 0x00, 0x24, 0xD9, 0x64, 0xBE,
  0x93, 0xCC, 0x97, 0xBD, 0x00, 0x00, 0x00, 0x00, 0x00, 0x00,
  0x00, 0x00, 0x00, 0x00, 0x00, 0x00, 0x9E, 0x8F, 0x76, 0x3D,
  0x92, 0xED, 0x4D, 0xBE, 0x00, 0x00, 0x00, 0x00, 0xEC, 0xCA,
  0xF0, 0xBD, 0x00, 0x00, 0x00, 0x00, 0xA1, 0xAE, 0xD6, 0xBD,
  0x9B, 0x24, 0x5B, 0x3D, 0x00, 0x00, 0x00, 0x00, 0xE4, 0x12,
  0xE2, 0x3D, 0x00, 0x00, 0x00, 0x80, 0x00, 0x00, 0x00, 0x00,
  0x80, 0xDA, 0xBB, 0xBD, 0x34, 0x33, 0x1F, 0xBE, 0x00, 0x00,
  0x00, 0x00, 0x17, 0x87, 0x53, 0xBD, 0x00, 0x00, 0x00, 0x00,
  0xE9, 0x7B, 0xB6, 0xBD, 0x00, 0x00, 0x00, 0x80, 0x47, 0x9C,
  0x15, 0x3E, 0x00, 0x00, 0x00, 0x80, 0x00, 0x00, 0x00, 0x80,
  0x6E, 0x98, 0x92, 0xBD, 0x00, 0x00, 0x00, 0x80, 0x0A, 0x54,
  0x86, 0xBD, 0x81, 0x40, 0xC0, 0xBD, 0x00, 0x00, 0x00, 0x00,
  0x00, 0x00, 0x00, 0x80, 0x00, 0x00, 0x00, 0x00, 0x8B, 0xE6,
  0x76, 0xBD, 0x7E, 0x99, 0x4F, 0x3E, 0x00, 0x00, 0x00, 0x00,
  0xA3, 0x4C, 0x60, 0xBD, 0xE7, 0x80, 0x94, 0xBD, 0x00, 0x00,
  0x00, 0x80, 0x00, 0x00, 0x00, 0x80, 0x00, 0x00, 0x00, 0x80,
  0xB0, 0x9A, 0xE3, 0xBD, 0x83, 0x14, 0x4A, 0x3E, 0x00, 0x00,
  0x00, 0x80, 0x1B, 0xC6, 0x92, 0xBD, 0x2E, 0xE4, 0x07, 0x3E,
  0x00, 0x00, 0x00, 0x00, 0xF9, 0x34, 0xCE, 0x3B, 0x25, 0x61,
  0xC7, 0x3D, 0x00, 0x00, 0x00, 0x00, 0x00, 0x00, 0x00, 0x80,
  0x14, 0xF9, 0xD3, 0xBD, 0x00, 0x00, 0x00, 0x00, 0x00, 0x00,
  0x00, 0x80, 0xE8, 0x6C, 0x44, 0x3E, 0x00, 0x00, 0x00, 0x00,
  0xD3, 0x1A, 0xF7, 0x3C, 0x00, 0x00, 0x00, 0x80, 0x9D, 0x4B,
  0xD2, 0xBC, 0x00, 0x00, 0x00, 0x80, 0x00, 0x00, 0x00, 0x00,
  0x38, 0x3E, 0xA9, 0xBD, 0x82, 0xD0, 0xFF, 0xBD, 0x31, 0x5D,
  0xC7, 0xBD, 0xB0, 0xFF, 0x20, 0x3E, 0x00, 0x00, 0x00, 0x00,
  0x00, 0x00, 0x00, 0x00, 0x85, 0xC5, 0x37, 0x3D, 0x00, 0x00,
  0x00, 0x00, 0x29, 0x95, 0x96, 0x3D, 0x00, 0x00, 0x00, 0x00,
  0x46, 0x4E, 0x3B, 0x3E, 0xDA, 0x1F, 0x6A, 0xBE, 0x00, 0x00,
  0x00, 0x00, 0x00, 0x00, 0x00, 0x00, 0x93, 0x8A, 0x8F, 0xBC,
  0x00, 0x00, 0x00, 0x80, 0xD8, 0xA9, 0xEC, 0x3D, 0x00, 0x00,
  0x00, 0x00, 0xB2, 0x7D, 0x3B, 0x3E, 0xE7, 0x94, 0x0A, 0x3D,
  0x00, 0x00, 0x00, 0x80, 0x00, 0x00, 0x00, 0x80, 0x24, 0x71,
  0xD2, 0xBD, 0x00, 0x00, 0x00, 0x00, 0x00, 0x00, 0x00, 0x80,
  0xA1, 0xB9, 0x3D, 0xBE, 0x00, 0x00, 0x00, 0x80, 0x00, 0x00,
  0x00, 0x00, 0xE4, 0x5E, 0x64, 0x3C, 0x63, 0xC0, 0xD9, 0x3D,
  0x10, 0x58, 0xE2, 0x3D, 0x00, 0x00, 0x00, 0x80, 0x00, 0x00,
  0x00, 0x80, 0x2F, 0x77, 0x12, 0x3E, 0x6A, 0x2C, 0x1A, 0xBE,
  0x38, 0x36, 0x27, 0x3E, 0x00, 0x00, 0x00, 0x80, 0x00, 0x00,
  0x00, 0x80, 0x5F, 0x89, 0x0F, 0x3E, 0xCA, 0x37, 0x81, 0x3D,
  0x00, 0x00, 0x00, 0x80, 0x00, 0x00, 0x00, 0x80, 0x00, 0x00,
  0x00, 0x80, 0x6D, 0x2B, 0xC1, 0xBD, 0xFA, 0xBD, 0x02, 0x3E,
  0x00, 0x00, 0x00, 0x00, 0x00, 0x00, 0x00, 0x00, 0x00, 0x00,
  0x00, 0x80, 0x5B, 0x8F, 0xEA, 0xBD, 0x4A, 0xA3, 0xF7, 0xBD,
  0x00, 0x00, 0x00, 0x80, 0x5F, 0x2A, 0x7F, 0xBD, 0x00, 0x00,
  0x00, 0x80, 0x2D, 0xD4, 0x02, 0x3E, 0x37, 0x19, 0x7A, 0x3D,
  0xB4, 0xE2, 0x10, 0xBE, 0x00, 0x00, 0x00, 0x00, 0x00, 0x00,
  0x00, 0x00, 0x00, 0x00, 0x00, 0x80, 0xFA, 0x2D, 0x4F, 0x3E,
  0x66, 0x18, 0xEB, 0x3D, 0x00, 0x00, 0x00, 0x80, 0x00, 0x00,
  0x00, 0x00, 0x77, 0x89, 0x82, 0xBD, 0x00, 0x00, 0x00, 0x00,
  0xB6, 0x25, 0xBB, 0x3D, 0x1E, 0x4D, 0x12, 0x3E, 0x00, 0x00,
  0x00, 0x80, 0x00, 0x00, 0x00, 0x80, 0xDA, 0xF4, 0x37, 0x3E,
  0x7B, 0x39, 0xDF, 0xBD, 0x00, 0x00, 0x00, 0x80, 0x36, 0xFF,
  0x23, 0x3E, 0x00, 0x00, 0x00, 0x00, 0x00, 0x00, 0x00, 0x80,
  0x00, 0x00, 0x00, 0x80, 0xAB, 0x8B, 0x19, 0xBE, 0xE4, 0x51,
  0x6F, 0xBE, 0x00, 0x00, 0x00, 0x00, 0x73, 0x7F, 0x37, 0x3E,
  0x7A, 0x9F, 0x53, 0x3E, 0x00, 0x00, 0x00, 0x00, 0x00, 0x00,
  0x00, 0x00, 0x00, 0x00, 0x00, 0x80, 0xAD, 0x58, 0x13, 0xBE,
  0x21, 0xD5, 0xE4, 0xBD, 0x75, 0xCA, 0x11, 0x3E, 0x00, 0x00,
  0x00, 0x00, 0x00, 0x00, 0x00, 0x80, 0x4C, 0xCC, 0x20, 0x3E,
  0x00, 0x00, 0x00, 0x00, 0xE8, 0x2E, 0xCA, 0xBD, 0x00, 0x00,
  0x00, 0x00, 0x01, 0x54, 0x0B, 0x3D, 0x00, 0x00, 0x00, 0x00,
  0xD0, 0xC5, 0x15, 0x3E, 0x36, 0xEB, 0x37, 0xBE, 0x00, 0x00,
  0x00, 0x00, 0x2D, 0x35, 0xD8, 0x3D, 0x9A, 0xE7, 0x09, 0x3E,
  0x00, 0x00, 0x00, 0x00, 0x00, 0x00, 0x00, 0x00, 0x0A, 0x44,
  0x19, 0xBE, 0x00, 0x00, 0x00, 0x80, 0x00, 0x00, 0x00, 0x00,
  0xD7, 0x20, 0xE5, 0x3D, 0xAC, 0xAE, 0xCA, 0x3C, 0x00, 0x2B,
  0x93, 0xBC, 0x00, 0x00, 0x00, 0x00, 0x00, 0x00, 0x00, 0x00,
  0x02, 0xD7, 0xF3, 0xBD, 0x00, 0x00, 0x00, 0x80, 0x00, 0x00,
  0x00, 0x00, 0xD1, 0xDB, 0xC3, 0xBD, 0x9F, 0xAB, 0xAB, 0x3D,
  0x00, 0x00, 0x00, 0x80, 0x00, 0x00, 0x00, 0x00, 0xDF, 0x01,
  0xB2, 0xBD, 0xB2, 0x86, 0xB6, 0xBD, 0x00, 0x00, 0x00, 0x80,
  0xC3, 0xB5, 0x9C, 0xBD, 0x00, 0x00, 0x00, 0x00, 0xCE, 0x54,
  0x31, 0x3E, 0x00, 0x00, 0x00, 0x00, 0xD8, 0x34, 0x50, 0x3E,
  0x00, 0x00, 0x00, 0x80, 0x94, 0x9D, 0x03, 0xBE, 0x1B, 0x8E,
  0x26, 0x3D, 0x00, 0x00, 0x00, 0x80, 0x00, 0x00, 0x00, 0x80,
  0xEC, 0x67, 0x69, 0x3D, 0x4D, 0x9D, 0xFE, 0xBD, 0x00, 0x00,
  0x00, 0x00, 0x00, 0x00, 0x00, 0x00, 0x41, 0x95, 0x12, 0x3E,
  0x00, 0x00, 0x00, 0x00, 0x00, 0x00, 0x00, 0x80, 0x0E, 0xB9,
  0x3E, 0x3E, 0x00, 0x00, 0x00, 0x00, 0x00, 0x00, 0x00, 0x80,
  0xC8, 0x67, 0x6D, 0xBE, 0x6D, 0x77, 0xF8, 0x3D, 0x00, 0x00,
  0x00, 0x00, 0x0A, 0x65, 0x02, 0x3E, 0x00, 0x00, 0x00, 0x80,
  0xBB, 0xBA, 0x8D, 0xBD, 0x00, 0x00, 0x00, 0x00, 0x00, 0x00,
  0x00, 0x00, 0x09, 0x1E, 0x45, 0xBD, 0xAD, 0x03, 0x9A, 0xBD,
  0x00, 0x00, 0x00, 0x00, 0x00, 0x00, 0x00, 0x80, 0xB9, 0x4C,
  0x39, 0x3E, 0xA4, 0x4B, 0x10, 0x3E, 0x00, 0x00, 0x00, 0x00,
  0x00, 0x00, 0x00, 0x00, 0x34, 0xDD, 0xE5, 0x3D, 0xAA, 0x9F,
  0x58, 0x3E, 0x00, 0x00, 0x00, 0x00, 0xB5, 0xCA, 0x16, 0xBE,
  0x7B, 0xD0, 0xF1, 0xBD, 0x00, 0x00, 0x00, 0x80, 0x00, 0x00,
  0x00, 0x80, 0x00, 0x00, 0x00, 0x80, 0x02, 0x1F, 0x10, 0xBE,
  0x68, 0x31, 0x15, 0x3E, 0x00, 0x00, 0x00, 0x80, 0x33, 0x99,
  0x1C, 0xBD, 0x20, 0xB9, 0x2C, 0xBE, 0x00, 0x00, 0x00, 0x80,
  0xEE, 0x0A, 0xCA, 0x3D, 0x00, 0x00, 0x00, 0x00, 0xAB, 0xAC,
  0xEE, 0x3D, 0x00, 0x00, 0x00, 0x00, 0x00, 0x00, 0x00, 0x80,
  0x00, 0x00, 0x00, 0x00, 0xA3, 0x9A, 0x21, 0x3E, 0xAF, 0x00,
  0xA7, 0x3D, 0x00, 0x00, 0x00, 0x00, 0xDB, 0x09, 0xF2, 0x3D,
  0x00, 0x00, 0x00, 0x00, 0xB3, 0xAE, 0xE5, 0xBD, 0x7E, 0xCC,
  0x32, 0xBE, 0x1F, 0x14, 0x09, 0x3E, 0x00, 0x00, 0x00, 0x00,
  0x00, 0x00, 0x00, 0x80, 0x00, 0x00, 0x00, 0x00, 0x00, 0x00,
  0x00, 0x80, 0x94, 0xDC, 0xCF, 0xBD, 0x99, 0x74, 0xAA, 0x3D,
  0x00, 0x00, 0x00, 0x00, 0x42, 0x1A, 0x6E, 0xBE, 0x00, 0x00,
  0x00, 0x00, 0x2E, 0x92, 0x2D, 0xBE, 0x30, 0xAF, 0x6C, 0xBD,
  0x00, 0x00, 0x00, 0x00, 0x00, 0x00, 0x00, 0x00, 0xAB, 0x06,
  0x92, 0xBD, 0x00, 0x00, 0x00, 0x00, 0x05, 0xBB, 0x08, 0xBE,
  0xD9, 0x32, 0x9E, 0x3D, 0x00, 0x00, 0x00, 0x00, 0x00, 0x00,
  0x00, 0x00, 0x9B, 0xD6, 0xEE, 0xBC, 0x74, 0xE3, 0xDE, 0xBA,
  0x00, 0x00, 0x00, 0x80, 0xA3, 0x2B, 0x08, 0x3E, 0x26, 0x4F,
  0x9B, 0xBD, 0x00, 0x00, 0x00, 0x80, 0x00, 0x00, 0x00, 0x00,
  0x00, 0x00, 0x00, 0x00, 0xFB, 0x64, 0x13, 0xBE, 0x00, 0x00,
  0x00, 0x00, 0x46, 0x2D, 0x1C, 0xBE, 0x63, 0xF6, 0x2C, 0xBE,
  0xB4, 0x19, 0xF2, 0x3D, 0x00, 0x00, 0x00, 0x00, 0x00, 0x00,
  0x00, 0x80, 0x00, 0x00, 0x00, 0x00, 0x7C, 0x25, 0xAB, 0x3D,
  0x00, 0x00, 0x00, 0x80, 0x1D, 0x56, 0x02, 0xBE, 0x24, 0xB9,
  0xF3, 0x3D, 0xF4, 0xBD, 0x19, 0x3D, 0x00, 0x00, 0x00, 0x00,
  0x00, 0x00, 0x00, 0x00, 0x00, 0x00, 0x00, 0x00, 0x22, 0x69,
  0xAF, 0x3D, 0x60, 0xDF, 0x22, 0xBD, 0x00, 0x00, 0x00, 0x00,
  0x00, 0x00, 0x00, 0x80, 0xA3, 0xCD, 0xDF, 0x3D, 0xA9, 0x93,
  0xB6, 0xBD, 0x00, 0x00, 0x00, 0x80, 0xE1, 0x26, 0xB3, 0xBD,
  0x00, 0x00, 0x00, 0x00, 0x00, 0x00, 0x00, 0x00, 0x21, 0xF8,
  0xFA, 0xBD, 0x00, 0x00, 0x00, 0x00, 0x19, 0xC7, 0x22, 0x3E,
  0x41, 0xDB, 0x17, 0xBE, 0x00, 0x00, 0x00, 0x00, 0x86, 0xEC,
  0xF8, 0x3D, 0x00, 0x00, 0x00, 0x00, 0x34, 0xF4, 0x2B, 0x3E,
  0x00, 0x00, 0x00, 0x00, 0x53, 0xA9, 0x27, 0x3E, 0x00, 0x00,
  0x00, 0x00, 0x00, 0x00, 0x00, 0x80, 0x17, 0xF7, 0x17, 0xBE,
  0x00, 0x00, 0x00, 0x00, 0x91, 0x26, 0x1C, 0xBD, 0x00, 0x00,
  0x00, 0x00, 0xBC, 0x5C, 0x03, 0xBE, 0x00, 0x00, 0x00, 0x00,
  0x9B, 0x4D, 0xE1, 0xBD, 0x2D, 0x34, 0x8D, 0x3D, 0x00, 0x00,
  0x00, 0x80, 0x28, 0x8B, 0xB5, 0xBD, 0x00, 0x00, 0x00, 0x00,
  0x88, 0x52, 0x45, 0x3D, 0x00, 0x00, 0x00, 0x00, 0x59, 0xE6,
  0xBB, 0x3D, 0x00, 0x00, 0x00, 0x00, 0x00, 0x00, 0x00, 0x00,
  0x56, 0x98, 0xE8, 0x3D, 0xD5, 0x16, 0xE9, 0xBD, 0x13, 0xA9,
  0x03, 0xBE, 0x00, 0x00, 0x00, 0x80, 0x00, 0x00, 0x00, 0x00,
  0x00, 0x00, 0x00, 0x00, 0x66, 0x8B, 0x09, 0xBD, 0xDF, 0xA8,
  0xA5, 0xBC, 0x00, 0x00, 0x00, 0x00, 0x8B, 0xAD, 0x12, 0x3E,
  0x00, 0x00, 0x00, 0x00, 0x17, 0xA8, 0x5E, 0x3D, 0x00, 0x00,
  0x00, 0x80, 0x00, 0x00, 0x00, 0x00, 0x00, 0x00, 0x00, 0x00,
  0x9C, 0xD4, 0x40, 0x3D, 0xEC, 0x83, 0x27, 0xBE, 0x00, 0x00,
  0x00, 0x00, 0xD6, 0x47, 0x02, 0xBE, 0x00, 0x00, 0x00, 0x00,
  0xB2, 0x83, 0xAD, 0x3C, 0x82, 0x6A, 0xE6, 0xBD, 0x3C, 0xCC,
  0x94, 0xBD, 0x00, 0x00, 0x00, 0x00, 0x00, 0x00, 0x00, 0x00,
  0x00, 0x00, 0x00, 0x00, 0x91, 0xE7, 0xB1, 0x3D, 0x00, 0x00,
  0x00, 0x00, 0xB7, 0x50, 0x1D, 0xBE, 0x00, 0x00, 0x00, 0x00,
  0x00, 0x00, 0x00, 0x00, 0x32, 0x06, 0xEC, 0xBD, 0x71, 0xA2,
  0x8D, 0x3D, 0x00, 0x00, 0x00, 0x00, 0x00, 0x00, 0x00, 0x80,
  0x54, 0x54, 0x11, 0x3E, 0x69, 0x40, 0xEA, 0x3D, 0x00, 0x00,
  0x00, 0x80, 0x00, 0x00, 0x00, 0x80, 0x86, 0x60, 0xA5, 0x3D,
  0x67, 0x7A, 0xED, 0x3D, 0x00, 0x00, 0x00, 0x00, 0x7E, 0xA7,
  0xDD, 0xBC, 0x00, 0x00, 0x00, 0x80, 0x04, 0x47, 0x6F, 0xBD,
  0x00, 0x00, 0x00, 0x80, 0x00, 0x00, 0x00, 0x00, 0x20, 0x0E,
  0x8B, 0xBD, 0x65, 0x2C, 0x3B, 0xBD, 0x00, 0x00, 0x00, 0x00,
  0x00, 0x00, 0x00, 0x00, 0xDA, 0x4A, 0xCD, 0x3D, 0x90, 0x3F,
  0xE5, 0x3D, 0x00, 0x00, 0x00, 0x00, 0x03, 0x8A, 0x2D, 0xBE,
  0x2F, 0x77, 0x27, 0xBE, 0x00, 0x00, 0x00, 0x00, 0x38, 0x28,
  0x01, 0xBE, 0x00, 0x00, 0x00, 0x80, 0x8D, 0x13, 0xFB, 0x3D,
  0x00, 0x00, 0x00, 0x00, 0xEE, 0xE8, 0x11, 0xBE, 0x00, 0x00,
  0x00, 0x00, 0x13, 0xB6, 0x1B, 0x3E, 0x00, 0x00, 0x00, 0x00,
  0x00, 0x00, 0x00, 0x00, 0x00, 0x00, 0x00, 0x00, 0x3C, 0xCC,
  0xA6, 0xBD, 0xE4, 0xCA, 0x2B, 0x3D, 0x92, 0xC8, 0x83, 0xBE,
  0x77, 0xEE, 0xF2, 0x3D, 0x00, 0x00, 0x00, 0x00, 0x00, 0x00,
  0x00, 0x80, 0x34, 0x8D, 0x8E, 0xBD, 0x39, 0x7D, 0xD3, 0xBD,
  0x00, 0x00, 0x00, 0x00, 0x00, 0x00, 0x00, 0x00, 0x00, 0x00,
  0x00, 0x00, 0x5A, 0x84, 0xAC, 0x3D, 0x00, 0x00, 0x00, 0x80,
  0x7F, 0xC0, 0x6B, 0xBD, 0x68, 0x28, 0xA7, 0x3D, 0xF8, 0xF2,
  0xB1, 0xBD, 0x00, 0x00, 0x00, 0x00, 0x00, 0x00, 0x00, 0x80,
  0x00, 0x00, 0x00, 0x80, 0xDA, 0x57, 0x78, 0x3D, 0xCC, 0x91,
  0x53, 0xBE, 0x00, 0x00, 0x00, 0x80, 0xC2, 0x06, 0xEB, 0xBD,
  0x00, 0x00, 0x00, 0x00, 0xB2, 0xC8, 0xD1, 0x3D, 0x00, 0x00,
  0x00, 0x80, 0x00, 0x00, 0x00, 0x00, 0x00, 0x00, 0x00, 0x80,
  0x25, 0x25, 0xE0, 0xBD, 0x44, 0x32, 0xEB, 0xBD, 0x00, 0x00,
  0x00, 0x00, 0x00, 0x00, 0x00, 0x80, 0x21, 0x1B, 0xEE, 0x3D,
  0x88, 0x3F, 0xCC, 0x3D, 0x1C, 0x90, 0xF4, 0xBD, 0x00, 0x00,
  0x00, 0x00, 0x65, 0xDC, 0x37, 0xBE, 0x00, 0x00, 0x00, 0x80,
  0xAA, 0x37, 0xD4, 0xBD, 0x00, 0x00, 0x00, 0x00, 0x00, 0x00,
  0x00, 0x80, 0x2D, 0x8D, 0x96, 0x3D, 0x00, 0x00, 0x00, 0x80,
  0x00, 0x00, 0x00, 0x80, 0x1C, 0x9B, 0xEA, 0x3D, 0xD2, 0xAF,
  0x05, 0x3E, 0x00, 0x00, 0x00, 0x00, 0x00, 0x00, 0x00, 0x80,
  0x1F, 0xFC, 0xA5, 0x3D, 0x3C, 0xB0, 0x93, 0xBD, 0x00, 0x00,
  0x00, 0x00, 0x63, 0xF3, 0x12, 0x3E, 0x00, 0x00, 0x00, 0x00,
  0xC9, 0x8A, 0x5F, 0x3E, 0x00, 0x00, 0x00, 0x80, 0x93, 0x87,
  0xB3, 0x3D, 0x00, 0x00, 0x00, 0x00, 0xCB, 0x6C, 0x11, 0x3E,
  0x2E, 0x1C, 0xCD, 0x3D, 0x00, 0x00, 0x00, 0x00, 0x92, 0xBE,
  0xF3, 0x3D, 0x00, 0x00, 0x00, 0x80, 0x00, 0x00, 0x00, 0x00,
  0x00, 0x00, 0x00, 0x80, 0xA6, 0x0F, 0x95, 0x3D, 0x5D, 0x4B,
  0x00, 0x3E, 0x00, 0x00, 0x00, 0x80, 0xAD, 0x34, 0x32, 0x3E,
  0x07, 0x07, 0x11, 0xBE, 0x00, 0x00, 0x00, 0x00, 0x90, 0x80,
  0x9D, 0xBD, 0x00, 0x00, 0x00, 0x80, 0xAB, 0x50, 0xF5, 0x3D,
  0x00, 0x00, 0x00, 0x80, 0x00, 0x00, 0x00, 0x00, 0x77, 0x2A,
  0x21, 0xBE, 0x20, 0x82, 0xA0, 0xBD, 0x00, 0x00, 0x00, 0x80,
  0xC2, 0xF5, 0x0D, 0x3E, 0x00, 0x00, 0x00, 0x80, 0x00, 0x00,
  0x00, 0x00, 0x5B, 0x92, 0x85, 0x3D, 0xA8, 0x2F, 0xEA, 0xBD,
  0x00, 0x00, 0x00, 0x00, 0x57, 0x72, 0x29, 0x3E, 0x00, 0x00,
  0x00, 0x00, 0x46, 0xF3, 0x13, 0x3E, 0x00, 0x00, 0x00, 0x00,
  0x00, 0x00, 0x00, 0x00, 0x62, 0x05, 0xEA, 0x3D, 0x00, 0x00,
  0x00, 0x80, 0xAB, 0xFC, 0xBA, 0x3C, 0xB6, 0x7D, 0x49, 0x3E,
  0x00, 0x00, 0x00, 0x00, 0x00, 0x00, 0x00, 0x00, 0xF0, 0xBF,
  0x83, 0xBD, 0xB5, 0x42, 0xDC, 0x3D, 0x00, 0x00, 0x00, 0x00,
  0x92, 0x86, 0x32, 0x3E, 0x00, 0x00, 0x00, 0x00, 0x30, 0xD9,
  0xDF, 0x3D, 0x00, 0x00, 0x00, 0x00, 0x00, 0x00, 0x00, 0x00,
  0xBB, 0x2A, 0xF5, 0x3D, 0x00, 0x00, 0x00, 0x80, 0x54, 0x7B,
  0xDB, 0xBD, 0x5F, 0x2F, 0x5D, 0xBC, 0x00, 0x00, 0x00, 0x00,
  0x79, 0x5D, 0x02, 0x3E, 0x00, 0x00, 0x00, 0x80, 0x98, 0xB5,
  0xED, 0x3D, 0x00, 0x00, 0x00, 0x00, 0x00, 0x00, 0x00, 0x00,
  0xF9, 0x3C, 0xC4, 0xBD, 0x00, 0x00, 0x00, 0x80, 0x00, 0x00,
  0x00, 0x00, 0xE2, 0xCE, 0x8C, 0x3D, 0x72, 0xD9, 0x04, 0x3E,
  0x09, 0xBA, 0x78, 0x3D, 0x00, 0x00, 0x00, 0x00, 0x00, 0x00,
  0x00, 0x80, 0x38, 0x83, 0x3B, 0x3E, 0x43, 0x48, 0x8F, 0xBE,
  0x00, 0x00, 0x00, 0x80, 0x00, 0x00, 0x00, 0x00, 0xC4, 0x9C,
  0xBB, 0xBD, 0x00, 0x00, 0x00, 0x00, 0xEB, 0x11, 0x78, 0x3E,
  0x3E, 0xE5, 0xF2, 0x3D, 0x00, 0x00, 0x00, 0x80, 0xDF, 0x35,
  0xA0, 0xBD, 0x00, 0x00, 0x00, 0x00, 0x3D, 0xB7, 0xC7, 0xBD,
  0x00, 0x00, 0x00, 0x00, 0x80, 0xEA, 0xAF, 0xBC, 0x00, 0x00,
  0x00, 0x80, 0x00, 0x00, 0x00, 0x00, 0x50, 0xB7, 0xA4, 0x3D,
  0x00, 0x00, 0x00, 0x00, 0x00, 0x00, 0x00, 0x00, 0x08, 0xEF,
  0x44, 0xBE, 0x35, 0xE8, 0xE0, 0xBD, 0x02, 0xD2, 0xD3, 0x3D,
  0xF1, 0x5D, 0x32, 0xBE, 0x00, 0x00, 0x00, 0x00, 0x00, 0x00,
  0x00, 0x80, 0x00, 0x00, 0x00, 0x00, 0xBF, 0x85, 0xE5, 0xBC,
  0xB0, 0x8D, 0x79, 0xBD, 0x00, 0x00, 0x00, 0x80, 0x6B, 0xBD,
  0x0D, 0x3E, 0x00, 0x00, 0x00, 0x00, 0x7B, 0x5B, 0xEA, 0x3D,
  0x00, 0x00, 0x00, 0x00, 0x11, 0x57, 0xBF, 0x3D, 0x8E, 0xD7,
  0xF9, 0x3D, 0x00, 0x00, 0x00, 0x80, 0x00, 0x00, 0x00, 0x00,
  0x11, 0x1B, 0xF9, 0x3D, 0x00, 0x00, 0x00, 0x00, 0xD8, 0xAB,
  0x08, 0x3E, 0x00, 0x00, 0x00, 0x00, 0x4E, 0x5F, 0x1B, 0x3E,
  0x4C, 0x16, 0x04, 0x3E, 0x00, 0x00, 0x00, 0x00, 0x00, 0x00,
  0x00, 0x80, 0x00, 0x00, 0x00, 0x00, 0x40, 0xFC, 0x31, 0x3E,
  0x00, 0x00, 0x00, 0x80, 0x2C, 0x84, 0xEF, 0x3D, 0x00, 0x00,
  0x00, 0x80, 0x6B, 0x0D, 0x0A, 0x3E, 0x00, 0x00, 0x00, 0x80,
  0x1C, 0xDA, 0xF1, 0x3D, 0x00, 0x00, 0x00, 0x00, 0xCD, 0x1F,
  0x98, 0xBD, 0x00, 0x00, 0x00, 0x80, 0x23, 0x63, 0xAA, 0xBD,
  0x00, 0x00, 0x00, 0x80, 0xB5, 0x5D, 0xA2, 0xBD, 0x00, 0x00,
  0x00, 0x80, 0xE0, 0x76, 0x11, 0xBE, 0x00, 0x00, 0x00, 0x80,
  0x00, 0x00, 0x00, 0x80, 0xB4, 0x85, 0x1C, 0xBE, 0x7E, 0x16,
  0x32, 0xBE, 0xE4, 0xD1, 0x0C, 0x3E, 0xCF, 0x74, 0x9C, 0xBD,
  0x00, 0x00, 0x00, 0x80, 0x00, 0x00, 0x00, 0x80, 0x18, 0x43,
  0xD8, 0xBD, 0x34, 0x28, 0x38, 0xBE, 0x00, 0x00, 0x00, 0x80,
  0x00, 0x00, 0x00, 0x00, 0x00, 0x00, 0x00, 0x00, 0xE0, 0xB5,
  0x23, 0x3D, 0x00, 0x00, 0x00, 0x00, 0x22, 0xA3, 0x20, 0x3E,
  0x00, 0x7D, 0x04, 0x3E, 0x56, 0x02, 0xC2, 0xBD, 0x00, 0x00,
  0x00, 0x80, 0x00, 0x00, 0x00, 0x80, 0x00, 0x00, 0x00, 0x80,
  0x00, 0x00, 0x00, 0x00, 0x99, 0xFF, 0xD1, 0x3B, 0x82, 0xBE,
  0x13, 0xBD, 0x22, 0x6E, 0x09, 0x3E, 0x25, 0x2F, 0xBF, 0x3D,
  0x00, 0x00, 0x00, 0x80, 0x00, 0x00, 0x00, 0x80, 0x00, 0x00,
  0x00, 0x80, 0x00, 0x00, 0x00, 0x00, 0x33, 0x19, 0xDD, 0x3D,
  0xAC, 0x4C, 0xF4, 0x3D, 0x00, 0x00, 0x00, 0x00, 0xB4, 0x20,
  0xB8, 0x3D, 0x4D, 0x70, 0x0E, 0x3E, 0x00, 0x00, 0x00, 0x80,
  0x00, 0x00, 0x00, 0x80, 0x00, 0x00, 0x00, 0x00, 0x76, 0xE3,
  0xDA, 0xBD, 0x3F, 0xA7, 0xAB, 0x3D, 0x00, 0x00, 0x00, 0x00,
  0x26, 0xD8, 0x8C, 0x3D, 0x00, 0x00, 0x00, 0x80, 0x59, 0xF4,
  0xD8, 0x3D, 0x00, 0x00, 0x00, 0x80, 0xB3, 0x5E, 0x62, 0x3D,
  0x00, 0x00, 0x00, 0x80, 0x9E, 0x27, 0xC5, 0x3D, 0xDC, 0x87,
  0xCA, 0x3D, 0x31, 0x1B, 0x2D, 0x3E, 0x00, 0x00, 0x00, 0x80,
  0x00, 0x00, 0x00, 0x00, 0x40, 0x98, 0xA6, 0x3D, 0xE3, 0xD5,
  0x19, 0xBE, 0x00, 0x00, 0x00, 0x80, 0x00, 0x00, 0x00, 0x80,
  0x00, 0x00, 0x00, 0x80, 0x7A, 0x64, 0xA7, 0xBD, 0xF3, 0xA0,
  0xE1, 0xBD, 0x00, 0x00, 0x00, 0x80, 0x88, 0xD1, 0x29, 0x3E,
  0x00, 0x00, 0x00, 0x80, 0xCB, 0xF4, 0x10, 0xBE, 0x00, 0x00,
  0x00, 0x80, 0x1F, 0x41, 0x30, 0xBE, 0x23, 0xC8, 0x1A, 0x3E,
  0x00, 0x00, 0x00, 0x80, 0x00, 0x00, 0x00, 0x80, 0x00, 0x00,
  0x00, 0x00, 0x00, 0x00, 0x00, 0x80, 0xC5, 0x53, 0xE4, 0xBD,
  0x32, 0xBB, 0xE3, 0xBD, 0xA7, 0xDB, 0xA1, 0x3C, 0x93, 0xA9,
  0xE6, 0x3D, 0x00, 0x00, 0x00, 0x00, 0x00, 0x00, 0x00, 0x80,
  0x00, 0x00, 0x00, 0x80, 0x00, 0x00, 0x00, 0x80, 0xBF, 0xE4,
  0x03, 0x3D, 0x4F, 0x82, 0x40, 0x3D, 0xB9, 0xF3, 0xED, 0xBD,
  0x00, 0x00, 0x00, 0x80, 0x00, 0x00, 0x00, 0x80, 0xCB, 0xBE,
  0x13, 0x3E, 0x00, 0x00, 0x00, 0x80, 0xFA, 0x1A, 0x0B, 0x3E,
  0x00, 0x00, 0x00, 0x80, 0xEF, 0x19, 0x3D, 0x3E, 0x00, 0x00,
  0x00, 0x80, 0x6A, 0xB7, 0xF2, 0xBD, 0x69, 0x2A, 0xB7, 0x3D,
  0x00, 0x00, 0x00, 0x80, 0x00, 0x2F, 0x41, 0x3D, 0x00, 0x00,
  0x00, 0x80, 0x81, 0x97, 0xE0, 0x3D, 0x00, 0x00, 0x00, 0x80,
  0xEE, 0x55, 0xB6, 0xBD, 0x00, 0x00, 0x00, 0x00, 0x00, 0x00,
  0x00, 0x80, 0x9C, 0x0B, 0xED, 0x3D, 0x00, 0x00, 0x00, 0x80,
  0xAD, 0x0B, 0xEA, 0xBD, 0x00, 0x00, 0x00, 0x80, 0x2B, 0x38,
  0xD2, 0x3D, 0x1A, 0xED, 0xD1, 0xBD, 0x00, 0x00, 0x00, 0x80,
  0x00, 0x00, 0x00, 0x80, 0x14, 0xD1, 0xF1, 0xBD, 0x00, 0x00,
  0x00, 0x80, 0xA0, 0x93, 0xE3, 0xBD, 0x39, 0x9A, 0x04, 0x3E,
  0x00, 0x00, 0x00, 0x00, 0x00, 0x00, 0x00, 0x80, 0x00, 0x00,
  0x00, 0x80, 0xFD, 0x0E, 0xAC, 0xBD, 0x38, 0xCC, 0xA4, 0xBD,
  0x00, 0x00, 0x00, 0x80, 0x64, 0x9C, 0x83, 0xBE, 0x00, 0x00,
  0x00, 0x80, 0x10, 0x01, 0x09, 0x3E, 0x00, 0x00, 0x00, 0x00,
  0xD8, 0xAC, 0xC8, 0xBD, 0x00, 0x00, 0x00, 0x80, 0x58, 0xD7,
  0x75, 0xBD, 0x00, 0x00, 0x00, 0x80, 0xD4, 0x0B, 0xDD, 0x3D,
  0xB8, 0x8E, 0x57, 0xBE, 0x00, 0x00, 0x00, 0x80, 0xB7, 0xD6,
  0x2E, 0x3E, 0x00, 0x00, 0x00, 0x80, 0xC3, 0x2A, 0x11, 0x3E,
  0x00, 0x00, 0x00, 0x80, 0x00, 0x00, 0x00, 0x80, 0x00, 0x00,
  0x00, 0x80, 0xFB, 0x43, 0xEE, 0xBD, 0xDB, 0x59, 0x78, 0xBD,
  0x00, 0x00, 0x00, 0x80, 0xDD, 0xF0, 0x9E, 0x3D, 0xF9, 0x63,
  0x5D, 0xBD, 0x00, 0x00, 0x00, 0x80, 0x00, 0x00, 0x00, 0x80,
  0x25, 0x6E, 0xD4, 0x3D, 0x00, 0x00, 0x00, 0x80, 0xF6, 0x15,
  0x02, 0x3E, 0x00, 0x00, 0x00, 0x80, 0x00, 0x00, 0x00, 0x80,
  0x7C, 0xF5, 0x14, 0x3E, 0x89, 0x00, 0xC8, 0xBD, 0x0F, 0xFF,
  0x14, 0xBE, 0x00, 0x00, 0x00, 0x80, 0x00, 0x00, 0x00, 0x80,
  0x50, 0x48, 0xD8, 0xBD, 0x5A, 0x72, 0x86, 0x3D, 0x00, 0x00,
  0x00, 0x80, 0x5B, 0x51, 0x57, 0x3D, 0x00, 0x00, 0x00, 0x80,
  0x00, 0x00, 0x00, 0x80, 0x41, 0xAB, 0x37, 0xBE, 0x1C, 0xCD,
  0xB4, 0xBD, 0x00, 0x00, 0x00, 0x80, 0x00, 0x00, 0x00, 0x80,
  0x00, 0x00, 0x00, 0x80, 0x39, 0xE1, 0xE1, 0x3D, 0x15, 0x54,
  0x28, 0xBE, 0x00, 0x00, 0x00, 0x80, 0x00, 0x00, 0x00, 0x80,
  0x6E, 0x26, 0xA0, 0xBD, 0x32, 0xB5, 0x9C, 0x3D, 0x00, 0x00,
  0x00, 0x80, 0x00, 0x00, 0x00, 0x80, 0x3F, 0xBF, 0x8F, 0xBD,
  0x2A, 0xBE, 0x71, 0x3C, 0x00, 0x00, 0x00, 0x80, 0x00, 0x00,
  0x00, 0x80, 0xF9, 0x55, 0x02, 0x3E, 0x67, 0x47, 0xDE, 0xBD,
  0xC0, 0xDA, 0xB5, 0x3D, 0x00, 0x00, 0x00, 0x80, 0x00, 0x00,
  0x00, 0x80, 0x51, 0xF3, 0xB5, 0x3D, 0x00, 0x00, 0x00, 0x80,
  0x04, 0x9D, 0x56, 0xBD, 0x00, 0x00, 0x00, 0x80, 0x0D, 0x3D,
  0x60, 0xBE, 0x00, 0x00, 0x00, 0x80, 0x00, 0x00, 0x00, 0x80,
  0x17, 0x9D, 0x09, 0x3E, 0xC6, 0x1D, 0xA9, 0xBD, 0x00, 0x00,
  0x00, 0x00, 0xC0, 0xD2, 0x41, 0x3E, 0x1B, 0x5B, 0x90, 0x3D,
  0x00, 0x00, 0x00, 0x80, 0xED, 0x8B, 0x67, 0xBD, 0xA5, 0x43,
  0x13, 0x3E, 0x00, 0x00, 0x00, 0x80, 0x00, 0x00, 0x00, 0x00,
  0x3F, 0x05, 0xE8, 0xBD, 0x00, 0x00, 0x00, 0x80, 0x00, 0x00,
  0x00, 0x80, 0x2F, 0xE6, 0x12, 0xBE, 0x00, 0x00, 0x00, 0x80,
  0xED, 0x8D, 0x8A, 0xBD, 0x03, 0xA2, 0x3A, 0x3D, 0x00, 0x00,
  0x00, 0x80, 0xB5, 0x1B, 0x1B, 0x3E, 0xB3, 0xE8, 0x69, 0x3E,
  0x00, 0x00, 0x00, 0x80, 0x00, 0x00, 0x00, 0x80, 0x00, 0x00,
  0x00, 0x80, 0x47, 0x25, 0x91, 0x3D, 0x00, 0x00, 0x00, 0x80,
  0xC6, 0x00, 0xC4, 0xBD, 0xFF, 0x86, 0xE0, 0x3D, 0x00, 0x00,
  0x00, 0x80, 0x15, 0x70, 0xEC, 0xBD, 0x00, 0x00, 0x00, 0x80,
  0x59, 0xA8, 0xD2, 0x3D, 0xD2, 0xB8, 0x2A, 0x3E, 0x00, 0x00,
  0x00, 0x80, 0x00, 0x00, 0x00, 0x80, 0x0D, 0x3A, 0xD1, 0xBD,
  0x00, 0x00, 0x00, 0x80, 0x3C, 0x24, 0x7E, 0x3D, 0x00, 0x00,
  0x00, 0x80, 0x43, 0xF9, 0x79, 0x3D, 0x00, 0x00, 0x00, 0x80,
  0x00, 0x00, 0x00, 0x80, 0xA9, 0x38, 0x19, 0xBE, 0x00, 0x00,
  0x00, 0x80, 0x00, 0x00, 0x00, 0x80, 0x0D, 0x27, 0xC2, 0x3D,
  0x97, 0x58, 0x71, 0xBE, 0x00, 0x00, 0x00, 0x80, 0x00, 0x00,
  0x00, 0x80, 0xE6, 0x0F, 0x90, 0xBD, 0x68, 0x51, 0x97, 0x3C,
  0x16, 0xC6, 0xBE, 0x3D, 0x00, 0x00, 0x00, 0x80, 0x00, 0x00,
  0x00, 0x80, 0xD8, 0x6B, 0xBA, 0xBD, 0x00, 0x00, 0x00, 0x80,
  0x2B, 0x26, 0x79, 0x3E, 0x22, 0x93, 0xC8, 0xBD, 0x00, 0x00,
  0x00, 0x80, 0xE9, 0x66, 0xCD, 0x3C, 0x76, 0x16, 0x30, 0xBE,
  0x00, 0x00, 0x00, 0x00, 0x00, 0x00, 0x00, 0x80, 0x03, 0x70,
  0x26, 0xBE, 0x16, 0xFC, 0x20, 0xBE, 0x00, 0x00, 0x00, 0x80,
  0x00, 0x00, 0x00, 0x80, 0x00, 0x00, 0x00, 0x80, 0x76, 0x00,
  0x85, 0x3D, 0xCC, 0xD4, 0xF6, 0xBD, 0x00, 0x00, 0x00, 0x00,
  0x00, 0x00, 0x00, 0x80, 0x77, 0x12, 0x3B, 0x3E, 0x9D, 0xCD,
  0x0C, 0xBE, 0x00, 0x00, 0x00, 0x80, 0x00, 0x00, 0x00, 0x80,
  0x01, 0x2B, 0x4C, 0x3D, 0x00, 0x00, 0x00, 0x80, 0x1C, 0xD6,
  0x73, 0xBD, 0x12, 0xFA, 0xE3, 0x3D, 0x00, 0x00, 0x00, 0x80,
  0x00, 0x00, 0x00, 0x80, 0xE2, 0xF2, 0x2B, 0xBE, 0x00, 0x00,
  0x00, 0x00, 0x92, 0x16, 0xC2, 0xBD, 0x65, 0xB8, 0xD7, 0xBD,
  0x00, 0x00, 0x00, 0x80, 0x00, 0x00, 0x00, 0x80, 0x91, 0xAF,
  0xFD, 0xBC, 0x70, 0x6B, 0x57, 0xBD, 0x00, 0x00, 0x00, 0x80,
  0x00, 0x00, 0x00, 0x00, 0xA0, 0xA8, 0x4F, 0xBE, 0x00, 0x00,
  0x00, 0x80, 0x91, 0x39, 0x14, 0xBE, 0x35, 0xE0, 0x3C, 0xBD,
  0x00, 0x00, 0x00, 0x80, 0x6D, 0x50, 0x08, 0x3D, 0x00, 0x00,
  0x00, 0x00, 0x00, 0x00, 0x00, 0x80, 0x50, 0xC0, 0x46, 0x3E,
  0x5A, 0xA2, 0xC7, 0xBD, 0x00, 0x00, 0x00, 0x80, 0x27, 0x8D,
  0x0B, 0xBE, 0x00, 0x00, 0x00, 0x00, 0xE2, 0x63, 0x86, 0xBD,
  0x00, 0x00, 0x00, 0x00, 0x00, 0x00, 0x00, 0x80, 0xBA, 0xF4,
  0x9F, 0xBD, 0x50, 0x59, 0x06, 0xBE, 0x00, 0x00, 0x00, 0x80,
  0x78, 0xFD, 0x1B, 0x3E, 0x00, 0x00, 0x00, 0x00, 0xE1, 0xBD,
  0x24, 0x3E, 0x00, 0x00, 0x00, 0x00, 0x00, 0x00, 0x00, 0x00,
  0x05, 0xF4, 0x31, 0xBE, 0x54, 0xFD, 0x18, 0x3E, 0x00, 0x00,
  0x00, 0x00, 0xD0, 0xC2, 0x18, 0x3E, 0x9B, 0x9A, 0x41, 0x3E,
  0x00, 0x00, 0x00, 0x80, 0x00, 0x00, 0x00, 0x80, 0x00, 0x00,
  0x00, 0x80, 0xA1, 0x58, 0xE1, 0x3D, 0x00, 0x00, 0x00, 0x80,
  0x86, 0x8D, 0xCF, 0xBD, 0x18, 0xF9, 0xAD, 0x3C, 0x00, 0x00,
  0x00, 0x00, 0x00, 0x00, 0x00, 0x00, 0x75, 0xE9, 0x00, 0x3E,
  0x00, 0x00, 0x00, 0x80, 0x9A, 0x4B, 0x1E, 0xBE, 0x5A, 0xA0,
  0x6E, 0x3D, 0x00, 0x00, 0x00, 0x80, 0x93, 0xAE, 0x52, 0x3E,
  0x00, 0x00, 0x00, 0x80, 0xFB, 0xAA, 0x38, 0xBE, 0x00, 0x00,
  0x00, 0x80, 0xD2, 0xE1, 0x12, 0xBE, 0x00, 0x00, 0x00, 0x00,
  0x66, 0xD8, 0xF0, 0x3D, 0x00, 0x00, 0x00, 0x80, 0x3B, 0xD3,
  0xDC, 0xBD, 0x0C, 0xE0, 0xCA, 0x3D, 0x00, 0x00, 0x00, 0x80,
  0x00, 0x00, 0x00, 0x00, 0x00, 0x00, 0x00, 0x00, 0x42, 0x13,
  0x9E, 0x3D, 0x8D, 0x14, 0x65, 0x3E, 0x00, 0x00, 0x00, 0x00,
  0x00, 0x00, 0x00, 0x00, 0x00, 0x00, 0x00, 0x80, 0xC6, 0xE3,
  0xD8, 0xBD, 0x23, 0x09, 0xC5, 0xBD, 0x92, 0x7B, 0x12, 0x3E,
  0x00, 0x00, 0x00, 0x00, 0x00, 0x00, 0x00, 0x80, 0xC1, 0x8A,
  0x6F, 0xBD, 0x50, 0x15, 0xF1, 0xBD, 0x00, 0x00, 0x00, 0x00,
  0xF7, 0x85, 0xD9, 0x3D, 0x00, 0x00, 0x00, 0x80, 0xE7, 0x0C,
  0xEA, 0xBD, 0x00, 0x00, 0x00, 0x80, 0x3E, 0xBA, 0x9D, 0xBD,
  0x00, 0x00, 0x00, 0x00, 0x31, 0x89, 0x0B, 0x3E, 0x00, 0x00,
  0x00, 0x00, 0xD3, 0x2F, 0x14, 0x3E, 0x00, 0x00, 0x00, 0x80,
  0x12, 0x47, 0x38, 0xBE, 0xF9, 0x99, 0x40, 0x3E, 0x00, 0x00,
  0x00, 0x80, 0x00, 0x00, 0x00, 0x80, 0xAD, 0x35, 0x08, 0x3E,
  0x00, 0x00, 0x00, 0x80, 0xE8, 0x3A, 0xC8, 0xBD, 0x00, 0x00,
  0x00, 0x80, 0x06, 0x41, 0x53, 0x3D, 0x3D, 0xDA, 0xB9, 0x3D,
  0x00, 0x00, 0x00, 0x80, 0x00, 0x00, 0x00, 0x00, 0x95, 0xAD,
  0xBD, 0x3D, 0x00, 0x00, 0x00, 0x80, 0xFC, 0x6C, 0xFD, 0xBD,
  0x00, 0x00, 0x00, 0x00, 0x72, 0xA3, 0xE5, 0xBD, 0x00, 0x00,
  0x00, 0x80, 0x00, 0x00, 0x00, 0x00, 0xC4, 0xDF, 0x7F, 0x3D,
  0x00, 0x00, 0x00, 0x80, 0x00, 0x00, 0x00, 0x00, 0x3C, 0xAD,
  0x25, 0x3E, 0x31, 0x1F, 0x95, 0x3D, 0xA4, 0x7B, 0xEF, 0xBD,
  0x00, 0x00, 0x00, 0x00, 0x00, 0x00, 0x00, 0x00, 0x62, 0xEF,
  0x36, 0xBE, 0xED, 0xF3, 0x84, 0xBD, 0x00, 0x00, 0x00, 0x80,
  0x51, 0x98, 0x0C, 0xBC, 0x00, 0x00, 0x00, 0x80, 0x2A, 0xD6,
  0xA8, 0xBB, 0x00, 0x00, 0x00, 0x80, 0xC0, 0x53, 0x8B, 0xBD,
  0x00, 0x00, 0x00, 0x80, 0x8D, 0x86, 0x84, 0x3D, 0x00, 0x00,
  0x00, 0x80, 0x00, 0x00, 0x00, 0x80, 0x47, 0x8C, 0x81, 0x3D,
  0x8F, 0x9E, 0xF0, 0xBD, 0x00, 0x00, 0x00, 0x00, 0x26, 0x91,
  0x0B, 0xBE, 0x00, 0x00, 0x00, 0x80, 0xC1, 0x38, 0x0C, 0xBE,
  0x00, 0x00, 0x00, 0x00, 0x00, 0x00, 0x00, 0x80, 0x60, 0xAC,
  0x73, 0x3D, 0x00, 0x00, 0x00, 0x80, 0x00, 0x00, 0x00, 0x80,
  0x30, 0x2D, 0x92, 0x3D, 0x3C, 0x5D, 0x10, 0x3D, 0x00, 0x00,
  0x00, 0x80, 0x00, 0x00, 0x00, 0x80, 0xCA, 0x5C, 0x31, 0x3D,
  0xA1, 0x70, 0x83, 0x3C, 0x8C, 0xE8, 0x22, 0xBE, 0x8E, 0x60,
  0xD0, 0x3D, 0x00, 0x00, 0x00, 0x80, 0x00, 0x00, 0x00, 0x80,
  0x00, 0x00, 0x00, 0x80, 0xC9, 0xAF, 0xCA, 0x3D, 0xD0, 0x15,
  0x2F, 0xBE, 0x00, 0x00, 0x00, 0x80, 0x00, 0x00, 0x00, 0x80,
  0x23, 0xFB, 0x5E, 0xBD, 0x00, 0x00, 0x00, 0x00, 0x9D, 0x6A,
  0x45, 0xBE, 0x4B, 0x17, 0x81, 0x3D, 0x00, 0x00, 0x00, 0x80,
  0x9C, 0xB2, 0x09, 0xBE, 0x00, 0x00, 0x00, 0x00, 0x00, 0x00,
  0x00, 0x00, 0x65, 0x52, 0x0E, 0x3E, 0x00, 0x00, 0x00, 0x00,
  0x4A, 0x3F, 0x65, 0x3E, 0xFD, 0xBB, 0xDD, 0xBC, 0x00, 0x00,
  0x00, 0x80, 0x00, 0x00, 0x00, 0x00, 0xB2, 0x25, 0x23, 0x3C,
  0x00, 0x00, 0x00, 0x00, 0xE5, 0xE8, 0xF5, 0x3D, 0x00, 0x00,
  0x00, 0x80, 0xBA, 0x9E, 0x05, 0x3E, 0x00, 0x00, 0x00, 0x00,
  0x7A, 0xA6, 0xEF, 0xBD, 0x2F, 0x8C, 0xAE, 0xBD, 0x00, 0x00,
  0x00, 0x80, 0x00, 0x00, 0x00, 0x80, 0x03, 0x59, 0x0C, 0x3E,
  0x6D, 0x00, 0x13, 0x3E, 0x00, 0x00, 0x00, 0x80, 0xC3, 0xBD,
  0x1D, 0x3E, 0x49, 0x9E, 0xC7, 0xBD, 0x00, 0x00, 0x00, 0x80,
  0x00, 0x00, 0x00, 0x00, 0x00, 0x00, 0x00, 0x80, 0xE6, 0xB2,
  0xE9, 0x3D, 0xC2, 0x12, 0xEB, 0x3D, 0x00, 0x00, 0x00, 0x80,
  0x00, 0x00, 0x00, 0x80, 0x7A, 0xE5, 0xCE, 0xBD, 0x00, 0x00,
  0x00, 0x00, 0x66, 0x17, 0x63, 0x3D, 0x00, 0x00, 0x00, 0x00,
  0x00, 0x00, 0x00, 0x00, 0xB1, 0x41, 0x72, 0x3E, 0xDF, 0xD7,
  0xCF, 0x3D, 0x00, 0x00, 0x00, 0x00, 0x21, 0xB7, 0xB4, 0x3D,
  0x9C, 0xF4, 0x8B, 0xBD, 0x00, 0x00, 0x00, 0x00, 0xE5, 0xD4,
  0xDF, 0x3D, 0x00, 0x00, 0x00, 0x00, 0x58, 0xE2, 0xA6, 0xBD,
  0x00, 0x00, 0x00, 0x00, 0x5C, 0x38, 0xB6, 0xBD, 0x00, 0x00,
  0x00, 0x00, 0x00, 0x00, 0x00, 0x80, 0xA6, 0xF4, 0xDB, 0x3D,
  0xBE, 0xA9, 0x36, 0xBD, 0x00, 0x00, 0x00, 0x00, 0xF1, 0x5A,
  0xDE, 0xBD, 0x00, 0x00, 0x00, 0x80, 0x6D, 0xC6, 0x48, 0x3E,
  0x17, 0xD9, 0x3A, 0x3E, 0x00, 0x00, 0x00, 0x00, 0x00, 0x00,
  0x00, 0x80, 0x93, 0x49, 0xE8, 0xBD, 0x00, 0x00, 0x00, 0x00,
  0x9A, 0x52, 0x6D, 0x3E, 0x00, 0x00, 0x00, 0x00, 0x00, 0x00,
  0x00, 0x00, 0xEE, 0x00, 0xCF, 0x3D, 0xC7, 0x5E, 0xEE, 0xBD,
  0x00, 0x00, 0x00, 0x00, 0x00, 0x00, 0x00, 0x80, 0x11, 0xC3,
  0x19, 0x3E, 0x0F, 0x1D, 0x23, 0x3E, 0x00, 0x00, 0x00, 0x00,
  0xB0, 0x8E, 0xCB, 0x3D, 0xAD, 0xA3, 0xB0, 0xBD, 0x00, 0x00,
  0x00, 0x00, 0x00, 0x00, 0x00, 0x80, 0x00, 0x00, 0x00, 0x80,
  0x00, 0x00, 0x00, 0x80, 0xA9, 0xB8, 0x4D, 0xBD, 0xCE, 0x04,
  0xD9, 0xBD, 0xA2, 0xBD, 0x73, 0xBD, 0x00, 0x00, 0x00, 0x80,
  0x4A, 0x1D, 0x18, 0xBE, 0x00, 0x00, 0x00, 0x80, 0xB3, 0xC6,
  0xE2, 0x3D, 0x00, 0x00, 0x00, 0x00, 0x00, 0x00, 0x00, 0x80,
  0x1A, 0x7C, 0x71, 0xBD, 0x00, 0x00, 0x00, 0x80, 0x48, 0x4E,
  0xB1, 0xBD, 0x00, 0x00, 0x00, 0x80, 0xDE, 0xD5, 0x75, 0xBD,
  0xBB, 0x17, 0xF9, 0xBD, 0xD2, 0x7B, 0xEA, 0x3D, 0x00, 0x00,
  0x00, 0x00, 0x00, 0x00, 0x00, 0x80, 0x1D, 0x38, 0x86, 0x3D,
  0x00, 0x00, 0x00, 0x80, 0x00, 0x00, 0x00, 0x00, 0xFE, 0x90,
  0x62, 0x3E, 0x00, 0x00, 0x00, 0x00, 0xBA, 0xF6, 0xD1, 0xBC,
  0x00, 0x00, 0x00, 0x00, 0xD8, 0x76, 0xB8, 0x3D, 0x07, 0x95,
  0x3A, 0x3E, 0x00, 0x00, 0x00, 0x00, 0x00, 0x00, 0x00, 0x80,
  0x4A, 0x30, 0x4C, 0xBE, 0x2E, 0x5C, 0x44, 0x3D, 0x00, 0x00,
  0x00, 0x00, 0x64, 0xBA, 0x5B, 0x3D, 0x00, 0x00, 0x00, 0x00,
  0x00, 0x00, 0x00, 0x80, 0x00, 0x00, 0x00, 0x00, 0xFA, 0x55,
  0x04, 0xBE, 0x51, 0x98, 0xD6, 0xBD, 0x00, 0x00, 0x00, 0x80,
  0xF5, 0x64, 0xB2, 0xBD, 0x00, 0x00, 0x00, 0x80, 0x06, 0x5E,
  0xEB, 0x3D, 0x00, 0x00, 0x00, 0x00, 0xC4, 0x86, 0xC1, 0x3D,
  0x92, 0xDA, 0xC5, 0xBD, 0x00, 0x00, 0x00, 0x00, 0xAC, 0xE6,
  0x40, 0x3E, 0x00, 0x00, 0x00, 0x80, 0x00, 0x00, 0x00, 0x80,
  0xBE, 0x16, 0x29, 0xBD, 0x00, 0x00, 0x00, 0x00, 0x5D, 0x3D,
  0x00, 0x3E, 0xEB, 0x56, 0xA3, 0xBD, 0x00, 0x00, 0x00, 0x80,
  0x36, 0x0B, 0x58, 0x3D, 0x00, 0x00, 0x00, 0x00, 0x2F, 0xFB,
  0x46, 0xBE, 0x00, 0x00, 0x00, 0x80, 0x00, 0x00, 0x00, 0x80,
  0x8E, 0x3B, 0x6B, 0xBE, 0x00, 0x00, 0x00, 0x80, 0x63, 0x15,
  0x83, 0xBD, 0xB3, 0x9A, 0x26, 0xBE, 0x96, 0x00, 0xC6, 0xBC,
  0x00, 0x00, 0x00, 0x80, 0x00, 0x00, 0x00, 0x80, 0x00, 0x00,
  0x00, 0x80, 0x00, 0x00, 0x00, 0x00, 0xAE, 0x4E, 0x8B, 0x3D,
  0xBD, 0xC1, 0xAF, 0xBD, 0x00, 0x00, 0x00, 0x00, 0x00, 0x00,
  0x00, 0x80, 0x69, 0x9A, 0x3F, 0x3E, 0xC0, 0x3F, 0xD2, 0xBD,
  0xAF, 0xC2, 0x04, 0xBE, 0x0D, 0x47, 0x7A, 0x3D, 0x00, 0x00,
  0x00, 0x80, 0x00, 0x00, 0x00, 0x80, 0x00, 0x00, 0x00, 0x80,
  0x7A, 0x06, 0x16, 0xBE, 0x00, 0x00, 0x00, 0x80, 0x9C, 0x93,
  0x6F, 0x3D, 0x3C, 0x69, 0x35, 0xBE, 0x00, 0x00, 0x00, 0x80,
  0xA8, 0xA5, 0x23, 0x3E, 0x00, 0x00, 0x00, 0x00, 0x00, 0x00,
  0x00, 0x00, 0xC7, 0xE5, 0x02, 0x3E, 0x92, 0xCD, 0xC5, 0xBD,
  0x00, 0x00, 0x00, 0x00, 0x00, 0x00, 0x00, 0x80, 0x0F, 0x8D,
  0x7D, 0xBD, 0x4D, 0xB8, 0x6C, 0x3D, 0x00, 0x00, 0x00, 0x80,
  0x00, 0x00, 0x00, 0x80, 0xB9, 0xAA, 0x1F, 0xBE, 0x00, 0x00,
  0x00, 0x80, 0xD2, 0x83, 0x06, 0xBE, 0xB8, 0xB7, 0x35, 0x3E,
  0x99, 0x95, 0x01, 0x3E, 0x00, 0x00, 0x00, 0x80, 0x00, 0x00,
  0x00, 0x80, 0x7A, 0xCF, 0x09, 0xBE, 0x00, 0x00, 0x00, 0x00,
  0xFF, 0x34, 0x86, 0xBD, 0x00, 0x00, 0x00, 0x80, 0x38, 0xCC,
  0x4D, 0xBE, 0x00, 0x00, 0x00, 0x80, 0xBF, 0xA7, 0x0E, 0xBE,
  0x00, 0x00, 0x00, 0x80, 0x9C, 0xC8, 0xF7, 0x3D, 0x00, 0x00,
  0x00, 0x80, 0x00, 0x00, 0x00, 0x00, 0xF8, 0x35, 0xE7, 0x3D,
  0xAD, 0x08, 0xB8, 0x3D, 0x00, 0x00, 0x00, 0x00, 0x18, 0xCA,
  0xD3, 0x3D, 0x00, 0x00, 0x00, 0x80, 0x22, 0x97, 0xC4, 0x3D,
  0x00, 0x00, 0x00, 0x80, 0x0E, 0xB4, 0x36, 0x3C, 0x00, 0x00,
  0x00, 0x80, 0x00, 0x00, 0x00, 0x00, 0x35, 0x47, 0x6E, 0x3D,
  0x00, 0x00, 0x00, 0x00, 0xD8, 0xF4, 0xE0, 0xBD, 0xC3, 0xD1,
  0x13, 0xBE, 0x00, 0x00, 0x00, 0x00, 0x00, 0x00, 0x00, 0x80,
  0x34, 0x8A, 0x5B, 0xBE, 0x00, 0x00, 0x00, 0x00, 0xB1, 0x12,
  0x1A, 0x3E, 0x00, 0x00, 0x00, 0x00, 0x77, 0x99, 0x10, 0x3E,
  0x00, 0x00, 0x00, 0x00, 0xAE, 0x48, 0xA4, 0xBC, 0x00, 0x00,
  0x00, 0x00, 0x4F, 0x2D, 0x97, 0xBD, 0x0D, 0x44, 0x20, 0x3E,
  0x0B, 0xAF, 0x49, 0xBD, 0x00, 0x00, 0x00, 0x00, 0x00, 0x00,
  0x00, 0x80, 0x00, 0x00, 0x00, 0x00, 0x54, 0xB8, 0x12, 0x3E,
  0x00, 0x00, 0x00, 0x00, 0xCB, 0xCF, 0x10, 0xBE, 0x00, 0x00,
  0x00, 0x00, 0x00, 0x00, 0x00, 0x00, 0x04, 0x58, 0xE3, 0xBD,
  0xBA, 0x89, 0x17, 0xBD, 0xF3, 0x8C, 0x0A, 0xBE, 0x00, 0x00,
  0x00, 0x00, 0xF0, 0x57, 0x04, 0xBE, 0x00, 0x00, 0x00, 0x00,
  0x00, 0x00, 0x00, 0x00, 0x00, 0x00, 0x00, 0x00, 0x87, 0x36,
  0x27, 0x3E, 0x59, 0x3F, 0x13, 0xBE, 0x00, 0x00, 0x00, 0x00,
  0x30, 0xF0, 0xA0, 0xBD, 0xD7, 0x64, 0x13, 0x3D, 0x00, 0x00,
  0x00, 0x80, 0x9C, 0xF7, 0x20, 0x3E, 0x00, 0x00, 0x00, 0x00,
  0x7F, 0x5E, 0x93, 0xBD, 0x00, 0x00, 0x00, 0x00, 0x70, 0x25,
  0xF3, 0xBD, 0x00, 0x00, 0x00, 0x00, 0x5B, 0xE8, 0xB1, 0x3D,
  0x00, 0x00, 0x00, 0x80, 0x00, 0x00, 0x00, 0x00, 0x0D, 0xCA,
  0x3A, 0x3E, 0x39, 0xF5, 0x0E, 0x3E, 0x00, 0x00, 0x00, 0x00,
  0x6D, 0xB9, 0x94, 0x3D, 0x00, 0x00, 0x00, 0x00, 0x00, 0x00,
  0x00, 0x00, 0xBE, 0xA7, 0xEA, 0x3C, 0x2F, 0x50, 0x92, 0xBD,
  0x00, 0x00, 0x00, 0x80, 0x4F, 0x7E, 0xB5, 0xBD, 0x00, 0x00,
  0x00, 0x80, 0x00, 0x00, 0x00, 0x80, 0x24, 0x7C, 0xD2, 0x3D,
  0xD6, 0xE1, 0x4B, 0xBE, 0x00, 0x00, 0x00, 0x80, 0x7B, 0x50,
  0x59, 0x3E, 0x00, 0x00, 0x00, 0x00, 0x00, 0x00, 0x00, 0x00,
  0xFD, 0x75, 0xFA, 0xBD, 0x61, 0xD2, 0xF7, 0xBD, 0x00, 0x00,
  0x00, 0x00, 0x40, 0x75, 0x55, 0xBD, 0x00, 0x00, 0x00, 0x80,
  0x00, 0x00, 0x00, 0x80, 0x00, 0x00, 0x00, 0x00, 0xBC, 0x12,
  0x48, 0x3D, 0xFC, 0xA1, 0x09, 0x3E, 0x00, 0x00, 0x00, 0x00,
  0xB9, 0x1D, 0xEE, 0xBD, 0x00, 0x00, 0x00, 0x80, 0xCA, 0xD7,
  0x11, 0xBE, 0x9C, 0x5C, 0x10, 0xBE, 0x00, 0x00, 0x00, 0x80,
  0xBC, 0x05, 0x9A, 0xBD, 0x00, 0x00, 0x00, 0x00, 0x00, 0x00,
  0x00, 0x00, 0x92, 0x9C, 0x18, 0x3E, 0x4A, 0x97, 0xCE, 0x3D,
  0x00, 0x00, 0x00, 0x80, 0xD7, 0x25, 0xB8, 0xBC, 0x00, 0x00,
  0x00, 0x80, 0xF2, 0x34, 0x14, 0xBD, 0x00, 0x00, 0x00, 0x00,
  0x00, 0x00, 0x00, 0x00, 0x00, 0x00, 0x00, 0x00, 0x64, 0x6E,
  0x13, 0x3E, 0xA2, 0x16, 0x1F, 0xBD, 0x04, 0x4F, 0x34, 0x3E,
  0x6F, 0xD8, 0x29, 0x3E, 0x00, 0x00, 0x00, 0x80, 0x00, 0x00,
  0x00, 0x80, 0x00, 0x00, 0x00, 0x00, 0x49, 0xE7, 0x48, 0xBE,
  0x14, 0x2C, 0x61, 0x3D, 0x00, 0x00, 0x00, 0x00, 0xA4, 0xB8,
  0xD0, 0x3C, 0x00, 0x00, 0x00, 0x80, 0xA4, 0x1F, 0xF8, 0xBC,
  0x00, 0x00, 0x00, 0x80, 0x00, 0x00, 0x00, 0x80, 0x4C, 0x04,
  0xDA, 0x3D, 0x5E, 0x98, 0x53, 0xBE, 0x00, 0x00, 0x00, 0x00,
  0x08, 0xD8, 0xA3, 0x3C, 0x00, 0x00, 0x00, 0x80, 0x00, 0x00,
  0x00, 0x00, 0x00, 0x02, 0xA4, 0xBD, 0x00, 0x00, 0x00, 0x80,
  0xFB, 0x6C, 0x47, 0xBD, 0x00, 0x00, 0x00, 0x00, 0xA2, 0x12,
  0xB1, 0x3C, 0x00, 0x00, 0x00, 0x80, 0x79, 0xAA, 0x64, 0x3E,
  0x00, 0x00, 0x00, 0x80, 0xCF, 0x70, 0xD3, 0x3D, 0x00, 0x00,
  0x00, 0x80, 0x00, 0x00, 0x00, 0x00, 0x36, 0xAB, 0x9A, 0xBD,
  0x11, 0xEA, 0x1E, 0xBD, 0x32, 0x55, 0xEE, 0xBC, 0x00, 0x00,
  0x00, 0x00, 0x00, 0x00, 0x00, 0x80, 0xF0, 0xF0, 0xBF, 0xBD,
  0x00, 0x00, 0x00, 0x80, 0x1E, 0x8F, 0x72, 0xBD, 0x94, 0xE8,
  0xCD, 0xBD, 0x00, 0x00, 0x00, 0x80, 0x00, 0x00, 0x00, 0x00,
  0x26, 0x7C, 0x04, 0x3E, 0x85, 0xFE, 0xF9, 0x3D, 0x00, 0x00,
  0x00, 0x80, 0x62, 0x54, 0x12, 0xBE, 0x00, 0x00, 0x00, 0x00,
  0x36, 0xF6, 0xA0, 0xBD, 0x00, 0x00, 0x00, 0x80, 0xC7, 0xE1,
  0xC7, 0x3D, 0x9A, 0x03, 0xFD, 0x3D, 0x00, 0x00, 0x00, 0x80,
  0x00, 0x00, 0x00, 0x80, 0x6E, 0x9F, 0x0B, 0xBD, 0x00, 0x00,
  0x00, 0x00, 0x00, 0x00, 0x00, 0x80, 0x86, 0xEA, 0x2A, 0xBE,
  0x00, 0x00, 0x00, 0x80, 0x00, 0x00, 0x00, 0x80, 0xD4, 0xB3,
  0x1C, 0x3D, 0x41, 0x39, 0xA9, 0x3D, 0x3A, 0xAA, 0xAC, 0xBC,
  0x00, 0x00, 0x00, 0x80, 0x00, 0x00, 0x00, 0x80, 0x39, 0xF2,
  0xD8, 0x3D, 0x00, 0x00, 0x00, 0x00, 0x29, 0x2C, 0x67, 0xBE,
  0x7D, 0xE6, 0x91, 0xBD, 0x00, 0x00, 0x00, 0x80, 0x91, 0xE5,
  0x3E, 0xBE, 0x45, 0x81, 0x80, 0x3D, 0x00, 0x00, 0x00, 0x80,
  0x00, 0x00, 0x00, 0x00, 0xA1, 0x04, 0x28, 0xBE, 0x00, 0x00,
  0x00, 0x00, 0xB2, 0x5C, 0x0D, 0xBE, 0x00, 0x00, 0x00, 0x00,
  0x55, 0x20, 0x91, 0x3D, 0x00, 0x00, 0x00, 0x80, 0xE6, 0x35,
  0xE5, 0xBD, 0x00, 0x00, 0x00, 0x80, 0x55, 0x91, 0xFC, 0xBD,
  0xEA, 0x7C, 0x92, 0xBD, 0x00, 0x00, 0x00, 0x00, 0x00, 0x00,
  0x00, 0x00, 0xEC, 0xF4, 0x87, 0x3D, 0x00, 0x00, 0x00, 0x80,
  0xFD, 0xCF, 0x16, 0x3E, 0x00, 0x00, 0x00, 0x00, 0x00, 0x00,
  0x00, 0x00, 0x00, 0x00, 0x00, 0x00, 0x2C, 0xF2, 0xB1, 0xBD,
  0x2E, 0xB8, 0x4D, 0x3D, 0x69, 0x5C, 0x26, 0x3E, 0x12, 0xF0,
  0x2C, 0x3E, 0x00, 0x00, 0x00, 0x00, 0x00, 0x00, 0x00, 0x80,
  0x00, 0x00, 0x00, 0x00, 0xA1, 0x0B, 0x09, 0xBE, 0xEE, 0x99,
  0xEE, 0xBD, 0x00, 0x00, 0x00, 0x00, 0x00, 0x00, 0x00, 0x00,
  0x00, 0x00, 0x00, 0x00, 0x2A, 0xBA, 0x23, 0x3E, 0x77, 0x40,
  0x02, 0x3E, 0x8B, 0x9A, 0x07, 0x3E, 0x00, 0x00, 0x00, 0x80,
  0x00, 0x00, 0x00, 0x00, 0x53, 0x20, 0x1C, 0x3E, 0x00, 0x00,
  0x00, 0x00, 0xA1, 0x1E, 0xE5, 0x3D, 0x00, 0x00, 0x00, 0x00,
  0x22, 0x8C, 0xB9, 0x3D, 0xF9, 0x51, 0x92, 0xBD, 0x00, 0x00,
  0x00, 0x00, 0x28, 0x91, 0x13, 0x3E, 0x00, 0x00, 0x00, 0x00,
  0x57, 0xAD, 0x0C, 0x3E, 0x00, 0x00, 0x00, 0x00, 0x0C, 0xCF,
  0x61, 0x3D, 0x00, 0x00, 0x00, 0x00, 0xE9, 0x40, 0x8F, 0xBD,
  0x5C, 0x0F, 0x3B, 0x3D, 0x00, 0x00, 0x00, 0x00, 0x00, 0x00,
  0x00, 0x00, 0xAE, 0x97, 0x0A, 0x3E, 0x77, 0x74, 0x63, 0x3E,
  0x00, 0x00, 0x00, 0x00, 0x00, 0x00, 0x00, 0x00, 0x18, 0x26,
  0xC9, 0x3D, 0x00, 0x00, 0x00, 0x00, 0x00, 0x00, 0x00, 0x00,
  0x8E, 0xA1, 0x4E, 0x3E, 0x78, 0xDA, 0x71, 0xBD, 0x4A, 0x10,
  0x72, 0x3D, 0x00, 0x00, 0x00, 0x00, 0x00, 0x00, 0x00, 0x00,
  0x00, 0x00, 0x00, 0x00, 0x31, 0x6A, 0xF4, 0x3D, 0x45, 0xEF,
  0x5D, 0xBE, 0x00, 0x00, 0x00, 0x00, 0xE4, 0x33, 0x00, 0xBE,
  0x00, 0x00, 0x00, 0x00, 0x0D, 0x18, 0x07, 0xBE, 0x00, 0x00,
  0x00, 0x00, 0x21, 0x4B, 0xFA, 0xBD, 0xCC, 0x5F, 0x26, 0xBE,
  0x00, 0x00, 0x00, 0x00, 0x00, 0x00, 0x00, 0x00, 0x00, 0x00,
  0x00, 0x00, 0x88, 0xEB, 0x6E, 0x3D, 0xDD, 0xB2, 0x03, 0xBE,
  0x00, 0x00, 0x00, 0x00, 0x00, 0x00, 0x00, 0x00, 0x00, 0x00,
  0x00, 0x00, 0xBC, 0xF0, 0xFD, 0x3D, 0x25, 0x95, 0x4B, 0xBD,
  0xD8, 0x00, 0x61, 0xBD, 0x00, 0x00, 0x00, 0x00, 0x0A, 0x4A,
  0xBE, 0xBD, 0x00, 0x00, 0x00, 0x00, 0x00, 0x00, 0x00, 0x80,
  0x5C, 0x83, 0x1D, 0xBE, 0x00, 0x00, 0x00, 0x00, 0x05, 0x59,
  0x1D, 0x3D, 0x6A, 0xA8, 0x83, 0xBD, 0x00, 0x00, 0x00, 0x00,
  0x0E, 0xEE, 0xE7, 0x3D, 0x00, 0x00, 0x00, 0x00, 0x00, 0x00,
  0x00, 0x00, 0x00, 0x00, 0x00, 0x00, 0x8C, 0xB6, 0x0F, 0x3D,
  0xDC, 0x94, 0x76, 0x3D, 0x00, 0x00, 0x00, 0x00, 0x00, 0x00,
  0x00, 0x00, 0x0A, 0xA8, 0x06, 0xBE, 0x9B, 0x9F, 0x05, 0x3E,
  0x00, 0x00, 0x00, 0x00, 0x95, 0x55, 0x16, 0x3E, 0x00, 0x00,
  0x00, 0x00, 0x69, 0x66, 0x0E, 0xBE, 0x00, 0x00, 0x00, 0x00,
  0x01, 0xBC, 0x92, 0xBD, 0x00, 0x70, 0xCF, 0xBD, 0x00, 0x00,
  0x00, 0x00, 0x00, 0x00, 0x00, 0x00, 0x25, 0x94, 0x47, 0x3E,
  0x00, 0x00, 0x00, 0x00, 0x45, 0x38, 0x3E, 0xBD, 0x6D, 0x05,
  0xEF, 0x3C, 0x00, 0x00, 0x00, 0x00, 0x8C, 0xD2, 0x9D, 0x3D,
  0x00, 0x00, 0x00, 0x00, 0x31, 0xFA, 0x34, 0xBD, 0xF5, 0xE9,
  0xE3, 0xBD, 0x00, 0x00, 0x00, 0x80, 0x00, 0x00, 0x00, 0x00,
  0x00, 0x00, 0x00, 0x00, 0xF6, 0x8B, 0x41, 0x3E, 0x00, 0x00,
  0x00, 0x00, 0x21, 0xE9, 0x51, 0xBE, 0xBD, 0xAD, 0xDC, 0x3D,
  0x96, 0x2C, 0x83, 0xBD, 0x00, 0x00, 0x00, 0x00, 0x00, 0x00,
  0x00, 0x00, 0x42, 0xA7, 0x12, 0x3E, 0x5A, 0x59, 0xDB, 0xBD,
  0x00, 0x00, 0x00, 0x00, 0x00, 0x00, 0x00, 0x00, 0x26, 0x5F,
  0x48, 0xBD, 0x00, 0x00, 0x00, 0x00, 0xDE, 0x45, 0x07, 0x3E,
  0x00, 0x00, 0x00, 0x00, 0x73, 0xD3, 0x3B, 0x3E, 0x00, 0x00,
  0x00, 0x00, 0x58, 0xB2, 0x32, 0x3E, 0x00, 0x00, 0x00, 0x00,
  0x00, 0x00, 0x00, 0x00, 0x18, 0x84, 0xD6, 0x3D, 0x00, 0x00,
  0x00, 0x00, 0x96, 0x16, 0xA5, 0xBD, 0x00, 0x00, 0x00, 0x00,
  0xDD, 0x9E, 0x28, 0xBE, 0x4A, 0xC7, 0xA3, 0xBD, 0x00, 0x00,
  0x00, 0x00, 0xE5, 0x1E, 0x39, 0xBE, 0x1E, 0x3F, 0xD7, 0x3D,
  0x00, 0x00, 0x00, 0x00, 0x00, 0x00, 0x00, 0x00, 0xB2, 0xAA,
  0x60, 0x3C, 0xBA, 0x1B, 0x01, 0xBD, 0x00, 0x00, 0x00, 0x00,
  0x00, 0x00, 0x00, 0x00, 0x00, 0x00, 0x00, 0x00, 0x00, 0x00,
  0x00, 0x00, 0x1D, 0x64, 0x5B, 0x3E, 0x17, 0x2C, 0x0E, 0xBD,
  0x6D, 0x0E, 0x95, 0xBD, 0x66, 0xBC, 0xE8, 0x3D, 0x00, 0x00,
  0x00, 0x00, 0x00, 0x00, 0x00, 0x00, 0x00, 0x00, 0x00, 0x00,
  0x90, 0xBC, 0x22, 0xBE, 0x00, 0x00, 0x00, 0x00, 0x48, 0x31,
  0x1C, 0x3E, 0x00, 0x00, 0x00, 0x00, 0x77, 0x56, 0xD1, 0xBD,
  0x00, 0x00, 0x00, 0x00, 0x3A, 0xB3, 0x18, 0x3E, 0x00, 0x00,
  0x00, 0x80, 0xD6, 0x8B, 0xD6, 0x3D, 0x14, 0x32, 0x6D, 0x3E,
  0x00, 0x00, 0x00, 0x00, 0xA9, 0x6D, 0x1C, 0xBD, 0x00, 0x00,
  0x00, 0x00, 0x93, 0xAF, 0xCE, 0x3D, 0x00, 0x00, 0x00, 0x00,
  0x33, 0x43, 0xC7, 0xBD, 0x00, 0x00, 0x00, 0x00, 0xF3, 0xBC,
  0xAC, 0x3D, 0x00, 0x00, 0x00, 0x00, 0x00, 0x00, 0x00, 0x00,
  0x8C, 0x72, 0x39, 0x3E, 0x00, 0x00, 0x00, 0x00, 0x0E, 0xA9,
  0xF0, 0x3D, 0x83, 0xB7, 0x4C, 0xBD, 0x00, 0x00, 0x00, 0x00,
  0xAB, 0x1B, 0xA5, 0xBD, 0x00, 0x00, 0x00, 0x00, 0x9E, 0x22,
  0xC8, 0x3D, 0x81, 0x64, 0x28, 0xBE, 0x00, 0x00, 0x00, 0x80,
  0x00, 0x00, 0x00, 0x00, 0x00, 0x00, 0x00, 0x00, 0x63, 0x3F,
  0x0A, 0x3E, 0xB3, 0x0B, 0x25, 0xBE, 0x00, 0x00, 0x00, 0x00,
  0xF4, 0xB1, 0x33, 0xBE, 0x84, 0xE2, 0x17, 0xBE, 0x00, 0x00,
  0x00, 0x00, 0x00, 0x00, 0x00, 0x80, 0x92, 0x28, 0x87, 0xBD,
  0x00, 0x00, 0x00, 0x00, 0x95, 0xCF, 0xDE, 0x3D, 0x00, 0x00,
  0x00, 0x80, 0x00, 0x00, 0x00, 0x00, 0x00, 0x00, 0x00, 0x00,
  0xA5, 0x79, 0xC4, 0xBD, 0x21, 0xF2, 0x0A, 0x3E, 0x00, 0x00,
  0x00, 0x00, 0xD6, 0xF9, 0xC2, 0xBD, 0xD7, 0xB5, 0xC0, 0x3D,
  0x00, 0x00, 0x00, 0x00, 0x00, 0x00, 0x00, 0x00, 0x00, 0x00,
  0x00, 0x00, 0x4C, 0x78, 0x35, 0x3E, 0x07, 0xF3, 0x8E, 0x3D,
  0xA0, 0x58, 0x02, 0xBE, 0x00, 0x00, 0x00, 0x00, 0x00, 0x00,
  0x00, 0x00, 0x79, 0x5F, 0xEA, 0xBD, 0x32, 0xD3, 0x96, 0x3D,
  0x00, 0x00, 0x00, 0x00, 0x00, 0x00, 0x00, 0x00, 0x09, 0x2B,
  0x10, 0xBE, 0x64, 0x0D, 0xC4, 0x3D, 0x00, 0x00, 0x00, 0x00,
  0x00, 0x00, 0x00, 0x00, 0x11, 0x37, 0x32, 0x3D, 0x76, 0x7D,
  0xBD, 0x3D, 0x00, 0x00, 0x00, 0x80, 0x00, 0x00, 0x00, 0x00,
  0xDC, 0xB6, 0x19, 0xBE, 0x00, 0x00, 0x00, 0x00, 0x00, 0x00,
  0x00, 0x00, 0x53, 0xCA, 0x3E, 0xBD, 0x71, 0xDD, 0xEA, 0x3D,
  0x00, 0x00, 0x00, 0x00, 0x00, 0x00, 0x00, 0x00, 0xFF, 0x07,
  0xBB, 0x3D, 0x3B, 0xFD, 0xD0, 0x3D, 0x00, 0x00, 0x00, 0x00,
  0x00, 0x00, 0x00, 0x80, 0x00, 0xD7, 0x8A, 0xBD, 0x94, 0xC4,
  0x69, 0x3D, 0x00, 0x00, 0x00, 0x00, 0xE1, 0xC5, 0x6F, 0xBD,
  0x00, 0x00, 0x00, 0x80, 0x5D, 0x4D, 0x9A, 0xBD, 0x53, 0xE4,
  0xBF, 0x3D, 0x00, 0x00, 0x00, 0x80, 0x00, 0x00, 0x00, 0x80,
  0xE8, 0x4D, 0xE9, 0xBD, 0xBA, 0x3E, 0x61, 0xBD, 0x00, 0x00,
  0x00, 0x00, 0x05, 0xBE, 0x47, 0x3E, 0x00, 0x00, 0x00, 0x00,
  0x03, 0xBD, 0x81, 0x3D, 0x00, 0x00, 0x00, 0x00, 0x48, 0xA2,
  0xC2, 0xBD, 0x00, 0x00, 0x00, 0x80, 0x00, 0x00, 0x00, 0x00,
  0x82, 0x64, 0x03, 0xBE, 0x00, 0x00, 0x00, 0x00, 0x26, 0x54,
  0x2B, 0x3E, 0x00, 0x00, 0x00, 0x00, 0x00, 0x00, 0x00, 0x00,
  0x0C, 0x45, 0xC7, 0x3D, 0xA1, 0x59, 0x4E, 0x3D, 0x00, 0x00,
  0x00, 0x00, 0x15, 0x45, 0xB5, 0x3D, 0x00, 0x00, 0x00, 0x80,
  0xFA, 0x31, 0x5E, 0xBE, 0x00, 0x00, 0x00, 0x00, 0x00, 0x00,
  0x00, 0x80, 0xB4, 0xA4, 0x53, 0x3E, 0xA1, 0xD8, 0x32, 0xBE,
  0x00, 0x00, 0x00, 0x00, 0x79, 0x75, 0x3A, 0x3E, 0x00, 0x00,
  0x00, 0x00, 0x0F, 0x54, 0xCB, 0x3D, 0x00, 0x00, 0x00, 0x00,
  0x15, 0xCA, 0x37, 0xBE, 0x00, 0x00, 0x00, 0x00, 0x35, 0xE1,
  0xF4, 0xBC, 0x00, 0x00, 0x00, 0x00, 0xE7, 0x50, 0x07, 0x3D,
  0x42, 0x41, 0xEA, 0x3C, 0x00, 0x00, 0x00, 0x00, 0x00, 0x00,
  0x00, 0x00, 0x00, 0x00, 0x00, 0x80, 0x40, 0x46, 0x9F, 0x3D,
  0x3F, 0xA3, 0x2E, 0xBE, 0x30, 0x5A, 0xB8, 0x3D, 0x00, 0x00,
  0x00, 0x00, 0x00, 0x00, 0x00, 0x80, 0xC4, 0xA4, 0xB0, 0xBD,
  0x00, 0x00, 0x00, 0x00, 0x77, 0xE2, 0x9D, 0xBD, 0xED, 0x64,
  0x87, 0x3D, 0x00, 0x00, 0x00, 0x80, 0x00, 0x00, 0x00, 0x00,
  0x7B, 0x07, 0x65, 0xBD, 0x00, 0x00, 0x00, 0x80, 0x87, 0x32,
  0x16, 0xBB, 0x8E, 0xA4, 0x6E, 0xBD, 0x83, 0x4D, 0x16, 0x3E,
  0x00, 0x00, 0x00, 0x80, 0x00, 0x00, 0x00, 0x80, 0x00, 0x00,
  0x00, 0x80, 0xB9, 0x46, 0xDC, 0xBD, 0x00, 0x00, 0x00, 0x80,
  0x4E, 0xBF, 0xD0, 0x3D, 0x00, 0x00, 0x00, 0x80, 0xDE, 0xF8,
  0x71, 0xBD, 0x8E, 0xF7, 0x8D, 0x3D, 0x00, 0x00, 0x00, 0x80,
  0x00, 0x00, 0x00, 0x80, 0x20, 0x9F, 0xF5, 0x3A, 0x2A, 0x05,
  0x7A, 0x3D, 0x00, 0x00, 0x00, 0x80, 0xE2, 0xE2, 0xC2, 0x3D,
  0x00, 0x00, 0x00, 0x80, 0x61, 0x0E, 0xC5, 0x3D, 0x00, 0x00,
  0x00, 0x00, 0x00, 0x00, 0x00, 0x80, 0xF0, 0xB9, 0x4D, 0x3E,
  0x00, 0x00, 0x00, 0x00, 0xAF, 0x6B, 0x32, 0xBE, 0x1D, 0x29,
  0x90, 0x3D, 0x00, 0x00, 0x00, 0x80, 0x00, 0x00, 0x00, 0x80,
  0xB3, 0xC7, 0x6B, 0xBD, 0x8D, 0xDE, 0x8B, 0x3D, 0x00, 0x00,
  0x00, 0x80, 0x00, 0x00, 0x00, 0x80, 0x86, 0x83, 0xEB, 0x3D,
  0x60, 0xD9, 0x76, 0x3D, 0x00, 0x00, 0x00, 0x80, 0x00, 0x00,
  0x00, 0x80, 0xA7, 0x8B, 0xC8, 0xBD, 0x00, 0x00, 0x00, 0x00,
  0xA4, 0x3D, 0x90, 0xBD, 0xC5, 0x24, 0xB1, 0x3D, 0x00, 0x00,
  0x00, 0x80, 0x8B, 0x78, 0x31, 0x3D, 0x00, 0x00, 0x00, 0x00,
  0xA3, 0x8F, 0x5B, 0x3D, 0x00, 0x00, 0x00, 0x80, 0x78, 0x3B,
  0xB6, 0xBD, 0x17, 0xEC, 0xD3, 0x3D, 0x00, 0x00, 0x00, 0x80,
  0x00, 0x00, 0x00, 0x00, 0x00, 0x00, 0x00, 0x80, 0x00, 0x00,
  0x00, 0x80, 0xB9, 0x8F, 0xBB, 0x3D, 0xE8, 0xD0, 0x28, 0x3E,
  0x00, 0x00, 0x00, 0x80, 0xDF, 0x45, 0x63, 0xBE, 0x8A, 0xB4,
  0xF1, 0x3D, 0x00, 0x00, 0x00, 0x80, 0x7C, 0xB6, 0xC4, 0xBD,
  0x4B, 0x61, 0x8D, 0x3D, 0x00, 0x00, 0x00, 0x80, 0x00, 0x00,
  0x00, 0x80, 0x6A, 0x86, 0xC9, 0x3D, 0x00, 0x00, 0x00, 0x00,
  0x00, 0x00, 0x00, 0x80, 0x1D, 0x4B, 0x37, 0xBE, 0x00, 0x00,
  0x00, 0x00, 0x78, 0xB3, 0xB1, 0x3D, 0x00, 0x00, 0x00, 0x80,
  0xB0, 0xB9, 0xB4, 0xBD, 0x11, 0xBC, 0x41, 0x3E, 0x00, 0x00,
  0x00, 0x00, 0x00, 0x00, 0x00, 0x00, 0x8C, 0x60, 0x53, 0x3D,
  0x6D, 0x07, 0x41, 0x3D, 0x00, 0x00, 0x00, 0x80, 0x00, 0x00,
  0x00, 0x00, 0x30, 0xA0, 0x13, 0x3E, 0x00, 0x00, 0x00, 0x00,
  0x00, 0x00, 0x00, 0x80, 0xB4, 0x37, 0x17, 0xBE, 0xF2, 0x82,
  0x84, 0xBE, 0x00, 0x00, 0x00, 0x00, 0x49, 0x5B, 0x29, 0xBE,
  0xFB, 0x4D, 0xEE, 0xBD, 0x00, 0x00, 0x00, 0x00, 0x86, 0xBD,
  0xC6, 0xBD, 0x00, 0x00, 0x00, 0x00, 0x76, 0xC8, 0x82, 0xBD,
  0x00, 0x00, 0x00, 0x80, 0x82, 0xC0, 0xA4, 0xBD, 0x00, 0x00,
  0x00, 0x00, 0x4E, 0x1B, 0x13, 0x3E, 0x00, 0x00, 0x00, 0x00,
  0x00, 0x00, 0x00, 0x00, 0x11, 0x81, 0xB2, 0xBD, 0x9C, 0x91,
  0x4E, 0x3E, 0x00, 0x00, 0x00, 0x80, 0xC2, 0x71, 0x30, 0x3E,
  0xBF, 0xBC, 0x0A, 0x3E, 0x00, 0x00, 0x00, 0x80, 0x00, 0x00,
  0x00, 0x80, 0x4E, 0x4A, 0x10, 0x3E, 0x00, 0x00, 0x00, 0x00,
  0x8C, 0x8A, 0x3A, 0x3E, 0x00, 0x00, 0x00, 0x00, 0x00, 0x00,
  0x00, 0x80, 0x00, 0x00, 0x00, 0x80, 0x9E, 0x5E, 0xDB, 0xBD,
  0x9E, 0x3A, 0xC6, 0x3D, 0x73, 0xC7, 0xEF, 0xBD, 0x00, 0x00,
  0x00, 0x00, 0x00, 0x00, 0x00, 0x00, 0x4B, 0x41, 0x39, 0x3E,
  0x00, 0x00, 0x00, 0x00, 0x00, 0x00, 0x00, 0x80, 0xD8, 0x9F,
  0x4F, 0x3E, 0xA8, 0x33, 0xA1, 0x3D, 0x87, 0x62, 0xD8, 0xBD,
  0x00, 0x00, 0x00, 0x80, 0x70, 0xEB, 0xB3, 0x3C, 0x00, 0x00,
  0x00, 0x80, 0xAF, 0x32, 0x16, 0x3E, 0x00, 0x00, 0x00, 0x00,
  0x00, 0x00, 0x00, 0x80, 0xC6, 0x5F, 0xAE, 0x3D, 0x00, 0x00,
  0x00, 0x00, 0x7C, 0x89, 0xEA, 0x3C, 0xDC, 0xAC, 0x90, 0x3D,
  0x00, 0x00, 0x00, 0x80, 0x00, 0x00, 0x00, 0x00, 0x00, 0x00,
  0x00, 0x00, 0x37, 0x29, 0x8D, 0x3D, 0x7E, 0xB5, 0xCC, 0xBD,
  0x00, 0x00, 0x00, 0x00, 0x40, 0x79, 0x01, 0x3E, 0xB2, 0x63,
  0x9E, 0xBD, 0x00, 0x00, 0x00, 0x80, 0x09, 0x49, 0xA8, 0x3D,
  0x3E, 0x58, 0xE4, 0xBD, 0x00, 0x00, 0x00, 0x00, 0x00, 0x00,
  0x00, 0x80, 0x1D, 0xD4, 0x19, 0xBE, 0x00, 0x00, 0x00, 0x00,
  0xEC, 0x55, 0xF8, 0xBD, 0x00, 0x00, 0x00, 0x00, 0x9B, 0x48,
  0xA8, 0xBD, 0xB2, 0x54, 0x8A, 0x3D, 0x00, 0x00, 0x00, 0x00,
  0x00, 0x00, 0x00, 0x80, 0x00, 0x00, 0x00, 0x80, 0x0E, 0xB8,
  0xAB, 0x3D, 0x00, 0x00, 0x00, 0x00, 0xB8, 0x5F, 0xD5, 0xBD,
  0x01, 0x9D, 0x26, 0xBD, 0x57, 0x72, 0x59, 0x3D, 0x00, 0x00,
  0x00, 0x00, 0x00, 0x00, 0x00, 0x00, 0x44, 0x01, 0x8A, 0xBD,
  0x00, 0x00, 0x00, 0x00, 0x00, 0x00, 0x00, 0x80, 0x2D, 0x42,
  0xA6, 0x3D, 0x00, 0x00, 0x00, 0x00, 0x35, 0x65, 0xEA, 0xBD,
  0x00, 0x00, 0x00, 0x00, 0x86, 0x52, 0x8E, 0xBD, 0x00, 0x00,
  0x00, 0x00, 0x00, 0x00, 0x00, 0x00, 0x4B, 0x91, 0x30, 0x3D,
  0x5F, 0xAA, 0x2A, 0xBE, 0x00, 0x00, 0x00, 0x80, 0x00, 0x00,
  0x00, 0x00, 0xD7, 0xD0, 0x07, 0xBE, 0xDB, 0xB0, 0xC8, 0x3D,
  0x00, 0x00, 0x00, 0x00, 0xA7, 0xF1, 0x11, 0xBE, 0x08, 0xC6,
  0x67, 0xBD, 0x00, 0x00, 0x00, 0x00, 0xA3, 0x5B, 0x8E, 0x3D,
  0x00, 0x00, 0x00, 0x80, 0x04, 0x85, 0xE2, 0xBD, 0x00, 0x00,
  0x00, 0x80, 0x00, 0x00, 0x00, 0x80, 0x82, 0x36, 0x86, 0xBD,
  0x00, 0x00, 0x00, 0x80, 0xEE, 0x66, 0x93, 0x3C, 0x00, 0x00,
  0x00, 0x00, 0xA1, 0x7B, 0x04, 0x3E, 0x76, 0xFB, 0xED, 0x3C,
  0x00, 0x00, 0x00, 0x80, 0x38, 0x6B, 0x1D, 0xBE, 0x00, 0x00,
  0x00, 0x80, 0xF8, 0x0E, 0x3C, 0xBE, 0x00, 0x00, 0x00, 0x00,
  0x00, 0x00, 0x00, 0x80, 0x43, 0xF8, 0x3D, 0x3E, 0x1A, 0xF9,
  0x2F, 0x3E, 0x00, 0x00, 0x00, 0x80, 0x00, 0x00, 0x00, 0x00,
  0xAF, 0x63, 0xC8, 0x3D, 0x00, 0x00, 0x00, 0x80, 0x29, 0xF4,
  0x66, 0x3D, 0x37, 0x3B, 0x99, 0x3D, 0x00, 0x00, 0x00, 0x00,
  0x00, 0x00, 0x00, 0x00, 0x26, 0x0B, 0x21, 0xBE, 0x00, 0x00,
  0x00, 0x00, 0x00, 0x00, 0x00, 0x00, 0xC7, 0xBF, 0xCD, 0x3D,
  0xE2, 0x79, 0xFE, 0xBD, 0x00, 0x00, 0x00, 0x80, 0xFE, 0xEF,
  0x8B, 0xBD, 0x00, 0x00, 0x00, 0x80, 0x50, 0x40, 0x0E, 0xBE,
  0x62, 0x1F, 0x87, 0x3D, 0x0C, 0xBD, 0xF5, 0x3D, 0x00, 0x00,
  0x00, 0x00, 0x00, 0x00, 0x00, 0x80, 0x9D, 0xEA, 0xB9, 0x3D,
  0xD3, 0x10, 0x0B, 0x3E, 0x00, 0x00, 0x00, 0x80, 0x00, 0x00,
  0x00, 0x80, 0x00, 0x00, 0x00, 0x00, 0x00, 0x00, 0x00, 0x00,
  0xDA, 0x30, 0xBA, 0xBC, 0xE1, 0x7D, 0xD7, 0xBD, 0xB0, 0xB1,
  0xD4, 0x3D, 0x00, 0x00, 0x00, 0x80, 0x20, 0x2B, 0xDA, 0x3D,
  0x00, 0x00, 0x00, 0x80, 0x00, 0x00, 0x00, 0x00, 0x31, 0x3A,
  0xC2, 0xBD, 0xEC, 0x0B, 0xD0, 0x3D, 0x00, 0x00, 0x00, 0x00,
  0x00, 0x00, 0x00, 0x00, 0x00, 0x00, 0x00, 0x80, 0xAB, 0xF0,
  0xBF, 0xBD, 0x66, 0xC8, 0xC9, 0x3D, 0x27, 0xFA, 0xFD, 0x3C,
  0x00, 0x00, 0x00, 0x80, 0x00, 0x00, 0x00, 0x80, 0x09, 0x03,
  0x2C, 0xBE, 0x00, 0x00, 0x00, 0x80, 0x34, 0x5D, 0x6F, 0x3D,
  0x00, 0x00, 0x00, 0x80, 0x4A, 0x84, 0x08, 0x3E, 0xC6, 0xEB,
  0xD0, 0x3D, 0x00, 0x00, 0x00, 0x80, 0x98, 0x51, 0xD3, 0xBD,
  0x00, 0x00, 0x00, 0x80, 0x00, 0x00, 0x00, 0x00, 0xE9, 0xAA,
  0xB2, 0xBD, 0x18, 0xE5, 0x4E, 0xBE, 0x00, 0x00, 0x00, 0x80,
  0x00, 0x00, 0x00, 0x80, 0x00, 0x00, 0x00, 0x80, 0xDD, 0x44,
  0x94, 0x3D, 0x87, 0x84, 0xA9, 0xBD, 0x00, 0x00, 0x00, 0x00,
  0xF9, 0x4F, 0x75, 0xBD, 0xD0, 0xA4, 0xA5, 0xBD, 0x00, 0x00,
  0x00, 0x00, 0xD5, 0xBF, 0xAE, 0xBD, 0x00, 0x00, 0x00, 0x80,
  0x00, 0x00, 0x00, 0x80, 0x3D, 0xB0, 0x05, 0x3E, 0x57, 0x06,
  0xB1, 0xBD, 0x00, 0x00, 0x00, 0x00, 0x4F, 0xC1, 0xCF, 0xBD,
  0x00, 0x00, 0x00, 0x80, 0x00, 0x00, 0x00, 0x00, 0x00, 0x00,
  0x00, 0x00, 0x04, 0x5A, 0x6D, 0x3D, 0x88, 0xC7, 0x9C, 0x3D,
  0xB1, 0xFE, 0xC6, 0x3D, 0x89, 0xB2, 0x6E, 0xBD, 0x00, 0x00,
  0x00, 0x80, 0x00, 0x00, 0x00, 0x80, 0x00, 0x00, 0x00, 0x00,
  0x00, 0x00, 0x00, 0x80, 0xB6, 0x52, 0xEF, 0x3D, 0xDC, 0xD6,
  0xFC, 0xBD, 0x00, 0x00, 0x00, 0x80, 0x00, 0x00, 0x00, 0x00,
  0xDD, 0x55, 0x97, 0xBD, 0x64, 0xB8, 0x2D, 0x3D, 0x00, 0x00,
  0x00, 0x80, 0xEA, 0xBB, 0xC8, 0x3D, 0x00, 0x00, 0x00, 0x00,
  0x76, 0x86, 0xFD, 0xBD, 0xFD, 0xCE, 0x91, 0xBD, 0xEA, 0x39,
  0xFB, 0x3D, 0x00, 0x00, 0x00, 0x00, 0x00, 0x00, 0x00, 0x80,
  0xC3, 0xAC, 0xF1, 0xBD, 0x00, 0x00, 0x00, 0x00, 0xBD, 0x02,
  0xD1, 0x3D, 0x00, 0x00, 0x00, 0x80, 0x27, 0x2F, 0x27, 0xBE,
  0x00, 0x00, 0x00, 0x00, 0x00, 0x00, 0x00, 0x80, 0x50, 0x42,
  0x31, 0x3E, 0x00, 0x00, 0x00, 0x00, 0x1C, 0xDA, 0xBD, 0xBD,
  0x00, 0x00, 0x00, 0x00, 0xB1, 0x29, 0x28, 0x3E, 0x00, 0x00,
  0x00, 0x80, 0x00, 0x00, 0x00, 0x80, 0xC7, 0x49, 0x65, 0x3D,
  0x68, 0x35, 0x80, 0xBD, 0x00, 0x00, 0x00, 0x00, 0x02, 0x47,
  0xCB, 0xBD, 0x00, 0x00, 0x00, 0x80, 0xAC, 0x9B, 0xD8, 0xBD,
  0x8C, 0x08, 0x3D, 0x3D, 0x00, 0x00, 0x00, 0x80, 0x00, 0x00,
  0x00, 0x80, 0x3B, 0xB3, 0x0B, 0x3E, 0x34, 0xDC, 0xD2, 0x3D,
  0x00, 0x00, 0x00, 0x00, 0x7C, 0xA0, 0xBB, 0xBD, 0x00, 0x00,
  0x00, 0x00, 0x00, 0x00, 0x00, 0x80, 0x7C, 0x3B, 0x2F, 0x3D,
  0x2D, 0x3A, 0x0D, 0x3E, 0x00, 0x00, 0x00, 0x00, 0x37, 0x93,
  0x9F, 0x3D, 0xB7, 0x4E, 0x0E, 0xBE, 0x00, 0x00, 0x00, 0x00,
  0x00, 0x00, 0x00, 0x80, 0x94, 0x3A, 0x10, 0xBE, 0x00, 0x00,
  0x00, 0x80, 0x00, 0x00, 0x00, 0x00, 0xB9, 0x10, 0xFC, 0x3D,
  0x00, 0x00, 0x00, 0x80, 0xAA, 0x5F, 0x3B, 0xBD, 0x19, 0xD3,
  0x98, 0x3D, 0x00, 0x00, 0x00, 0x00, 0x59, 0x79, 0x96, 0x3D,
  0x00, 0x00, 0x00, 0x80, 0x00, 0x00, 0x00, 0x80, 0xC9, 0x92,
  0x5E, 0xBD, 0x00, 0x00, 0x00, 0x80, 0x00, 0x00, 0x00, 0x80,
  0x8B, 0x19, 0xAF, 0x3D, 0xB8, 0x79, 0x85, 0x3D, 0x00, 0x00,
  0x00, 0x80, 0x00, 0x00, 0x00, 0x00, 0x25, 0xB7, 0x83, 0xBD,
  0x18, 0x32, 0xC6, 0x3D, 0x88, 0xBD, 0x4E, 0x3E, 0x00, 0x00,
  0x00, 0x80, 0xB9, 0x06, 0xBD, 0xBD, 0x00, 0x00, 0x00, 0x80,
  0x6E, 0xA5, 0xBE, 0xBD, 0x00, 0x00, 0x00, 0x00, 0x00, 0x00,
  0x00, 0x80, 0x8F, 0xFB, 0x1D, 0x3E, 0x00, 0x00, 0x00, 0x80,
  0x00, 0x00, 0x00, 0x00, 0xDB, 0xA0, 0x14, 0x3E, 0x52, 0xAF,
  0x20, 0x3E, 0x55, 0x4A, 0xFD, 0x3D, 0xE5, 0x6E, 0x04, 0xBE,
  0x00, 0x00, 0x00, 0x00, 0x00, 0x00, 0x00, 0x00, 0x10, 0x57,
  0xC7, 0x3D, 0x50, 0x5E, 0x9B, 0xBD, 0x00, 0x00, 0x00, 0x00,
  0x00, 0x00, 0x00, 0x80, 0x00, 0x00, 0x00, 0x80, 0x00, 0x00,
  0x00, 0x80, 0xAC, 0xB6, 0x88, 0x3D, 0xC8, 0x09, 0x6F, 0x3D,
  0x00, 0x00, 0x00, 0x00, 0x23, 0xAA, 0x86, 0xBE, 0x00, 0x00,
  0x00, 0x00, 0xEE, 0x83, 0x34, 0x3E, 0xF7, 0x0C, 0x01, 0xBE,
  0x00, 0x00, 0x00, 0x00, 0x62, 0x4F, 0x3F, 0x3E, 0x00, 0x00,
  0x00, 0x00, 0x40, 0xA6, 0xFC, 0x3D, 0x1A, 0xF8, 0x55, 0xBD,
  0x00, 0x00, 0x00, 0x80, 0x00, 0x00, 0x00, 0x80, 0x00, 0x00,
  0x00, 0x80, 0xB4, 0xE4, 0xF8, 0xBD, 0x60, 0x3E, 0x29, 0xBE,
  0x00, 0x00, 0x00, 0x80, 0xCF, 0x65, 0x85, 0x3D, 0x5C, 0xD7,
  0xFE, 0x3D, 0x00, 0x00, 0x00, 0x80, 0x00, 0x00, 0x00, 0x80,
  0x00, 0x00, 0x00, 0x00, 0x00, 0x00, 0x00, 0x00, 0x39, 0xAE,
  0x8C, 0xBD, 0x06, 0x6B, 0xF1, 0xBC, 0x23, 0x09, 0x23, 0xBE,
  0x17, 0xFA, 0xD5, 0x3D, 0x00, 0x00, 0x00, 0x00, 0x00, 0x00,
