
// This is a TensorFlow Lite model file that has been converted into a C data
// array using the tensorflow.lite.util.convert_bytes_to_c_source() function.
// This form is useful for compiling into a binary for devices that don't have a
// file system.

#include "pruned_model_chunk1.h"

// We need to keep the data array aligned on some architectures.
#ifdef __has_attribute
#define HAVE_ATTRIBUTE(x) __has_attribute(x)
#else
#define HAVE_ATTRIBUTE(x) 0
#endif
#if HAVE_ATTRIBUTE(aligned) || (defined(__GNUC__) && !defined(__clang__))
#define DATA_ALIGN_ATTRIBUTE __attribute__((aligned(16)))
#else
#define DATA_ALIGN_ATTRIBUTE
#endif

const unsigned char pruned_model_chunk1[] DATA_ALIGN_ATTRIBUTE =
{
  0x1C, 0x00, 0x00, 0x00, 0x54, 0x46, 0x4C, 0x33, 0x00, 0x00,
  0x12, 0x00, 0x1C, 0x00, 0x04, 0x00, 0x08, 0x00, 0x0C, 0x00,
  0x10, 0x00, 0x14, 0x00, 0x00, 0x00, 0x18, 0x00, 0x12, 0x00,
  0x00, 0x00, 0x03, 0x00, 0x00, 0x00, 0x14, 0x00, 0x00, 0x00,
  0x28, 0x00, 0x00, 0x00, 0xCC, 0x00, 0x00, 0x00, 0x28, 0x00,
  0x00, 0x00, 0x74, 0x00, 0x00, 0x00, 0x05, 0x00, 0x00, 0x00,
  0x00, 0x07, 0x00, 0x00, 0xA8, 0x05, 0x00, 0x00, 0x00, 0x05,
  0x00, 0x00, 0x1C, 0x02, 0x00, 0x00, 0xA4, 0x01, 0x00, 0x00,
  0x01, 0x00, 0x00, 0x00, 0xC8, 0x00, 0x00, 0x00, 0x13, 0x00,
  0x00, 0x00, 0xB0, 0x35, 0x00, 0x00, 0xAC, 0x35, 0x00, 0x00,
  0xD4, 0x34, 0x00, 0x00, 0x48, 0x34, 0x00, 0x00, 0xC8, 0x33,
  0x00, 0x00, 0x38, 0x33, 0x00, 0x00, 0xD4, 0x32, 0x00, 0x00,
  0x30, 0x0C, 0x00, 0x00, 0x10, 0x0B, 0x00, 0x00, 0x24, 0x07,
  0x00, 0x00, 0x88, 0x35, 0x00, 0x00, 0x84, 0x35, 0x00, 0x00,
  0x80, 0x35, 0x00, 0x00, 0x7C, 0x35, 0x00, 0x00, 0x78, 0x35,
  0x00, 0x00, 0x74, 0x35, 0x00, 0x00, 0x70, 0x35, 0x00, 0x00,
  0x6C, 0x35, 0x00, 0x00, 0x38, 0x00, 0x00, 0x00, 0x01, 0x00,
  0x00, 0x00, 0x0C, 0x00, 0x00, 0x00, 0x08, 0x00, 0x0C, 0x00,
  0x04, 0x00, 0x08, 0x00, 0x08, 0x00, 0x00, 0x00, 0x08, 0x00,
  0x00, 0x00, 0x12, 0x00, 0x00, 0x00, 0x13, 0x00, 0x00, 0x00,
  0x6D, 0x69, 0x6E, 0x5F, 0x72, 0x75, 0x6E, 0x74, 0x69, 0x6D,
  0x65, 0x5F, 0x76, 0x65, 0x72, 0x73, 0x69, 0x6F, 0x6E, 0x00,
  0xAA, 0xCB, 0xFF, 0xFF, 0x04, 0x00, 0x00, 0x00, 0x10, 0x00,
  0x00, 0x00, 0x31, 0x2E, 0x35, 0x2E, 0x30, 0x00, 0x00, 0x00,
  0x00, 0x00, 0x00, 0x00, 0x00, 0x00, 0x00, 0x00, 0x0F, 0x00,
  0x00, 0x00, 0x4D, 0x4C, 0x49, 0x52, 0x20, 0x43, 0x6F, 0x6E,
  0x76, 0x65, 0x72, 0x74, 0x65, 0x64, 0x2E, 0x00, 0x00, 0x00,
  0x0E, 0x00, 0x18, 0x00, 0x04, 0x00, 0x08, 0x00, 0x0C, 0x00,
  0x10, 0x00, 0x14, 0x00, 0x0E, 0x00, 0x00, 0x00, 0x14, 0x00,
  0x00, 0x00, 0x58, 0x00, 0x00, 0x00, 0x5C, 0x00, 0x00, 0x00,
  0x64, 0x00, 0x00, 0x00, 0x84, 0x00, 0x00, 0x00, 0x11, 0x00,
  0x00, 0x00, 0x9C, 0x34, 0x00, 0x00, 0x28, 0x34, 0x00, 0x00,
  0x90, 0x33, 0x00, 0x00, 0x10, 0x33, 0x00, 0x00, 0x94, 0x32,
  0x00, 0x00, 0x10, 0x32, 0x00, 0x00, 0xAC, 0x31, 0x00, 0x00,
  0xF8, 0x0A, 0x00, 0x00, 0xDC, 0x09, 0x00, 0x00, 0xEC, 0x05,
  0x00, 0x00, 0x94, 0x04, 0x00, 0x00, 0xEC, 0x03, 0x00, 0x00,
  0xA4, 0x02, 0x00, 0x00, 0x00, 0x02, 0x00, 0x00, 0x6C, 0x01,
  0x00, 0x00, 0xFC, 0x00, 0x00, 0x00, 0x84, 0x00, 0x00, 0x00,
  0x01, 0x00, 0x00, 0x00, 0x00, 0x00, 0x00, 0x00, 0x02, 0x00,
  0x00, 0x00, 0x0B, 0x00, 0x00, 0x00, 0x10, 0x00, 0x00, 0x00,
  0x08, 0x00, 0x00, 0x00, 0x7C, 0x05, 0x00, 0x00, 0x04, 0x04,
  0x00, 0x00, 0x58, 0x03, 0x00, 0x00, 0x2C, 0x02, 0x00, 0x00,
  0x88, 0x01, 0x00, 0x00, 0x14, 0x01, 0x00, 0x00, 0x84, 0x00,
  0x00, 0x00, 0x10, 0x00, 0x00, 0x00, 0x04, 0x00, 0x00, 0x00,
  0x6D, 0x61, 0x69, 0x6E, 0x00, 0x00, 0x00, 0x00, 0x32, 0xFC,
  0xFF, 0xFF, 0x00, 0x00, 0x00, 0x09, 0x04, 0x00, 0x00, 0x00,
  0x1C, 0x00, 0x00, 0x00, 0x10, 0x00, 0x00, 0x00, 0x04, 0x00,
  0x00, 0x00, 0xA6, 0xCC, 0xFF, 0xFF, 0x00, 0x00, 0x80, 0x3F,
  0x01, 0x00, 0x00, 0x00, 0x10, 0x00, 0x00, 0x00, 0x01, 0x00,
  0x00, 0x00, 0x0F, 0x00, 0x00, 0x00, 0xBE, 0xFA, 0xFF, 0xFF,
  0x00, 0x00, 0x00, 0x19, 0x01, 0x00, 0x00, 0x00, 0x36, 0xCC,
  0xFF, 0xFF, 0x10, 0x00, 0x00, 0x00, 0x11, 0x00, 0x00, 0x00,
  0x14, 0x00, 0x00, 0x00, 0x20, 0x00, 0x00, 0x00, 0x02, 0x00,
  0x00, 0x00, 0x01, 0x00, 0x00, 0x00, 0x0A, 0x00, 0x00, 0x00,
  0x0A, 0x00, 0x00, 0x00, 0x49, 0x64, 0x65, 0x6E, 0x74, 0x69,
  0x74, 0x79, 0x5F, 0x31, 0x00, 0x00, 0x24, 0xCC, 0xFF, 0xFF,
  0xA2, 0xFC, 0xFF, 0xFF, 0x00, 0x00, 0x00, 0x08, 0x03, 0x00,
  0x00, 0x00, 0x18, 0x00, 0x00, 0x00, 0x0C, 0x00, 0x00, 0x00,
  0x04, 0x00, 0x00, 0x00, 0x40, 0xCC, 0xFF, 0xFF, 0x01, 0x00,
  0x00, 0x00, 0x0F, 0x00, 0x00, 0x00, 0x03, 0x00, 0x00, 0x00,
  0x0E, 0x00, 0x00, 0x00, 0x06, 0x00, 0x00, 0x00, 0x04, 0x00,
  0x00, 0x00, 0x32, 0xFB, 0xFF, 0xFF, 0x00, 0x00, 0x00, 0x09,
  0x01, 0x00, 0x00, 0x00, 0xAA, 0xCC, 0xFF, 0xFF, 0x10, 0x00,
  0x00, 0x00, 0x10, 0x00, 0x00, 0x00, 0x14, 0x00, 0x00, 0x00,
  0x38, 0x00, 0x00, 0x00, 0x02, 0x00, 0x00, 0x00, 0x01, 0x00,
  0x00, 0x00, 0x0A, 0x00, 0x00, 0x00, 0x23, 0x00, 0x00, 0x00,
  0x6D, 0x6F, 0x64, 0x65, 0x6C, 0x5F, 0x39, 0x2F, 0x6D, 0x6F,
  0x64, 0x65, 0x6C, 0x5F, 0x32, 0x2F, 0x65, 0x78, 0x69, 0x74,
  0x31, 0x2F, 0x64, 0x65, 0x6E, 0x73, 0x65, 0x2F, 0x42, 0x69,
  0x61, 0x73, 0x41, 0x64, 0x64, 0x00, 0xB0, 0xCC, 0xFF, 0xFF,
  0xB6, 0xFB, 0xFF, 0xFF, 0x10, 0x00, 0x00, 0x00, 0x04, 0x00,
  0x00, 0x00, 0x01, 0x00, 0x00, 0x00, 0x0E, 0x00, 0x00, 0x00,
  0x02, 0x00, 0x00, 0x00, 0x0D, 0x00, 0x00, 0x00, 0x05, 0x00,
  0x00, 0x00, 0x16, 0xCD, 0xFF, 0xFF, 0x10, 0x00, 0x00, 0x00,
  0x0F, 0x00, 0x00, 0x00, 0x14, 0x00, 0x00, 0x00, 0x3C, 0x00,
  0x00, 0x00, 0x02, 0x00, 0x00, 0x00, 0x01, 0x00, 0x00, 0x00,
  0xF5, 0x00, 0x00, 0x00, 0x25, 0x00, 0x00, 0x00, 0x6D, 0x6F,
  0x64, 0x65, 0x6C, 0x5F, 0x39, 0x2F, 0x6D, 0x6F, 0x64, 0x65,
  0x6C, 0x5F, 0x32, 0x2F, 0x65, 0x78, 0x69, 0x74, 0x31, 0x2F,
  0x66, 0x6C, 0x61, 0x74, 0x74, 0x65, 0x6E, 0x2F, 0x52, 0x65,
  0x73, 0x68, 0x61, 0x70, 0x65, 0x00, 0x00, 0x00, 0x20, 0xCD,
  0xFF, 0xFF, 0x9E, 0xFD, 0xFF, 0xFF, 0x00, 0x00, 0x00, 0x05,
  0x02, 0x00, 0x00, 0x00, 0x2C, 0x00, 0x00, 0x00, 0x20, 0x00,
  0x00, 0x00, 0x04, 0x00, 0x00, 0x00, 0x36, 0xFE, 0xFF, 0xFF,
  0x02, 0x00, 0x00, 0x00, 0x02, 0x00, 0x00, 0x00, 0x02, 0x00,
  0x00, 0x00, 0x02, 0x00, 0x00, 0x00, 0x00, 0x00, 0x00, 0x01,
  0x01, 0x00, 0x00, 0x00, 0x0D, 0x00, 0x00, 0x00, 0x01, 0x00,
  0x00, 0x00, 0x0C, 0x00, 0x00, 0x00, 0xA6, 0xCD, 0xFF, 0xFF,
  0x10, 0x00, 0x00, 0x00, 0x0E, 0x00, 0x00, 0x00, 0x1C, 0x00,
  0x00, 0x00, 0x4C, 0x00, 0x00, 0x00, 0x04, 0x00, 0x00, 0x00,
  0x01, 0x00, 0x00, 0x00, 0x07, 0x00, 0x00, 0x00, 0x07, 0x00,
  0x00, 0x00, 0x05, 0x00, 0x00, 0x00, 0x2D, 0x00, 0x00, 0x00,
  0x6D, 0x6F, 0x64, 0x65, 0x6C, 0x5F, 0x39, 0x2F, 0x6D, 0x6F,
  0x64, 0x65, 0x6C, 0x5F, 0x32, 0x2F, 0x65, 0x78, 0x69, 0x74,
  0x31, 0x2F, 0x6D, 0x61, 0x78, 0x5F, 0x70, 0x6F, 0x6F, 0x6C,
  0x69, 0x6E, 0x67, 0x32, 0x64, 0x5F, 0x31, 0x2F, 0x4D, 0x61,
  0x78, 0x50, 0x6F, 0x6F, 0x6C, 0x00, 0x00, 0x00, 0xC0, 0xCD,
  0xFF, 0xFF, 0x3E, 0xFE, 0xFF, 0xFF, 0x00, 0x00, 0x00, 0x01,
  0x01, 0x00, 0x00, 0x00, 0x24, 0x00, 0x00, 0x00, 0x18, 0x00,
  0x00, 0x00, 0x04, 0x00, 0x00, 0x00, 0x30, 0xFE, 0xFF, 0xFF,
  0x01, 0x00, 0x00, 0x00, 0x01, 0x00, 0x00, 0x00, 0x00, 0x00,
  0x00, 0x01, 0x01, 0x00, 0x00, 0x00, 0x0C, 0x00, 0x00, 0x00,
  0x03, 0x00, 0x00, 0x00, 0x0B, 0x00, 0x00, 0x00, 0x08, 0x00,
  0x00, 0x00, 0x03, 0x00, 0x00, 0x00, 0x46, 0xCE, 0xFF, 0xFF,
  0x10, 0x00, 0x00, 0x00, 0x0D, 0x00, 0x00, 0x00, 0x1C, 0x00,
  0x00, 0x00, 0xC4, 0x00, 0x00, 0x00, 0x04, 0x00, 0x00, 0x00,
  0x01, 0x00, 0x00, 0x00, 0x0E, 0x00, 0x00, 0x00, 0x0E, 0x00,
  0x00, 0x00, 0x05, 0x00, 0x00, 0x00, 0xA6, 0x00, 0x00, 0x00,
  0x6D, 0x6F, 0x64, 0x65, 0x6C, 0x5F, 0x39, 0x2F, 0x6D, 0x6F,
  0x64, 0x65, 0x6C, 0x5F, 0x32, 0x2F, 0x65, 0x78, 0x69, 0x74,
  0x31, 0x2F, 0x63, 0x6F, 0x6E, 0x76, 0x32, 0x64, 0x5F, 0x31,
  0x2F, 0x52, 0x65, 0x6C, 0x75, 0x3B, 0x6D, 0x6F, 0x64, 0x65,
  0x6C, 0x5F, 0x39, 0x2F, 0x6D, 0x6F, 0x64, 0x65, 0x6C, 0x5F,
  0x32, 0x2F, 0x65, 0x78, 0x69, 0x74, 0x31, 0x2F, 0x63, 0x6F,
  0x6E, 0x76, 0x32, 0x64, 0x5F, 0x31, 0x2F, 0x42, 0x69, 0x61,
  0x73, 0x41, 0x64, 0x64, 0x3B, 0x6D, 0x6F, 0x64, 0x65, 0x6C,
  0x5F, 0x39, 0x2F, 0x6D, 0x6F, 0x64, 0x65, 0x6C, 0x5F, 0x32,
  0x2F, 0x65, 0x78, 0x69, 0x74, 0x31, 0x2F, 0x63, 0x6F, 0x6E,
  0x76, 0x32, 0x64, 0x5F, 0x31, 0x2F, 0x43, 0x6F, 0x6E, 0x76,
  0x32, 0x44, 0x3B, 0x6D, 0x6F, 0x64, 0x65, 0x6C, 0x5F, 0x39,
  0x2F, 0x6D, 0x6F, 0x64, 0x65, 0x6C, 0x5F, 0x32, 0x2F, 0x65,
  0x78, 0x69, 0x74, 0x31, 0x2F, 0x63, 0x6F, 0x6E, 0x76, 0x32,
  0x64, 0x5F, 0x31, 0x2F, 0x42, 0x69, 0x61, 0x73, 0x41, 0x64,
  0x64, 0x2F, 0x52, 0x65, 0x61, 0x64, 0x56, 0x61, 0x72, 0x69,
  0x61, 0x62, 0x6C, 0x65, 0x4F, 0x70, 0x00, 0x00, 0x24, 0xCF,
  0xFF, 0xFF, 0x00, 0x00, 0x0E, 0x00, 0x1A, 0x00, 0x08, 0x00,
  0x0C, 0x00, 0x10, 0x00, 0x07, 0x00, 0x14, 0x00, 0x0E, 0x00,
  0x00, 0x00, 0x00, 0x00, 0x00, 0x05, 0x02, 0x00, 0x00, 0x00,
  0x3C, 0x00, 0x00, 0x00, 0x30, 0x00, 0x00, 0x00, 0x14, 0x00,
  0x00, 0x00, 0x00, 0x00, 0x0E, 0x00, 0x18, 0x00, 0x17, 0x00,
  0x10, 0x00, 0x0C, 0x00, 0x08, 0x00, 0x04, 0x00, 0x0E, 0x00,
  0x00, 0x00, 0x02, 0x00, 0x00, 0x00, 0x02, 0x00, 0x00, 0x00,
  0x02, 0x00, 0x00, 0x00, 0x02, 0x00, 0x00, 0x00, 0x00, 0x00,
  0x00, 0x01, 0x01, 0x00, 0x00, 0x00, 0x0B, 0x00, 0x00, 0x00,
  0x01, 0x00, 0x00, 0x00, 0x0A, 0x00, 0x00, 0x00, 0x12, 0xFE,
  0xFF, 0xFF, 0x00, 0x00, 0x00, 0x11, 0x01, 0x00, 0x00, 0x00,
  0x8A, 0xCF, 0xFF, 0xFF, 0x10, 0x00, 0x00, 0x00, 0x0C, 0x00,
  0x00, 0x00, 0x1C, 0x00, 0x00, 0x00, 0x28, 0x00, 0x00, 0x00,
  0x04, 0x00, 0x00, 0x00, 0x01, 0x00, 0x00, 0x00, 0x0E, 0x00,
  0x00, 0x00, 0x0E, 0x00, 0x00, 0x00, 0x05, 0x00, 0x00, 0x00,
  0x08, 0x00, 0x00, 0x00, 0x49, 0x64, 0x65, 0x6E, 0x74, 0x69,
  0x74, 0x79, 0x00, 0x00, 0x00, 0x00, 0xCC, 0xCF, 0xFF, 0xFF,
  0x00, 0x00, 0x0E, 0x00, 0x18, 0x00, 0x08, 0x00, 0x0C, 0x00,
  0x10, 0x00, 0x07, 0x00, 0x14, 0x00, 0x0E, 0x00, 0x00, 0x00,
  0x00, 0x00, 0x00, 0x01, 0x01, 0x00, 0x00, 0x00, 0x30, 0x00,
  0x00, 0x00, 0x24, 0x00, 0x00, 0x00, 0x10, 0x00, 0x00, 0x00,
  0x0C, 0x00, 0x10, 0x00, 0x00, 0x00, 0x04, 0x00, 0x08, 0x00,
  0x0F, 0x00, 0x0C, 0x00, 0x00, 0x00, 0x01, 0x00, 0x00, 0x00,
  0x01, 0x00, 0x00, 0x00, 0x00, 0x00, 0x00, 0x01, 0x01, 0x00,
  0x00, 0x00, 0x0A, 0x00, 0x00, 0x00, 0x03, 0x00, 0x00, 0x00,
  0x09, 0x00, 0x00, 0x00, 0x07, 0x00, 0x00, 0x00, 0x02, 0x00,
  0x00, 0x00, 0xB6, 0xFE, 0xFF, 0xFF, 0x00, 0x00, 0x00, 0x03,
  0x01, 0x00, 0x00, 0x00, 0x2E, 0xD0, 0xFF, 0xFF, 0x10, 0x00,
  0x00, 0x00, 0x0B, 0x00, 0x00, 0x00, 0x1C, 0x00, 0x00, 0x00,
  0xFC, 0x00, 0x00, 0x00, 0x04, 0x00, 0x00, 0x00, 0x01, 0x00,
  0x00, 0x00, 0x1C, 0x00, 0x00, 0x00, 0x1C, 0x00, 0x00, 0x00,
  0x05, 0x00, 0x00, 0x00, 0xDC, 0x00, 0x00, 0x00, 0x6D, 0x6F,
  0x64, 0x65, 0x6C, 0x5F, 0x39, 0x2F, 0x6D, 0x6F, 0x64, 0x65,
  0x6C, 0x5F, 0x31, 0x2F, 0x62, 0x61, 0x73, 0x65, 0x5F, 0x6D,
  0x6F, 0x64, 0x65, 0x6C, 0x31, 0x2F, 0x63, 0x6F, 0x6E, 0x76,
  0x32, 0x64, 0x2F, 0x52, 0x65, 0x6C, 0x75, 0x3B, 0x6D, 0x6F,
  0x64, 0x65, 0x6C, 0x5F, 0x39, 0x2F, 0x6D, 0x6F, 0x64, 0x65,
  0x6C, 0x5F, 0x31, 0x2F, 0x62, 0x61, 0x73, 0x65, 0x5F, 0x6D,
  0x6F, 0x64, 0x65, 0x6C, 0x31, 0x2F, 0x63, 0x6F, 0x6E, 0x76,
  0x32, 0x64, 0x2F, 0x42, 0x69, 0x61, 0x73, 0x41, 0x64, 0x64,
  0x3B, 0x6D, 0x6F, 0x64, 0x65, 0x6C, 0x5F, 0x39, 0x2F, 0x6D,
  0x6F, 0x64, 0x65, 0x6C, 0x5F, 0x32, 0x2F, 0x65, 0x78, 0x69,
  0x74, 0x31, 0x2F, 0x63, 0x6F, 0x6E, 0x76, 0x32, 0x64, 0x5F,
  0x31, 0x2F, 0x43, 0x6F, 0x6E, 0x76, 0x32, 0x44, 0x3B, 0x6D,
  0x6F, 0x64, 0x65, 0x6C, 0x5F, 0x39, 0x2F, 0x6D, 0x6F, 0x64,
  0x65, 0x6C, 0x5F, 0x31, 0x2F, 0x62, 0x61, 0x73, 0x65, 0x5F,
  0x6D, 0x6F, 0x64, 0x65, 0x6C, 0x31, 0x2F, 0x63, 0x6F, 0x6E,
  0x76, 0x32, 0x64, 0x2F, 0x43, 0x6F, 0x6E, 0x76, 0x32, 0x44,
  0x3B, 0x6D, 0x6F, 0x64, 0x65, 0x6C, 0x5F, 0x39, 0x2F, 0x6D,
  0x6F, 0x64, 0x65, 0x6C, 0x5F, 0x31, 0x2F, 0x62, 0x61, 0x73,
  0x65, 0x5F, 0x6D, 0x6F, 0x64, 0x65, 0x6C, 0x31, 0x2F, 0x63,
  0x6F, 0x6E, 0x76, 0x32, 0x64, 0x2F, 0x42, 0x69, 0x61, 0x73,
  0x41, 0x64, 0x64, 0x2F, 0x52, 0x65, 0x61, 0x64, 0x56, 0x61,
  0x72, 0x69, 0x61, 0x62, 0x6C, 0x65, 0x4F, 0x70, 0x00, 0x00,
  0x00, 0x00, 0x44, 0xD1, 0xFF, 0xFF, 0x00, 0x00, 0x0A, 0x00,
  0x0C, 0x00, 0x00, 0x00, 0x04, 0x00, 0x08, 0x00, 0x0A, 0x00,
  0x00, 0x00, 0x10, 0x00, 0x00, 0x00, 0x04, 0x00, 0x00, 0x00,
  0x01, 0x00, 0x00, 0x00, 0x09, 0x00, 0x00, 0x00, 0x02, 0x00,
  0x00, 0x00, 0x00, 0x00, 0x00, 0x00, 0x01, 0x00, 0x00, 0x00,
  0x00, 0x00, 0x0A, 0x00, 0x0C, 0x00, 0x07, 0x00, 0x00, 0x00,
  0x08, 0x00, 0x0A, 0x00, 0x00, 0x00, 0x00, 0x00, 0x00, 0x16,
  0x01, 0x00, 0x00, 0x00, 0x82, 0xD1, 0xFF, 0xFF, 0x10, 0x00,
  0x00, 0x00, 0x0A, 0x00, 0x00, 0x00, 0x1C, 0x00, 0x00, 0x00,
  0x48, 0x00, 0x00, 0x00, 0x04, 0x00, 0x00, 0x00, 0x01, 0x00,
  0x00, 0x00, 0x1C, 0x00, 0x00, 0x00, 0x1C, 0x00, 0x00, 0x00,
  0x01, 0x00, 0x00, 0x00, 0x2B, 0x00, 0x00, 0x00, 0x6D, 0x6F,
  0x64, 0x65, 0x6C, 0x5F, 0x39, 0x2F, 0x6D, 0x6F, 0x64, 0x65,
  0x6C, 0x5F, 0x31, 0x2F, 0x62, 0x61, 0x73, 0x65, 0x5F, 0x6D,
  0x6F, 0x64, 0x65, 0x6C, 0x31, 0x2F, 0x72, 0x65, 0x73, 0x68,
  0x61, 0x70, 0x65, 0x2F, 0x52, 0x65, 0x73, 0x68, 0x61, 0x70,
  0x65, 0x00, 0x98, 0xD1, 0xFF, 0xFF, 0x72, 0xD2, 0xFF, 0xFF,
  0x04, 0x00, 0x00, 0x00, 0x84, 0x03, 0x00, 0x00, 0xD7, 0x95,
  0x99, 0xBE, 0x00, 0x00, 0x00, 0x80, 0x00, 0x1B, 0xB5, 0x3E,
  0x00, 0x00, 0x00, 0x00, 0x68, 0x47, 0x59, 0x3E, 0x87, 0x42,
  0x02, 0xBF, 0x00, 0x00, 0x00, 0x00, 0x00, 0x00, 0x00, 0x00,
  0xC0, 0xB6, 0x34, 0x3E, 0x31, 0x11, 0x32, 0x3E, 0x00, 0x00,
  0x00, 0x00, 0x00, 0x00, 0x00, 0x00, 0x4E, 0x4A, 0x61, 0x3E,
  0x80, 0x87, 0xDC, 0x3E, 0x61, 0x3A, 0xA7, 0x3D, 0x00, 0x00,
  0x00, 0x80, 0x92, 0x48, 0xC4, 0xBD, 0xC3, 0x40, 0x5C, 0x3E,
  0x00, 0x00, 0x00, 0x00, 0x3D, 0x5F, 0x98, 0x3D, 0xB5, 0xFB,
  0xA1, 0x3D, 0x00, 0x00, 0x00, 0x00, 0x00, 0x00, 0x00, 0x00,
  0x3C, 0xA2, 0x26, 0xBE, 0x98, 0x8E, 0x13, 0x3E, 0x00, 0x00,
  0x00, 0x00, 0xDF, 0x96, 0xB2, 0x3E, 0x62, 0x91, 0xED, 0x3E,
  0x00, 0x00, 0x00, 0x00, 0x59, 0x54, 0xFF, 0x3D, 0x00, 0x00,
  0x00, 0x80, 0xA0, 0xF3, 0x11, 0x3E, 0x00, 0x00, 0x00, 0x80,
  0xDB, 0xF2, 0x90, 0xBE, 0x91, 0x74, 0x66, 0xBD, 0x78, 0xCB,
  0xDE, 0xBE, 0x00, 0x00, 0x00, 0x80, 0xC5, 0x47, 0x06, 0xBF,
  0x00, 0x00, 0x00, 0x80, 0xC7, 0x51, 0xA6, 0xBD, 0x59, 0x4B,
  0x00, 0xBF, 0x00, 0x00, 0x00, 0x80, 0x33, 0xA2, 0x05, 0xBF,
  0x00, 0x00, 0x00, 0x80, 0xA5, 0x14, 0x0A, 0xBF, 0x00, 0x00,
  0x00, 0x00, 0x43, 0x33, 0x98, 0xBD, 0x00, 0x00, 0x00, 0x00,
  0x1F, 0x07, 0xBA, 0x3E, 0x41, 0xCE, 0x8F, 0x3E, 0xE2, 0xD5,
  0x13, 0x3E, 0x00, 0x00, 0x00, 0x00, 0x51, 0xB8, 0x90, 0x3E,
  0x00, 0x00, 0x00, 0x00, 0x17, 0x18, 0x8C, 0x3E, 0x00, 0x00,
  0x00, 0x00, 0x1B, 0x91, 0x9C, 0x3E, 0x00, 0x00, 0x00, 0x00,
  0x16, 0x3D, 0x2C, 0xBE, 0x34, 0xDB, 0x4C, 0x3E, 0xBE, 0xFE,
  0x73, 0x3E, 0x00, 0x00, 0x00, 0x00, 0x00, 0x00, 0x00, 0x00,
  0x07, 0xDB, 0x9D, 0x3E, 0x78, 0x10, 0xC0, 0xBD, 0xA6, 0x16,
  0x8E, 0x3E, 0x94, 0xDD, 0xB3, 0xBC, 0x00, 0x00, 0x00, 0x00,
  0x00, 0x00, 0x00, 0x00, 0x2F, 0x04, 0x8E, 0x3E, 0x00, 0x00,
  0x00, 0x80, 0x19, 0xC0, 0xF2, 0xBD, 0x7F, 0x97, 0xFC, 0xBD,
  0x00, 0x00, 0x00, 0x00, 0xFF, 0x8E, 0x97, 0xBE, 0x85, 0xA8,
  0xC8, 0x3E, 0x00, 0x00, 0x00, 0x00, 0xF6, 0x86, 0xB2, 0x3E,
  0x00, 0x00, 0x00, 0x00, 0x70, 0x46, 0xF8, 0xBD, 0x00, 0x00,
  0x00, 0x00, 0xC6, 0x95, 0x5E, 0x3E, 0x00, 0x00, 0x00, 0x00,
  0x46, 0xD7, 0xC0, 0x3E, 0x56, 0xAE, 0xD2, 0x3E, 0x81, 0x77,
  0x81, 0x3E, 0x88, 0x6A, 0xA7, 0x3E, 0x00, 0x00, 0x00, 0x00,
  0x00, 0x00, 0x00, 0x00, 0x4E, 0xB5, 0x88, 0x3E, 0x00, 0x00,
  0x00, 0x80, 0xF3, 0x00, 0xB6, 0x3E, 0x00, 0x00, 0x00, 0x80,
  0xAC, 0x43, 0xC6, 0x3E, 0x70, 0xF6, 0x83, 0x3E, 0x86, 0x0C,
  0x7E, 0xBE, 0x00, 0x00, 0x00, 0x80, 0xC4, 0xA3, 0x04, 0xBE,
  0x00, 0x00, 0x00, 0x00, 0x01, 0x20, 0x2E, 0x3C, 0xFF, 0x75,
  0x2F, 0xBE, 0x00, 0x00, 0x00, 0x00, 0x72, 0x30, 0xA7, 0xBE,
  0x00, 0x00, 0x00, 0x00, 0xCF, 0x1C, 0x87, 0xBD, 0x4B, 0xAC,
  0x89, 0xBE, 0x00, 0x00, 0x00, 0x00, 0x59, 0x90, 0xB6, 0x3E,
  0x00, 0x00, 0x00, 0x00, 0x10, 0x87, 0x6B, 0x3E, 0x00, 0x00,
  0x00, 0x80, 0x00, 0x00, 0x00, 0x00, 0x11, 0x38, 0xB7, 0x3E,
  0xD1, 0x1C, 0x8A, 0x3E, 0x25, 0x37, 0xE7, 0x3D, 0xEB, 0x68,
  0xBE, 0xBE, 0x0F, 0xC0, 0x96, 0x3E, 0x00, 0x00, 0x00, 0x00,
  0x00, 0x00, 0x00, 0x00, 0xC5, 0x7A, 0x88, 0x3E, 0x00, 0x00,
  0x00, 0x00, 0x00, 0x00, 0x00, 0x00, 0x96, 0xA5, 0x40, 0x3E,
  0x28, 0xED, 0x79, 0xBE, 0xE1, 0x56, 0x64, 0x3E, 0x22, 0x7A,
  0xB9, 0xBE, 0x00, 0x00, 0x00, 0x00, 0x00, 0x00, 0x00, 0x00,
  0x07, 0x6C, 0x8B, 0x3E, 0x8F, 0xF5, 0x9F, 0x3E, 0x00, 0x00,
  0x00, 0x80, 0x56, 0x37, 0x6F, 0x3E, 0x26, 0x0B, 0x75, 0x3E,
  0x00, 0x00, 0x00, 0x00, 0xCD, 0x62, 0x88, 0x3D, 0x00, 0x00,
  0x00, 0x80, 0x63, 0x1F, 0xB2, 0xBE, 0xC4, 0x7B, 0xF6, 0xBE,
  0x00, 0x00, 0x00, 0x80, 0x6D, 0x70, 0xAE, 0xBE, 0xA1, 0xBD,
  0x07, 0xBF, 0x00, 0x00, 0x00, 0x80, 0x00, 0x00, 0x00, 0x80,
  0xF0, 0x76, 0xF9, 0xBE, 0x5C, 0xAC, 0x36, 0xBE, 0xBC, 0xE7,
  0xE0, 0xBE, 0x00, 0x00, 0x00, 0x80, 0x4D, 0xAB, 0x79, 0xBE,
  0x00, 0x00, 0x00, 0x80, 0xE0, 0xAE, 0x02, 0xBE, 0x42, 0x40,
  0x5A, 0xBE, 0x81, 0xC2, 0x1B, 0x3E, 0x00, 0x00, 0x00, 0x80,
  0x00, 0x00, 0x00, 0x80, 0x4A, 0xE5, 0x75, 0x3E, 0x00, 0x00,
  0x00, 0x80, 0x00, 0x00, 0x00, 0x80, 0x4A, 0x2C, 0x66, 0x3D,
  0x79, 0x2C, 0x1A, 0xBD, 0x6D, 0x38, 0x7E, 0x3E, 0xF9, 0x5B,
  0xE5, 0xBE, 0x00, 0x00, 0x00, 0x80, 0xC0, 0x9C, 0xAA, 0x3E,
  0x00, 0x00, 0x00, 0x80, 0x09, 0x1F, 0x2F, 0x3E, 0xA3, 0xBA,
  0xF1, 0x3E, 0x48, 0xC0, 0x92, 0x3E, 0x00, 0x00, 0x00, 0x80,
  0x00, 0x00, 0x00, 0x80, 0x1E, 0x12, 0xC2, 0x3E, 0x2B, 0x19,
  0x84, 0x3E, 0x00, 0x00, 0x00, 0x80, 0x9A, 0x4A, 0xB6, 0x3E,
  0x00, 0x00, 0x00, 0x80, 0x2F, 0x67, 0xB3, 0x3E, 0x00, 0x00,
  0x00, 0x80, 0x6E, 0xEA, 0x03, 0xBE, 0x00, 0x00, 0x00, 0x80,
  0x90, 0xF8, 0x89, 0x3E, 0x95, 0x7B, 0x0D, 0x3E, 0xFF, 0x71,
  0x32, 0xBE, 0x00, 0x00, 0x00, 0x80, 0xC2, 0x83, 0x3F, 0xBE,
  0x00, 0x00, 0x00, 0x80, 0x21, 0x51, 0x15, 0xBE, 0x00, 0x00,
  0x00, 0x00, 0x1D, 0x91, 0x5C, 0x3E, 0x75, 0xF4, 0x58, 0x3E,
  0x00, 0x00, 0x00, 0x00, 0x8E, 0x8E, 0x43, 0x3E, 0x00, 0x00,
  0x00, 0x00, 0x00, 0x00, 0x00, 0x00, 0x94, 0x89, 0x86, 0x3E,
  0x7F, 0xC1, 0x83, 0x3E, 0xB2, 0x00, 0x96, 0x3E, 0x95, 0x92,
  0xD4, 0x3D, 0x8E, 0x9A, 0x06, 0xBE, 0x00, 0x00, 0x00, 0x80,
  0x00, 0x00, 0x00, 0x80, 0x4C, 0xF4, 0x25, 0x3E, 0xF3, 0x0F,
  0x86, 0x3E, 0xFD, 0xD6, 0x9A, 0x3E, 0x00, 0x00, 0x00, 0x00,
  0x00, 0x00, 0x00, 0x00, 0x17, 0xE1, 0xE7, 0x3D, 0x20, 0x03,
  0xA2, 0x3E, 0xCE, 0x6F, 0x71, 0x3E, 0x00, 0x00, 0x00, 0x00,
  0x00, 0x00, 0x00, 0x80, 0x33, 0x16, 0x3F, 0xBE, 0x56, 0x05,
  0xDD, 0x3E, 0xAC, 0x7C, 0xCB, 0x3E, 0x00, 0x00, 0x00, 0x00,
  0x00, 0x00, 0x00, 0x00, 0xD1, 0x04, 0x28, 0x3E, 0x73, 0x6A,
  0xE8, 0x3E, 0x00, 0x00, 0x00, 0x00, 0x13, 0x4A, 0x98, 0xBD,
  0x00, 0x00, 0x00, 0x00, 0x0B, 0xFB, 0x76, 0x3C, 0x6B, 0xB5,
  0x8B, 0x3E, 0x00, 0x00, 0x00, 0x80, 0x4A, 0xD6, 0x8B, 0xBE,
  0x00, 0x00, 0x00, 0x80, 0xCA, 0xF1, 0xD7, 0xBE, 0x6E, 0xD5,
  0xFF, 0xFF, 0x10, 0x00, 0x00, 0x00, 0x09, 0x00, 0x00, 0x00,
  0x1C, 0x00, 0x00, 0x00, 0x44, 0x00, 0x00, 0x00, 0x04, 0x00,
  0x00, 0x00, 0x05, 0x00, 0x00, 0x00, 0x03, 0x00, 0x00, 0x00,
  0x03, 0x00, 0x00, 0x00, 0x05, 0x00, 0x00, 0x00, 0x25, 0x00,
  0x00, 0x00, 0x6D, 0x6F, 0x64, 0x65, 0x6C, 0x5F, 0x39, 0x2F,
  0x6D, 0x6F, 0x64, 0x65, 0x6C, 0x5F, 0x32, 0x2F, 0x65, 0x78,
  0x69, 0x74, 0x31, 0x2F, 0x63, 0x6F, 0x6E, 0x76, 0x32, 0x64,
  0x5F, 0x31, 0x2F, 0x43, 0x6F, 0x6E, 0x76, 0x32, 0x44, 0x00,
  0x00, 0x00, 0x80, 0xD5, 0xFF, 0xFF, 0x5A, 0xD6, 0xFF, 0xFF,
  0x04, 0x00, 0x00, 0x00, 0xB4, 0x00, 0x00, 0x00, 0xC5, 0x3F,
  0x1B, 0x3F, 0x3B, 0xBA, 0x8A, 0xBC, 0x40, 0x29, 0xE7, 0xBE,
  0x23, 0x86, 0x1B, 0x3F, 0xA1, 0xA6, 0xD8, 0xBD, 0x27, 0x30,
  0x12, 0xBF, 0xBD, 0x3A, 0x16, 0x3E, 0xEF, 0xFD, 0x6A, 0xBE,
  0xF8, 0x89, 0xE6, 0xBE, 0x06, 0x2E, 0x1A, 0x3F, 0x0F, 0x90,
  0x5E, 0x3E, 0xC8, 0xE0, 0x9D, 0x3D, 0x10, 0x33, 0x0B, 0x3F,
  0x9E, 0x86, 0xA9, 0xBD, 0xE7, 0xD0, 0x37, 0xBE, 0xF1, 0xDD,
  0x71, 0x3C, 0x4F, 0x18, 0xEA, 0x3E, 0x98, 0x6A, 0xE8, 0x3E,
  0xD3, 0xC7, 0xDA, 0x3E, 0x2C, 0x1D, 0xE2, 0x3E, 0xCB, 0x00,
  0xCF, 0x3E, 0x39, 0x0C, 0x0A, 0x3F, 0x4D, 0x20, 0xF0, 0x3E,
  0x80, 0xCC, 0x21, 0x3F, 0xB2, 0x14, 0x4F, 0x3E, 0xF9, 0xA7,
  0xA8, 0xBD, 0xE1, 0xAE, 0xA8, 0x3E, 0x31, 0xB4, 0xBF, 0xBD,
  0x1A, 0x69, 0x0A, 0x3F, 0x0A, 0x2F, 0xC6, 0x3E, 0xC7, 0x26,
  0x03, 0x3E, 0x99, 0x68, 0x18, 0x3F, 0xEE, 0x7B, 0x02, 0x3F,
  0x48, 0x31, 0x89, 0x3C, 0xF1, 0xF6, 0x68, 0x3E, 0x42, 0x00,
  0xB4, 0x3E, 0xA2, 0x02, 0xCF, 0x3E, 0xC6, 0x33, 0x1C, 0x3F,
  0x48, 0x61, 0xF7, 0x3C, 0xD3, 0xCA, 0xEE, 0x3D, 0xBB, 0x58,
  0xE9, 0x3E, 0x65, 0x67, 0x12, 0x3F, 0x1D, 0xFF, 0x1E, 0xBE,
  0xBC, 0x00, 0xEF, 0x3D, 0xFD, 0x01, 0xF2, 0x3E, 0x86, 0xD6,
  0xFF, 0xFF, 0x10, 0x00, 0x00, 0x00, 0x08, 0x00, 0x00, 0x00,
  0x1C, 0x00, 0x00, 0x00, 0x48, 0x00, 0x00, 0x00, 0x04, 0x00,
  0x00, 0x00, 0x05, 0x00, 0x00, 0x00, 0x03, 0x00, 0x00, 0x00,
  0x03, 0x00, 0x00, 0x00, 0x01, 0x00, 0x00, 0x00, 0x29, 0x00,
  0x00, 0x00, 0x6D, 0x6F, 0x64, 0x65, 0x6C, 0x5F, 0x39, 0x2F,
  0x6D, 0x6F, 0x64, 0x65, 0x6C, 0x5F, 0x31, 0x2F, 0x62, 0x61,
  0x73, 0x65, 0x5F, 0x6D, 0x6F, 0x64, 0x65, 0x6C, 0x31, 0x2F,
  0x63, 0x6F, 0x6E, 0x76, 0x32, 0x64, 0x2F, 0x43, 0x6F, 0x6E,
  0x76, 0x32, 0x44, 0x00, 0x00, 0x00, 0x9C, 0xD6, 0xFF, 0xFF,
  0x76, 0xD7, 0xFF, 0xFF, 0x04, 0x00, 0x00, 0x00, 0x48, 0x26,
  0x00, 0x00, 0x00, 0x00, 0x00, 0x00, 0xAC, 0xC6, 0x26, 0xBE,
  0x00, 0x00, 0x00, 0x00, 0xC2, 0x14, 0x35, 0xBE, 0x00, 0x00,
  0x00, 0x80, 0x32, 0x63, 0x81, 0x3D, 0x12, 0x32, 0x04, 0x3E,
  0x00, 0x00, 0x00, 0x00, 0x31, 0xCF, 0x70, 0xBD, 0x02, 0x0F,
  0x4F, 0xBE, 0x00, 0x00, 0x00, 0x00, 0x00, 0x00, 0x00, 0x00,
  0x00, 0x00, 0x00, 0x80, 0x00, 0x00, 0x00, 0x00, 0xCB, 0x76,
  0x5C, 0xBE, 0x8A, 0xE7, 0xE2, 0x3D, 0x7C, 0x9E, 0x23, 0x3E,
  0x54, 0x18, 0x2D, 0xBE, 0x00, 0x00, 0x00, 0x80, 0x00, 0x00,
  0x00, 0x00, 0x00, 0x00, 0x00, 0x80, 0x00, 0x00, 0x00, 0x80,
  0x38, 0x0D, 0x1B, 0xBE, 0x84, 0xEE, 0x37, 0x3E, 0xD6, 0x61,
  0x16, 0x3E, 0x00, 0x00, 0x00, 0x00, 0x00, 0x00, 0x00, 0x80,
  0x4C, 0x3E, 0x1E, 0xBE, 0x00, 0x00, 0x00, 0x80, 0x00, 0x00,
  0x00, 0x80, 0xA2, 0x4A, 0x20, 0xBE, 0x50, 0xCA, 0xB2, 0xBD,
  0x89, 0x8A, 0x82, 0x3D, 0x3A, 0x49, 0x97, 0xBD, 0x00, 0x00,
  0x00, 0x80, 0x00, 0x00, 0x00, 0x00, 0x00, 0x00, 0x00, 0x00,
  0xBC, 0xD5, 0xD1, 0x3C, 0x4F, 0x90, 0xD3, 0x3D, 0x00, 0x00,
  0x00, 0x80, 0x28, 0xA7, 0x0C, 0xBE, 0x00, 0x00, 0x00, 0x00,
  0x00, 0x00, 0x00, 0x00, 0xDD, 0x3D, 0x4E, 0xBE, 0x00, 0x00,
  0x00, 0x00, 0xAB, 0xE9, 0x5F, 0xBE, 0x00, 0x00, 0x00, 0x00,
  0xC0, 0x8A, 0x2D, 0xBE, 0x00, 0x00, 0x00, 0x00, 0x95, 0xF3,
  0x80, 0xBD, 0x90, 0x2D, 0x22, 0xBE, 0x00, 0x00, 0x00, 0x00,
  0xDC, 0x08, 0x48, 0x3E, 0x00, 0x00, 0x00, 0x00, 0x00, 0x00,
  0x00, 0x80, 0x16, 0x32, 0x02, 0xBE, 0x00, 0x00, 0x00, 0x00,
  0xA6, 0x1F, 0x1B, 0x3E, 0x00, 0x00, 0x00, 0x00, 0x3E, 0x4D,
  0x9F, 0xBD, 0x00, 0x00, 0x00, 0x80, 0x25, 0x23, 0x36, 0x3E,
  0x00, 0x00, 0x00, 0x80, 0x05, 0x4C, 0x39, 0x3E, 0x16, 0xCB,
  0x94, 0xBD, 0x00, 0x00, 0x00, 0x80, 0x00, 0x00, 0x00, 0x80,
  0x7D, 0x5B, 0xD6, 0x3D, 0x00, 0x00, 0x00, 0x00, 0x21, 0x29,
  0xBB, 0xBD, 0x63, 0xAD, 0x49, 0xBE, 0x00, 0x00, 0x00, 0x00,
  0xD5, 0x9E, 0xF2, 0xBD, 0x00, 0x00, 0x00, 0x00, 0x5F, 0xE0,
  0x52, 0xBE, 0x00, 0x00, 0x00, 0x00, 0x00, 0x00, 0x00, 0x00,
  0x7C, 0x16, 0x05, 0x3E, 0x00, 0x00, 0x00, 0x00, 0x31, 0xD4,
  0x94, 0xBD, 0xA0, 0x23, 0x3B, 0xBE, 0x27, 0x62, 0x20, 0xBD,
  0x00, 0x00, 0x00, 0x00, 0x00, 0x00, 0x00, 0x00, 0x49, 0xC1,
  0xB5, 0x3D, 0xA0, 0xAC, 0x88, 0x3E, 0x00, 0x00, 0x00, 0x00,
  0x00, 0x00, 0x00, 0x00, 0x7E, 0xFC, 0xE2, 0xBD, 0x2E, 0xB4,
  0x80, 0x3E, 0x00, 0x00, 0x00, 0x00, 0x00, 0x00, 0x00, 0x00,
  0x00, 0x00, 0x00, 0x00, 0xEE, 0xE9, 0x08, 0xBE, 0x2B, 0x38,
  0xD7, 0xBD, 0x00, 0x00, 0x00, 0x00, 0xB5, 0x4E, 0x1C, 0x3E,
  0x00, 0x00, 0x00, 0x00, 0xAA, 0xE2, 0x55, 0x3D, 0x00, 0x00,
  0x00, 0x00, 0xE1, 0x74, 0x06, 0x3E, 0x00, 0x00, 0x00, 0x00,
  0x00, 0x00, 0x00, 0x00, 0x5C, 0xF7, 0xDD, 0xBD, 0x00, 0x00,
  0x00, 0x00, 0xDB, 0x30, 0xDC, 0xBD, 0xF9, 0xBC, 0x82, 0xBE,
  0x00, 0x00, 0x00, 0x00, 0x00, 0x00, 0x00, 0x00, 0xBA, 0xAE,
  0xC3, 0xBD, 0xDD, 0x67, 0xAD, 0xBE, 0x00, 0x00, 0x00, 0x00,
  0x6A, 0xFC, 0x0F, 0x3E, 0x00, 0x00, 0x00, 0x00, 0xFE, 0x3A,
  0x53, 0x3D, 0x00, 0x00, 0x00, 0x80, 0xEB, 0xFE, 0xD6, 0x3D,
  0x4F, 0x6D, 0xFF, 0xBD, 0x00, 0x00, 0x00, 0x00, 0x00, 0x00,
  0x00, 0x00, 0x00, 0x00, 0x00, 0x80, 0x00, 0x00, 0x00, 0x00,
  0x03, 0x91, 0x83, 0xBE, 0x41, 0x3F, 0x6A, 0xBE, 0x00, 0x00,
  0x00, 0x00, 0x00, 0x00, 0x00, 0x80, 0x34, 0xE4, 0x20, 0xBE,
  0xC2, 0x15, 0x92, 0xBE, 0x3B, 0xF8, 0x7B, 0xBE, 0x00, 0x00,
  0x00, 0x00, 0x00, 0x00, 0x00, 0x80, 0x10, 0x5F, 0x3E, 0x3E,
  0x00, 0x00, 0x00, 0x00, 0x29, 0xFA, 0x9E, 0xBE, 0x1F, 0xF3,
  0x3F, 0x3E, 0x00, 0x00, 0x00, 0x80, 0x79, 0x6C, 0x4D, 0x3E,
  0x00, 0x00, 0x00, 0x00, 0x00, 0x00, 0x00, 0x80, 0x80, 0xC4,
  0x52, 0x3E, 0x00, 0x00, 0x00, 0x80, 0x52, 0xD9, 0xDF, 0xBD,
  0x9C, 0xE9, 0x71, 0x3D, 0x00, 0x00, 0x00, 0x00, 0x00, 0x00,
  0x00, 0x00, 0x68, 0xD0, 0x1F, 0xBE, 0x52, 0xB0, 0xA8, 0xBD,
  0x00, 0x00, 0x00, 0x00, 0x00, 0x00, 0x00, 0x80, 0x00, 0x00,
  0x00, 0x00, 0xFF, 0xE5, 0x5B, 0xBE, 0xB2, 0x0F, 0x80, 0x3E,
  0x00, 0x00, 0x00, 0x00, 0x7B, 0x22, 0xA3, 0xBE, 0x00, 0x00,
  0x00, 0x00, 0x73, 0x41, 0x44, 0xBE, 0x09, 0x67, 0x63, 0xBE,
  0x00, 0x00, 0x00, 0x00, 0x00, 0x00, 0x00, 0x80, 0x70, 0x04,
  0x96, 0xBE, 0xCB, 0x59, 0x75, 0x3D, 0x00, 0x00, 0x00, 0x00,
  0x00, 0x00, 0x00, 0x00, 0xEC, 0xF7, 0x59, 0x3E, 0x76, 0xC3,
  0x4E, 0x3C, 0x00, 0x00, 0x00, 0x00, 0x00, 0x00, 0x00, 0x00,
  0xEC, 0x8A, 0xF8, 0x3D, 0xC5, 0x6D, 0x85, 0xBE, 0x92, 0x8D,
  0x5D, 0x3E, 0x00, 0x00, 0x00, 0x00, 0x00, 0x00, 0x00, 0x00,
  0xD6, 0xAE, 0x23, 0x3E, 0xE6, 0xCC, 0xBE, 0xBE, 0x00, 0x00,
  0x00, 0x00, 0x00, 0x00, 0x00, 0x00, 0x1B, 0x03, 0xE2, 0xBD,
  0x6E, 0x6F, 0x06, 0xBE, 0x00, 0x00, 0x00, 0x00, 0x00, 0x00,
  0x00, 0x00, 0xC3, 0xA7, 0x9B, 0xBC, 0x00, 0x00, 0x00, 0x80,
  0xB7, 0x8C, 0xDA, 0xBD, 0x00, 0x00, 0x00, 0x80, 0xDC, 0x1F,
  0xD8, 0x3D, 0x00, 0x00, 0x00, 0x00, 0x00, 0x00, 0x00, 0x00,
  0x2A, 0x19, 0x0C, 0x3E, 0x00, 0x00, 0x00, 0x80, 0xD8, 0xAC,
  0x93, 0xBD, 0xA2, 0x78, 0x1A, 0x3E, 0x00, 0x00, 0x00, 0x00,
  0x22, 0x0F, 0x90, 0x3D, 0x7B, 0x05, 0x8F, 0x3D, 0x00, 0x00,
  0x00, 0x00, 0x00, 0x00, 0x00, 0x80, 0x00, 0x00, 0x00, 0x00,
  0x00, 0x00, 0x00, 0x80, 0xDA, 0xF9, 0x2D, 0x3E, 0xBA, 0x0B,
  0x4B, 0x3D, 0x00, 0x00, 0x00, 0x00, 0xE2, 0x7D, 0x43, 0x3D,
  0x00, 0x00, 0x00, 0x00, 0xD2, 0x49, 0x6F, 0xBD, 0x00, 0x00,
  0x00, 0x00, 0xDE, 0xC9, 0x3C, 0xBE, 0x00, 0x00, 0x00, 0x00,
  0x9B, 0x11, 0xD5, 0x3D, 0x2F, 0xF2, 0xDA, 0xBD, 0x00, 0x00,
  0x00, 0x00, 0x00, 0x00, 0x00, 0x00, 0xE7, 0xCF, 0xB4, 0xBD,
  0xF6, 0x93, 0x86, 0xBE, 0x00, 0x00, 0x00, 0x00, 0x00, 0x00,
  0x00, 0x00, 0xB0, 0x48, 0xCE, 0xBD, 0x00, 0x00, 0x00, 0x80,
  0xAA, 0x1C, 0x35, 0xBE, 0x13, 0x69, 0x8F, 0xBE, 0x00, 0x00,
  0x00, 0x80, 0x49, 0xB8, 0x32, 0x3E, 0x00, 0x00, 0x00, 0x80,
  0x00, 0x00, 0x00, 0x80, 0xFA, 0x0C, 0xA2, 0xBE, 0x93, 0x5E,
  0x02, 0x3E, 0x38, 0x9C, 0xCC, 0x3D, 0x00, 0x00, 0x00, 0x80,
  0x00, 0x00, 0x00, 0x00, 0x00, 0x00, 0x00, 0x00, 0x00, 0x00,
  0x00, 0x80, 0x82, 0xC2, 0x19, 0xBE, 0x64, 0xD1, 0x57, 0xBE,
  0xF9, 0xAF, 0x38, 0xBE, 0x00, 0x00, 0x00, 0x80, 0x00, 0x00,
  0x00, 0x00, 0xD0, 0x16, 0xAC, 0xBD, 0xCE, 0x20, 0x01, 0xBE,
  0x00, 0x00, 0x00, 0x00, 0x00, 0x00, 0x00, 0x00, 0xCC, 0x52,
  0x32, 0xBD, 0x24, 0x3B, 0xD2, 0x3D, 0x00, 0x00, 0x00, 0x00,
  0x00, 0x00, 0x00, 0x00, 0x03, 0x56, 0x02, 0xBE, 0x6A, 0x30,
  0x7B, 0xBD, 0x00, 0x00, 0x00, 0x00, 0x53, 0x9E, 0x8D, 0x3E,
  0x00, 0x00, 0x00, 0x00, 0x60, 0x45, 0x81, 0x3E, 0xEE, 0xAF,
  0x44, 0x3E, 0x00, 0x00, 0x00, 0x00, 0x00, 0x00, 0x00, 0x00,
  0x28, 0x77, 0x0F, 0xBE, 0x91, 0xBF, 0x12, 0x3E, 0x00, 0x00,
  0x00, 0x00, 0xDE, 0x0A, 0x1F, 0xBE, 0x00, 0x00, 0x00, 0x00,
  0x65, 0x4E, 0xCA, 0x3D, 0x00, 0x00, 0x00, 0x00, 0xA6, 0x8B,
  0x8A, 0xBC, 0x00, 0x00, 0x00, 0x00, 0xFF, 0x92, 0x33, 0x3E,
  0x00, 0x00, 0x00, 0x80, 0x00, 0x00, 0x00, 0x80, 0x68, 0x5A,
  0xBC, 0x3E, 0x00, 0x00, 0x00, 0x00, 0x00, 0x00, 0x00, 0x80,
  0x89, 0x37, 0x0F, 0xBE, 0x69, 0x9B, 0x0B, 0x3E, 0x00, 0x00,
  0x00, 0x80, 0x52, 0xBD, 0x69, 0x3D, 0x00, 0x00, 0x00, 0x00,
  0x92, 0xF4, 0x24, 0x3E, 0x00, 0x00, 0x00, 0x00, 0x27, 0x88,
  0x1D, 0x3E, 0x00, 0x00, 0x00, 0x00, 0x49, 0xE3, 0x35, 0x3E,
  0x00, 0x00, 0x00, 0x80, 0x9A, 0x3F, 0x52, 0x3E, 0x00, 0x00,
  0x00, 0x00, 0xB6, 0xAB, 0xE3, 0x3D, 0x00, 0x00, 0x00, 0x00,
  0xC6, 0x1F, 0x1A, 0xBE, 0x25, 0xB9, 0x65, 0x3E, 0x00, 0x00,
  0x00, 0x00, 0x98, 0xB9, 0x1A, 0xBE, 0xCB, 0x82, 0x0E, 0xBE,
  0x00, 0x00, 0x00, 0x00, 0x00, 0x00, 0x00, 0x00, 0xC8, 0xC9,
  0x3D, 0xBE, 0x00, 0x00, 0x00, 0x80, 0x00, 0x00, 0x00, 0x00,
  0xE7, 0x92, 0x60, 0xBE, 0x78, 0xAB, 0x70, 0xBE, 0x00, 0x00,
  0x00, 0x80, 0x00, 0x00, 0x00, 0x80, 0x71, 0xD3, 0x16, 0x3E,
  0x00, 0x00, 0x00, 0x80, 0x03, 0xCF, 0xD6, 0x3D, 0x22, 0xBD,
  0x24, 0xBE, 0x00, 0x00, 0x00, 0x80, 0x00, 0x00, 0x00, 0x80,
  0x34, 0x1F, 0x61, 0xBE, 0x00, 0x00, 0x00, 0x80, 0x03, 0x12,
  0x37, 0x3E, 0x54, 0x4E, 0x3F, 0xBE, 0x00, 0x00, 0x00, 0x00,
  0xCE, 0x69, 0x09, 0xBE, 0x00, 0x00, 0x00, 0x80, 0x00, 0x00,
  0x00, 0x00, 0x48, 0x23, 0x18, 0x3E, 0xDF, 0x66, 0x47, 0x3E,
  0x00, 0x00, 0x00, 0x80, 0xAC, 0xB4, 0x50, 0x3E, 0x00, 0x00,
  0x00, 0x80, 0x00, 0x00, 0x00, 0x00, 0xA7, 0xE5, 0x34, 0x3E,
  0x0C, 0xC3, 0x0B, 0xBE, 0x00, 0x00, 0x00, 0x00, 0x0B, 0x19,
  0xDE, 0x3D, 0x00, 0x00, 0x00, 0x00, 0x00, 0x00, 0x00, 0x00,
  0x00, 0x00, 0x00, 0x00, 0xC6, 0x4D, 0xCB, 0xBD, 0x4B, 0x66,
  0x8A, 0x3D, 0xFB, 0x42, 0x69, 0xBE, 0x00, 0x00, 0x00, 0x00,
  0x5F, 0x61, 0x00, 0xBE, 0x00, 0x00, 0x00, 0x80, 0x00, 0x00,
  0x00, 0x80, 0x66, 0xBB, 0x71, 0xBE, 0x00, 0x00, 0x00, 0x00,
  0x1B, 0x04, 0x6E, 0x3E, 0x00, 0x00, 0x00, 0x00, 0x00, 0x00,
  0x00, 0x80, 0x93, 0xF2, 0x28, 0x3E, 0x4B, 0xE2, 0x1A, 0x3E,
  0xB1, 0xE1, 0x2D, 0x3E, 0x00, 0x00, 0x00, 0x00, 0x00, 0x00,
  0x00, 0x80, 0xB4, 0x4D, 0x47, 0xBE, 0xBD, 0x12, 0x10, 0xBE,
  0x00, 0x00, 0x00, 0x00, 0x00, 0x00, 0x00, 0x80, 0x72, 0x74,
  0x05, 0xBE, 0x00, 0x00, 0x00, 0x80, 0x00, 0x00, 0x00, 0x80,
  0x7E, 0xD3, 0x33, 0xBE, 0xE7, 0xFA, 0x82, 0xBE, 0xD5, 0x68,
  0x55, 0xBD, 0x89, 0x58, 0xF4, 0xBD, 0x00, 0x00, 0x00, 0x80,
  0x00, 0x00, 0x00, 0x80, 0x00, 0x00, 0x00, 0x80, 0xA6, 0x8D,
  0x60, 0xBD, 0x4A, 0x5E, 0xFF, 0xBD, 0x00, 0x00, 0x00, 0x00,
  0xC4, 0xB1, 0x77, 0xBE, 0x00, 0x00, 0x00, 0x80, 0x00, 0x00,
  0x00, 0x00, 0x46, 0x6D, 0x3B, 0xBE, 0x00, 0x00, 0x00, 0x80,
  0xE2, 0xF3, 0x79, 0xBE, 0x00, 0x00, 0x00, 0x80, 0x44, 0x00,
  0x8B, 0xBE, 0xF6, 0xE1, 0x01, 0x3E, 0x00, 0x00, 0x00, 0x00,
  0x00, 0x00, 0x00, 0x00, 0xF8, 0x35, 0x7B, 0x3E, 0x00, 0x00,
  0x00, 0x80, 0x66, 0x37, 0x6C, 0x3E, 0x00, 0x00, 0x00, 0x00,
  0x72, 0x5B, 0x19, 0x3E, 0xAF, 0xAC, 0x9E, 0xBE, 0x00, 0x00,
  0x00, 0x80, 0x00, 0x00, 0x00, 0x80, 0xBF, 0x54, 0x8E, 0xBE,
  0x8C, 0x2B, 0x93, 0xBE, 0xA6, 0x19, 0xB2, 0xBE, 0x00, 0x00,
  0x00, 0x80, 0x00, 0x00, 0x00, 0x80, 0x8E, 0x0B, 0xE2, 0xBC,
  0x00, 0x00, 0x00, 0x80, 0xD7, 0xBB, 0x5D, 0x3D, 0x00, 0x00,
  0x00, 0x80, 0x19, 0x73, 0x74, 0xBE, 0x00, 0x00, 0x00, 0x80,
  0x93, 0xF5, 0x4B, 0xBE, 0x00, 0x00, 0x00, 0x80, 0xE0, 0xA4,
  0x4B, 0xBE, 0x00, 0x00, 0x00, 0x80, 0x58, 0xA3, 0xA3, 0x3D,
  0x00, 0x00, 0x00, 0x00, 0x00, 0x00, 0x00, 0x00, 0x00, 0x00,
  0x00, 0x80, 0x57, 0xFC, 0x87, 0xBD, 0x8D, 0xEB, 0xDC, 0xBD,
  0x89, 0x8C, 0x6C, 0xBE, 0x00, 0x00, 0x00, 0x00, 0x00, 0x00,
  0x00, 0x80, 0x87, 0xF2, 0xAF, 0xBD, 0x00, 0x00, 0x00, 0x00,
  0x7A, 0x8D, 0x88, 0x3E, 0x00, 0x00, 0x00, 0x80, 0xD7, 0xAF,
  0x41, 0x3E, 0xC6, 0x99, 0xD8, 0x3D, 0x5A, 0x9B, 0x2E, 0xBD,
  0x00, 0x00, 0x00, 0x00, 0x00, 0x00, 0x00, 0x00, 0xDA, 0x58,
  0x89, 0xBE, 0x00, 0x00, 0x00, 0x80, 0x00, 0x00, 0x00, 0x00,
  0xCB, 0x00, 0x31, 0xBE, 0x07, 0xB5, 0x4C, 0x3E, 0x00, 0x00,
  0x00, 0x00, 0x00, 0x00, 0x00, 0x80, 0x6E, 0x42, 0x8B, 0xBC,
  0x00, 0x00, 0x00, 0x00, 0x00, 0x00, 0x00, 0x00, 0x4E, 0xE3,
  0xC1, 0xBC, 0xD7, 0x87, 0xC8, 0xBD, 0xAC, 0xC2, 0xD2, 0xBD,
  0x00, 0x00, 0x00, 0x00, 0x00, 0x00, 0x00, 0x00, 0x68, 0x0A,
  0xA9, 0x3D, 0x00, 0x00, 0x00, 0x80, 0x91, 0xF6, 0xD5, 0x3D,
  0x00, 0x00, 0x00, 0x00, 0xC3, 0xE0, 0x66, 0x3E, 0x00, 0x00,
  0x00, 0x00, 0x9C, 0xEE, 0x0A, 0x3E, 0x00, 0x00, 0x00, 0x80,
  0x35, 0xFA, 0x20, 0xBE, 0x13, 0x10, 0x22, 0x3E, 0x00, 0x00,
  0x00, 0x00, 0x00, 0x00, 0x00, 0x80, 0xA5, 0x1E, 0x89, 0x3E,
  0xE3, 0xDF, 0x48, 0xBD, 0xDF, 0x6E, 0xCB, 0xBD, 0x00, 0x00,
  0x00, 0x80, 0x00, 0x00, 0x00, 0x00, 0x00, 0x00, 0x00, 0x80,
  0x00, 0x00, 0x00, 0x00, 0x60, 0xDD, 0x01, 0x3E, 0x37, 0x03,
  0xEB, 0xBD, 0xF1, 0xCE, 0x0C, 0x3E, 0x00, 0x00, 0x00, 0x00,
  0xAD, 0x56, 0xD7, 0xBD, 0x00, 0x00, 0x00, 0x00, 0x00, 0x00,
  0x00, 0x00, 0xE2, 0xAA, 0x1C, 0x3E, 0x62, 0x3F, 0x3D, 0x3E,
  0x00, 0x00, 0x00, 0x00, 0x21, 0x3F, 0x2F, 0x3E, 0x11, 0xA0,
  0xD7, 0x3D, 0x00, 0x00, 0x00, 0x00, 0x00, 0x00, 0x00, 0x80,
  0xA3, 0x82, 0x65, 0x3D, 0x00, 0x00, 0x00, 0x00, 0x00, 0x00,
  0x00, 0x00, 0xF8, 0x82, 0x49, 0x3E, 0x59, 0x18, 0xBD, 0x3D,
  0x00, 0x00, 0x00, 0x00, 0x7D, 0x01, 0x02, 0x3E, 0x00, 0x00,
  0x00, 0x00, 0x1F, 0x14, 0x18, 0xBE, 0x00, 0x00, 0x00, 0x00,
  0x00, 0x00, 0x00, 0x00, 0xE5, 0x91, 0x25, 0xBE, 0x00, 0x00,
  0x00, 0x80, 0x2B, 0xD8, 0x69, 0xBE, 0x00, 0x00, 0x00, 0x80,
  0x89, 0x9D, 0xA8, 0xBD, 0x23, 0x0D, 0x20, 0xBE, 0x00, 0x00,
  0x00, 0x80, 0x64, 0x38, 0x34, 0x3E, 0x00, 0x00, 0x00, 0x80,
  0x2E, 0x57, 0x3E, 0x3E, 0x00, 0x00, 0x00, 0x00, 0x00, 0x00,
  0x00, 0x00, 0x89, 0xD2, 0x35, 0x3E, 0xC8, 0xAB, 0x3C, 0x3E,
  0x00, 0x00, 0x00, 0x00, 0x2B, 0xB9, 0x95, 0x3E, 0x00, 0x00,
  0x00, 0x80, 0x00, 0x00, 0x00, 0x80, 0x00, 0x00, 0x00, 0x80,
  0xAC, 0x0F, 0xA3, 0xBD, 0xBF, 0x59, 0x96, 0x3E, 0xE2, 0x6C,
  0x13, 0x3E, 0x00, 0x00, 0x00, 0x00, 0x08, 0xCA, 0xDB, 0x3D,
  0x00, 0x00, 0x00, 0x00, 0xE1, 0x6D, 0x39, 0xBD, 0xD6, 0xCE,
  0xE0, 0x3D, 0x00, 0x00, 0x00, 0x00, 0xD4, 0x72, 0xC2, 0x3D,
  0x00, 0x00, 0x00, 0x00, 0x00, 0x00, 0x00, 0x00, 0x00, 0x00,
  0x00, 0x80, 0x08, 0xFD, 0x3C, 0x3E, 0x9D, 0x26, 0x02, 0x3D,
  0x2D, 0xB2, 0x00, 0x3E, 0x00, 0x00, 0x00, 0x00, 0x26, 0x4C,
  0xA4, 0xBE, 0x00, 0x00, 0x00, 0x00, 0x00, 0x00, 0x00, 0x00,
  0x64, 0xC1, 0x00, 0x3E, 0x00, 0x00, 0x00, 0x00, 0xC6, 0x4B,
  0x6E, 0xBE, 0x00, 0x00, 0x00, 0x00, 0x64, 0x17, 0x06, 0x3E,
  0xC1, 0x48, 0xE0, 0x3D, 0x00, 0x00, 0x00, 0x00, 0x00, 0x00,
  0x00, 0x00, 0x00, 0x00, 0x00, 0x00, 0xE1, 0xFC, 0xFD, 0x3D,
  0x99, 0x68, 0x84, 0x3D, 0x00, 0x00, 0x00, 0x00, 0x00, 0x00,
  0x00, 0x00, 0xB2, 0xF3, 0x16, 0xBE, 0xF4, 0xE9, 0x2E, 0xBE,
  0x00, 0x00, 0x00, 0x00, 0x00, 0x00, 0x00, 0x00, 0xAF, 0x81,
  0x83, 0xBD, 0xB5, 0x4C, 0xE0, 0x3D, 0x00, 0x00, 0x00, 0x00,
  0x00, 0x00, 0x00, 0x00, 0xB0, 0xEA, 0xD7, 0xBD, 0x9B, 0x29,
  0x1F, 0x3E, 0x52, 0xAC, 0x0D, 0x3D, 0x00, 0x00, 0x00, 0x00,
  0x00, 0x00, 0x00, 0x00, 0x3A, 0xDF, 0x57, 0xBD, 0x00, 0x00,
  0x00, 0x00, 0x3D, 0x2D, 0x1D, 0x3E, 0x12, 0xA8, 0xE4, 0x3D,
  0x00, 0x00, 0x00, 0x00, 0x09, 0xFF, 0x13, 0x3D, 0x00, 0x00,
  0x00, 0x00, 0x00, 0x00, 0x00, 0x00, 0xB8, 0xBB, 0x79, 0x3D,
  0x1E, 0x48, 0x48, 0x3E, 0x00, 0x00, 0x00, 0x00, 0x26, 0xA1,
  0xEA, 0xBD, 0x00, 0x00, 0x00, 0x80, 0x00, 0x00, 0x00, 0x00,
  0x4C, 0xA8, 0x24, 0x3E, 0x00, 0x00, 0x00, 0x00, 0xAA, 0xE4,
  0x1F, 0xBE, 0xAC, 0x5A, 0x29, 0xBE, 0x70, 0x6F, 0xDB, 0xBD,
  0x00, 0x00, 0x00, 0x00, 0x00, 0x00, 0x00, 0x00, 0xA7, 0x72,
  0xD4, 0xBD, 0x00, 0x00, 0x00, 0x00, 0x00, 0x00, 0x00, 0x80,
  0x5C, 0xFE, 0x17, 0xBE, 0xB6, 0x3A, 0x18, 0xBE, 0x00, 0x00,
  0x00, 0x80, 0x45, 0x05, 0x9B, 0x3E, 0x00, 0x00, 0x00, 0x00,
  0x7A, 0xFF, 0xA5, 0x3D, 0x00, 0x00, 0x00, 0x00, 0x00, 0x00,
  0x00, 0x00, 0x1C, 0x01, 0xCF, 0x3E, 0x00, 0x00, 0x00, 0x00,
  0xB2, 0xDF, 0x25, 0xBE, 0x00, 0x00, 0x00, 0x00, 0x51, 0xEB,
  0xD7, 0x3D, 0x0B, 0x94, 0x36, 0x3E, 0x00, 0x00, 0x00, 0x00,
  0x67, 0x18, 0x0E, 0xBE, 0x00, 0x00, 0x00, 0x00, 0x00, 0x00,
  0x00, 0x00, 0x02, 0x27, 0x31, 0x3E, 0xF2, 0x1B, 0x4E, 0xBE,
  0x00, 0x00, 0x00, 0x00, 0xD7, 0x99, 0x1F, 0xBE, 0x3F, 0xBE,
  0xC6, 0xBD, 0x00, 0x00, 0x00, 0x00, 0x00, 0x00, 0x00, 0x00,
  0x00, 0x00, 0x00, 0x00, 0x00, 0x00, 0x00, 0x00, 0x70, 0x09,
  0x93, 0xBD, 0x7E, 0xD7, 0xFD, 0xBD, 0x00, 0x00, 0x00, 0x00,
  0x4E, 0xA0, 0x1C, 0xBE, 0x8A, 0x0E, 0x2D, 0xBE, 0x00, 0x00,
  0x00, 0x00, 0x44, 0xF7, 0x29, 0xBE, 0x00, 0x00, 0x00, 0x00,
  0x00, 0x00, 0x00, 0x00, 0x35, 0x82, 0x1A, 0xBE, 0x00, 0x00,
  0x00, 0x00, 0xD8, 0xAB, 0xA5, 0xBD, 0x7F, 0xAB, 0xEC, 0x3D,
  0x00, 0x00, 0x00, 0x00, 0x67, 0x85, 0x24, 0x3E, 0x00, 0x00,
  0x00, 0x00, 0x60, 0xE8, 0x07, 0xBD, 0x00, 0x00, 0x00, 0x00,
  0x33, 0xD6, 0x02, 0xBE, 0x00, 0x00, 0x00, 0x00, 0x00, 0x00,
  0x00, 0x00, 0x5F, 0x99, 0x88, 0xBE, 0x00, 0x00, 0x00, 0x00,
  0x30, 0x43, 0xB5, 0xBD, 0xC8, 0xD5, 0x5C, 0x3E, 0x00, 0x00,
  0x00, 0x00, 0x00, 0x00, 0x00, 0x00, 0x30, 0xE4, 0xBE, 0xBD,
  0xD6, 0x1E, 0x96, 0xBD, 0x00, 0x00, 0x00, 0x00, 0x6B, 0x9D,
  0x2C, 0xBE, 0x00, 0x00, 0x00, 0x00, 0x00, 0x00, 0x00, 0x00,
  0xFE, 0x28, 0x2E, 0xBE, 0x00, 0x00, 0x00, 0x00, 0x6E, 0x64,
  0x35, 0x3E, 0x00, 0x00, 0x00, 0x00, 0x31, 0x91, 0xB1, 0x3D,
  0xA6, 0x68, 0x14, 0xBE, 0x4D, 0x1C, 0xFD, 0xBD, 0x00, 0x00,
  0x00, 0x00, 0x00, 0x00, 0x00, 0x00, 0x00, 0x00, 0x00, 0x00,
  0x79, 0x3F, 0x26, 0x3E, 0x77, 0x41, 0xA8, 0x3D, 0x00, 0x00,
  0x00, 0x00, 0xB3, 0xB1, 0xD4, 0xBD, 0x00, 0x00, 0x00, 0x00,
  0x62, 0x11, 0x42, 0x3D, 0x00, 0x00, 0x00, 0x00, 0xC8, 0xC1,
  0x00, 0x3D, 0xC4, 0x7F, 0x98, 0xBE, 0x00, 0x00, 0x00, 0x00,
  0x00, 0x00, 0x00, 0x00, 0x8E, 0xD6, 0x0D, 0x3E, 0x56, 0x0F,
  0x13, 0x3E, 0x00, 0x00, 0x00, 0x00, 0x00, 0x00, 0x00, 0x00,
  0x96, 0x74, 0x03, 0x3E, 0x00, 0x00, 0x00, 0x00, 0x76, 0xDF,
  0x52, 0x3E, 0x00, 0x00, 0x00, 0x00, 0x00, 0x00, 0x00, 0x00,
  0x3C, 0xB5, 0xF5, 0x3D, 0xF7, 0x33, 0x65, 0x3D, 0x00, 0x00,
  0x00, 0x00, 0x00, 0x00, 0x00, 0x00, 0x00, 0x00, 0x00, 0x00,
  0xDA, 0xFC, 0x00, 0x3E, 0x0C, 0xA8, 0x91, 0x3D, 0xF6, 0x67,
  0xB1, 0xBD, 0x00, 0x00, 0x00, 0x00, 0x00, 0x00, 0x00, 0x00,
  0xE0, 0xC2, 0xF6, 0x3D, 0x00, 0x00, 0x00, 0x00, 0x24, 0x6F,
  0x05, 0xBE, 0xDA, 0xE0, 0x79, 0x3E, 0x00, 0x00, 0x00, 0x00,
  0x00, 0x00, 0x00, 0x00, 0x0C, 0x71, 0x69, 0x3E, 0x03, 0x0E,
  0xDC, 0x3D, 0x00, 0x00, 0x00, 0x00, 0x00, 0x00, 0x00, 0x00,
  0x00, 0x00, 0x00, 0x00, 0x48, 0x6E, 0xF1, 0x3D, 0x9B, 0x7B,
  0x38, 0x3E, 0xC4, 0xAC, 0x10, 0x3E, 0xF0, 0xA4, 0xD0, 0xBD,
  0x00, 0x00, 0x00, 0x00, 0x00, 0x00, 0x00, 0x00, 0xF4, 0x9A,
  0x0D, 0x3E, 0x79, 0xB3, 0xF6, 0x3D, 0x00, 0x00, 0x00, 0x00,
  0x00, 0x00, 0x00, 0x00, 0x3C, 0x80, 0xB3, 0xBD, 0x00, 0x00,
  0x00, 0x00, 0x00, 0x00, 0x00, 0x00, 0xC9, 0x71, 0x5F, 0xBD,
  0x00, 0x00, 0x00, 0x00, 0x00, 0x00, 0x00, 0x00, 0x57, 0x57,
  0x60, 0x3D, 0xC1, 0x45, 0x94, 0x3D, 0x10, 0x66, 0xAF, 0xBC,
  0x00, 0x00, 0x00, 0x00, 0x00, 0x00, 0x00, 0x00, 0xCA, 0x11,
  0xAB, 0xBD, 0x22, 0x02, 0x0E, 0x3E, 0x00, 0x00, 0x00, 0x00,
  0x00, 0x00, 0x00, 0x00, 0x6F, 0x49, 0x08, 0x3F, 0x00, 0x00,
  0x00, 0x00, 0xF0, 0x3C, 0x39, 0xBC, 0xE6, 0x13, 0x05, 0xBD,
  0x00, 0x00, 0x00, 0x00, 0x79, 0xD5, 0x9E, 0x3E, 0x00, 0x00,
  0x00, 0x00, 0x00, 0x00, 0x00, 0x00, 0x1F, 0x02, 0xDD, 0x3D,
  0xC1, 0xB3, 0x8F, 0xBE, 0x00, 0x00, 0x00, 0x00, 0x00, 0x00,
  0x00, 0x00, 0xAF, 0xB6, 0x13, 0x3E, 0xE2, 0xC9, 0x38, 0x3E,
  0x00, 0x00, 0x00, 0x00, 0x47, 0x05, 0x30, 0xBE, 0x00, 0x00,
  0x00, 0x00, 0xF6, 0xEC, 0xF5, 0xBD, 0x00, 0x00, 0x00, 0x00,
  0x00, 0x00, 0x00, 0x00, 0xEA, 0x6E, 0x8E, 0xBE, 0x15, 0x5F,
  0x96, 0xBD, 0x33, 0x0D, 0x79, 0xBD, 0x00, 0x00, 0x00, 0x00,
  0x00, 0x00, 0x00, 0x00, 0x32, 0x28, 0x9A, 0xBE, 0xAB, 0xF1,
  0x2C, 0xBD, 0x00, 0x00, 0x00, 0x00, 0x00, 0x00, 0x00, 0x00,
  0x00, 0x00, 0x00, 0x00, 0x00, 0x00, 0x00, 0x00, 0x91, 0x95,
  0x22, 0xBE, 0x2A, 0x6B, 0x1F, 0xBE, 0x00, 0x00, 0x00, 0x00,
  0x8C, 0x4C, 0x3D, 0xBD, 0x8D, 0xCC, 0xAC, 0xBD, 0x00, 0x00,
  0x00, 0x00, 0x62, 0x71, 0xD6, 0x3C, 0x00, 0x00, 0x00, 0x00,
  0x55, 0xBB, 0xEC, 0x3C, 0x00, 0x00, 0x00, 0x00, 0xC9, 0xDD,
  0x7D, 0xBD, 0xC0, 0x93, 0x6F, 0xBE, 0x00, 0x00, 0x00, 0x80,
  0x00, 0x00, 0x00, 0x80, 0xC3, 0xB5, 0xEA, 0xBD, 0x82, 0x27,
  0x36, 0xBE, 0x00, 0x00, 0x00, 0x80, 0x0D, 0xC9, 0xE3, 0x3D,
  0x00, 0x00, 0x00, 0x80, 0x00, 0x00, 0x00, 0x80, 0x09, 0xFB,
  0x52, 0xBD, 0x00, 0x00, 0x00, 0x80, 0xE4, 0xCC, 0x98, 0xBD,
  0x00, 0x00, 0x00, 0x80, 0xFA, 0x58, 0x81, 0xBD, 0xBE, 0xCC,
  0xF3, 0xBB, 0x00, 0x00, 0x00, 0x80, 0x72, 0xC7, 0x9C, 0x3D,
  0x00, 0x00, 0x00, 0x80, 0xD0, 0xCD, 0xED, 0x3D, 0x00, 0x00,
  0x00, 0x80, 0x7A, 0x5F, 0x28, 0xBE, 0x00, 0x00, 0x00, 0x80,
  0xDA, 0xB6, 0xF4, 0x3D, 0x00, 0x00, 0x00, 0x80, 0x38, 0x89,
  0x3B, 0xBE, 0x00, 0x00, 0x00, 0x80, 0x00, 0x00, 0x00, 0x80,
  0x51, 0x7B, 0xA7, 0xBD, 0x90, 0x39, 0x6C, 0xBE, 0x00, 0x00,
  0x00, 0x80, 0x48, 0x2C, 0x5C, 0xBE, 0x00, 0x00, 0x00, 0x80,
  0x00, 0x00, 0x00, 0x80, 0x64, 0xE0, 0x67, 0xBE, 0x00, 0x00,
  0x00, 0x80, 0xC0, 0xCF, 0x2C, 0x3E, 0xBD, 0x0D, 0x20, 0x3E,
  0x00, 0x00, 0x00, 0x80, 0xF2, 0x78, 0xA8, 0x3D, 0x00, 0x00,
  0x00, 0x80, 0x01, 0xA0, 0x32, 0x3E, 0x00, 0x00, 0x00, 0x80,
  0x00, 0x00, 0x00, 0x80, 0xC6, 0x50, 0x01, 0x3E, 0xD1, 0x46,
  0x36, 0x3D, 0x75, 0xC2, 0x89, 0x3E, 0x00, 0x00, 0x00, 0x80,
  0x00, 0x00, 0x00, 0x80, 0x00, 0x00, 0x00, 0x80, 0x00, 0x00,
  0x00, 0x80, 0x33, 0xB7, 0x59, 0xBE, 0xE5, 0x74, 0x4B, 0xBE,
  0xF2, 0xD4, 0x62, 0x3E, 0x00, 0x00, 0x00, 0x80, 0x00, 0x00,
  0x00, 0x80, 0x80, 0x07, 0x78, 0xBE, 0xA0, 0x13, 0xD6, 0x3D,
  0x00, 0x00, 0x00, 0x80, 0x84, 0x57, 0x45, 0xBD, 0x00, 0x00,
  0x00, 0x80, 0x83, 0x48, 0x2E, 0xBE, 0x00, 0x00, 0x00, 0x80,
  0xBC, 0xE2, 0x36, 0xBE, 0x00, 0x00, 0x00, 0x80, 0x00, 0x00,
  0x00, 0x80, 0x00, 0x00, 0x00, 0x80, 0xEB, 0xBF, 0xDD, 0xBD,
  0x2B, 0x1B, 0x3E, 0xBE, 0x00, 0x00, 0x00, 0x80, 0x64, 0xAF,
  0x16, 0xBE, 0x37, 0x24, 0x4D, 0x3E, 0x00, 0x00, 0x00, 0x80,
  0x00, 0x00, 0x00, 0x80, 0x00, 0x00, 0x00, 0x80, 0xC3, 0x6A,
  0x8A, 0x3E, 0x44, 0x98, 0x8E, 0x3E, 0x00, 0x00, 0x00, 0x80,
  0x00, 0x00, 0x00, 0x80, 0xC0, 0x22, 0xEE, 0xBD, 0x04, 0x3E,
  0x79, 0x3E, 0x00, 0x00, 0x00, 0x80, 0x00, 0x00, 0x00, 0x80,
  0x87, 0x8E, 0x17, 0xBE, 0x02, 0xBC, 0x9C, 0xBD, 0x00, 0x00,
  0x00, 0x80, 0x23, 0xFD, 0xB2, 0xBD, 0x00, 0x00, 0x00, 0x80,
  0x80, 0xC2, 0x3E, 0xBD, 0x00, 0x00, 0x00, 0x80, 0x00, 0x00,
  0x00, 0x80, 0xC9, 0xA3, 0xBE, 0x3D, 0xA9, 0x9B, 0x61, 0xBD,
  0xF4, 0xE6, 0xDF, 0xBD, 0x00, 0x00, 0x00, 0x80, 0x91, 0x73,
  0xFE, 0x3D, 0x00, 0x00, 0x00, 0x80, 0x00, 0x00, 0x00, 0x80,
  0x00, 0x00, 0x00, 0x80, 0xCF, 0x26, 0x0C, 0xBE, 0x51, 0x50,
  0x03, 0x3E, 0x54, 0x6A, 0xCB, 0xBD, 0x4A, 0x66, 0xA6, 0xBD,
  0x00, 0x00, 0x00, 0x80, 0x00, 0x00, 0x00, 0x80, 0x00, 0x00,
  0x00, 0x80, 0x43, 0xE1, 0x58, 0x3E, 0x2C, 0xFC, 0x36, 0x3E,
  0x00, 0x00, 0x00, 0x80, 0xF2, 0x2A, 0xF7, 0x3D, 0x00, 0x00,
  0x00, 0x80, 0x00, 0x00, 0x00, 0x00, 0x96, 0x87, 0x81, 0xBE,
  0xB8, 0x94, 0x87, 0xBD, 0xDA, 0x4A, 0x77, 0xBC, 0x00, 0x00,
  0x00, 0x00, 0x00, 0x00, 0x00, 0x00, 0x00, 0x00, 0x00, 0x80,
  0xDA, 0xC3, 0x06, 0xBE, 0x09, 0x3D, 0x80, 0x3E, 0x00, 0x00,
  0x00, 0x80, 0xD5, 0x3E, 0x56, 0x3E, 0x00, 0x00, 0x00, 0x80,
  0x65, 0x77, 0xC8, 0x3D, 0x00, 0x00, 0x00, 0x80, 0x00, 0x00,
  0x00, 0x80, 0x00, 0x00, 0x00, 0x00, 0x03, 0x75, 0xA7, 0x3D,
  0xFF, 0xFE, 0x80, 0xBD, 0x56, 0x7B, 0x1C, 0xBE, 0xC5, 0x1B,
  0x1C, 0xBE, 0x00, 0x00, 0x00, 0x00, 0x00, 0x00, 0x00, 0x80,
  0x17, 0x73, 0x04, 0x3E, 0x58, 0xBA, 0xBB, 0x3D, 0x00, 0x00,
  0x00, 0x80, 0x00, 0x00, 0x00, 0x80, 0x8D, 0x07, 0xB8, 0xBD,
  0x64, 0x76, 0x21, 0xBE, 0x00, 0x00, 0x00, 0x80, 0x00, 0x00,
  0x00, 0x80, 0x00, 0x00, 0x00, 0x80, 0xFC, 0xDC, 0x0C, 0x3E,
  0x00, 0x00, 0x00, 0x80, 0x9C, 0xF5, 0x47, 0x3E, 0x00, 0x00,
  0x00, 0x80, 0x00, 0x00, 0x00, 0x80, 0x44, 0x6F, 0xE8, 0x3D,
  0x7C, 0x68, 0x73, 0x3E, 0xD0, 0x60, 0x39, 0x3E, 0x00, 0x00,
  0x00, 0x80, 0xAB, 0xB9, 0x28, 0x3E, 0x00, 0x00, 0x00, 0x80,
  0xC3, 0x8D, 0xDE, 0xBD, 0x00, 0x00, 0x00, 0x80, 0x8D, 0xDC,
  0x70, 0xBE, 0x00, 0x00, 0x00, 0x80, 0x00, 0x00, 0x00, 0x80,
  0x4A, 0x0A, 0xFB, 0xBD, 0x19, 0x73, 0x5B, 0xBD, 0x00, 0x00,
  0x00, 0x80, 0x00, 0x00, 0x00, 0x80, 0x00, 0x00, 0x00, 0x80,
  0x9D, 0xA9, 0x94, 0x3D, 0xD7, 0x42, 0x0B, 0x3E, 0x81, 0xAD,
  0x3F, 0x3D, 0x00, 0x00, 0x00, 0x80, 0x00, 0x00, 0x00, 0x80,
  0x3C, 0x51, 0xBE, 0x3D, 0x00, 0x00, 0x00, 0x80, 0xCE, 0xD0,
  0xEB, 0xBD, 0x00, 0x00, 0x00, 0x80, 0x2E, 0xBC, 0xCC, 0xBD,
  0x73, 0xA3, 0xAE, 0xBD, 0x73, 0x51, 0x81, 0xBE, 0x00, 0x00,
  0x00, 0x00, 0x00, 0x00, 0x00, 0x80, 0x00, 0x00, 0x00, 0x80,
  0x00, 0x00, 0x00, 0x80, 0x15, 0xC5, 0x59, 0x3E, 0x69, 0xF6,
  0x81, 0x3E, 0x00, 0x00, 0x00, 0x80, 0x03, 0x80, 0x10, 0x3E,
  0x00, 0x00, 0x00, 0x80, 0x40, 0xCB, 0x15, 0x3E, 0x00, 0x00,
  0x00, 0x80, 0xE1, 0xBD, 0xF6, 0xBD, 0xDE, 0x89, 0x5C, 0xBE,
  0x00, 0x00, 0x00, 0x80, 0xC6, 0xFD, 0xA2, 0x3E, 0x00, 0x00,
  0x00, 0x80, 0x25, 0x31, 0xE8, 0x3D, 0x00, 0x00, 0x00, 0x80,
  0x00, 0x00, 0x00, 0x80, 0xDF, 0x59, 0x20, 0x3E, 0x71, 0x1E,
  0xFA, 0x3C, 0x00, 0x00, 0x00, 0x80, 0x00, 0x00, 0x00, 0x80,
  0x42, 0x51, 0x99, 0x3D, 0x00, 0x00, 0x00, 0x00, 0x61, 0x01,
  0xB9, 0x3D, 0x00, 0x00, 0x00, 0x80, 0x00, 0x00, 0x00, 0x80,
  0x03, 0xDD, 0xA4, 0x3D, 0x7C, 0x76, 0xA1, 0xBE, 0x00, 0x00,
  0x00, 0x80, 0x00, 0x00, 0x00, 0x80, 0x6C, 0xAA, 0x5E, 0xBE,
  0xA6, 0xCC, 0x33, 0xBE, 0x00, 0x00, 0x00, 0x80, 0xBB, 0x9D,
  0x5A, 0xBE, 0xCF, 0x35, 0x24, 0x3E, 0x00, 0x00, 0x00, 0x80,
  0x00, 0x00, 0x00, 0x80, 0x34, 0xCE, 0x69, 0x3D, 0xA7, 0xA7,
  0xC8, 0x3D, 0x00, 0x00, 0x00, 0x80, 0x00, 0x00, 0x00, 0x80,
  0x00, 0x00, 0x00, 0x80, 0xD4, 0x78, 0x09, 0x3E, 0xEE, 0x12,
  0x62, 0x3D, 0x10, 0x1B, 0x17, 0x3E, 0x00, 0x00, 0x00, 0x80,
  0x79, 0xE1, 0x21, 0x3E, 0x00, 0x00, 0x00, 0x00, 0x70, 0x5B,
  0xCA, 0xBD, 0x24, 0x83, 0xB4, 0x3D, 0x00, 0x00, 0x00, 0x80,
  0x00, 0x00, 0x00, 0x00, 0x65, 0x3E, 0x87, 0x3E, 0x1A, 0x7F,
  0xF4, 0x3D, 0x00, 0x00, 0x00, 0x80, 0x00, 0x00, 0x00, 0x80,
  0xEA, 0x8B, 0x1D, 0xBE, 0x78, 0x94, 0xA7, 0xBD, 0x00, 0x00,
  0x00, 0x00, 0x00, 0x00, 0x00, 0x00, 0x00, 0x00, 0x00, 0x80,
  0x00, 0x00, 0x00, 0x80, 0x70, 0xFD, 0x8E, 0xBD, 0xC5, 0x0C,
  0x49, 0x3D, 0x34, 0xA4, 0x6E, 0x3D, 0x00, 0x00, 0x00, 0x00,
  0x67, 0x2C, 0x64, 0xBE, 0x00, 0x00, 0x00, 0x80, 0xD2, 0x16,
  0x54, 0xBE, 0x21, 0x3A, 0x72, 0x3C, 0x00, 0x00, 0x00, 0x00,
  0x00, 0x00, 0x00, 0x00, 0x47, 0x6A, 0xB3, 0x3D, 0xE8, 0xF2,
  0x65, 0x3D, 0x00, 0x00, 0x00, 0x80, 0x41, 0xB1, 0x48, 0x3E,
  0x00, 0x00, 0x00, 0x00, 0x00, 0x00, 0x00, 0x80, 0x8A, 0x46,
  0xD2, 0x3D, 0xCD, 0x2A, 0x30, 0xBE, 0x00, 0x00, 0x00, 0x00,
  0x48, 0x6A, 0x3D, 0xBE, 0x62, 0x3F, 0x1A, 0x3E, 0x00, 0x00,
  0x00, 0x00, 0x00, 0x00, 0x00, 0x80, 0x00, 0x00, 0x00, 0x00,
  0x00, 0x00, 0x00, 0x00, 0x53, 0x46, 0xD2, 0xBD, 0x0D, 0x80,
  0x79, 0x3E, 0x9A, 0x4A, 0x74, 0x3D, 0x00, 0x00, 0x00, 0x80,
  0x5B, 0xC1, 0x29, 0xBE, 0x00, 0x00, 0x00, 0x80, 0x56, 0xD7,
  0x5E, 0x3D, 0x00, 0x00, 0x00, 0x80, 0x66, 0x88, 0x89, 0x3C,
  0x00, 0x00, 0x00, 0x80, 0xB8, 0x89, 0x78, 0x3D, 0xD2, 0x79,
  0x0A, 0x3E, 0x00, 0x00, 0x00, 0x80, 0x00, 0x00, 0x00, 0x80,
  0x8C, 0xC4, 0x93, 0xBD, 0x77, 0xB1, 0x75, 0x3E, 0x00, 0x00,
  0x00, 0x80, 0x00, 0x00, 0x00, 0x80, 0xD6, 0xE1, 0x9B, 0xBD,
  0x00, 0x00, 0x00, 0x00, 0xEB, 0x88, 0xD0, 0x3D, 0x00, 0x00,
  0x00, 0x00, 0xA2, 0x07, 0x93, 0xBE, 0xA2, 0x37, 0x75, 0xBD,
  0x00, 0x00, 0x00, 0x00, 0x00, 0x00, 0x00, 0x00, 0x00, 0x00,
  0x00, 0x00, 0x00, 0x00, 0x00, 0x80, 0x95, 0x6A, 0x02, 0x3E,
  0x1D, 0x71, 0xA9, 0xBD, 0x00, 0x00, 0x00, 0x80, 0x90, 0x6B,
  0x5F, 0x3D, 0x00, 0x00, 0x00, 0x80, 0x17, 0x8D, 0xA3, 0xBD,
  0x29, 0xDA, 0xFF, 0xBD, 0x00, 0x00, 0x00, 0x80, 0x00, 0x00,
  0x00, 0x00, 0xED, 0x99, 0xBD, 0xBE, 0x00, 0x00, 0x00, 0x80,
  0x6F, 0x5C, 0x30, 0xBE, 0x00, 0x00, 0x00, 0x80, 0x39, 0x30,
  0x64, 0x3E, 0x6E, 0x31, 0x82, 0xBD, 0x00, 0x00, 0x00, 0x80,
  0xDA, 0xA3, 0xD1, 0xBD, 0x00, 0x00, 0x00, 0x80, 0xD3, 0x68,
  0x8B, 0x3E, 0x00, 0x00, 0x00, 0x80, 0x55, 0x9F, 0x2D, 0x3E,
  0x00, 0x00, 0x00, 0x80, 0x00, 0x00, 0x00, 0x80, 0x70, 0x21,
  0xF4, 0x3D, 0x90, 0xB2, 0xBE, 0xBD, 0x00, 0x00, 0x00, 0x00,
  0xCA, 0x09, 0x65, 0xBE, 0x00, 0x00, 0x00, 0x80, 0x00, 0x00,
  0x00, 0x00, 0x43, 0xAC, 0x6A, 0xBE, 0x00, 0x00, 0x00, 0x00,
  0x00, 0x00, 0x00, 0x80, 0x57, 0x7D, 0x21, 0x3E, 0x34, 0xDF,
  0x72, 0xBE, 0x2F, 0x0A, 0xF3, 0xBE, 0x2B, 0xA2, 0x5E, 0x3E,
  0x00, 0x00, 0x00, 0x80, 0x00, 0x00, 0x00, 0x80, 0x00, 0x00,
  0x00, 0x80, 0x85, 0xFE, 0xBD, 0xBE, 0x00, 0x00, 0x00, 0x80,
  0x22, 0x60, 0xE5, 0xBD, 0x00, 0x00, 0x00, 0x80, 0x17, 0xBE,
  0xFE, 0xBD, 0x30, 0xB5, 0xEC, 0xBE, 0x00, 0x00, 0x00, 0x80,
  0x89, 0x99, 0x4E, 0xBE, 0x00, 0x00, 0x00, 0x80, 0xE0, 0xE6,
  0x27, 0x3E, 0x00, 0x00, 0x00, 0x80, 0x00, 0x00, 0x00, 0x80,
  0x00, 0x00, 0x00, 0x80, 0x6A, 0x83, 0x4D, 0xBE, 0xB7, 0x0C,
  0x54, 0x3E, 0x00, 0x00, 0x00, 0x00, 0xA5, 0x34, 0x19, 0xBE,
  0x00, 0x00, 0x00, 0x80, 0x78, 0xD0, 0xBA, 0xBE, 0xA3, 0x3F,
  0x22, 0x3E, 0x00, 0x00, 0x00, 0x00, 0xF0, 0x2D, 0xE8, 0xBD,
  0x00, 0x00, 0x00, 0x80, 0x9E, 0xBD, 0x25, 0x3E, 0x00, 0x00,
  0x00, 0x80, 0x00, 0x00, 0x00, 0x00, 0x69, 0x86, 0x15, 0x3E,
  0x00, 0x00, 0x00, 0x80, 0xFE, 0x31, 0x41, 0x3E, 0x39, 0x40,
  0x95, 0xBD, 0x00, 0x00, 0x00, 0x00, 0x00, 0x00, 0x00, 0x80,
  0x1E, 0xDC, 0x02, 0x3E, 0x00, 0x00, 0x00, 0x80, 0xA6, 0x9D,
  0x17, 0xBC, 0x00, 0x00, 0x00, 0x80, 0x00, 0x00, 0x00, 0x80,
  0x96, 0xD5, 0x4F, 0x3E, 0x5B, 0xB8, 0xC8, 0x3C, 0x92, 0x3E,
  0x97, 0xBE, 0x00, 0x00, 0x00, 0x80, 0x1F, 0x72, 0x27, 0x3E,
  0x00, 0x00, 0x00, 0x80, 0x00, 0x00, 0x00, 0x80, 0x00, 0x00,
  0x00, 0x80, 0x31, 0xC6, 0x14, 0x3E, 0x4E, 0xEA, 0x37, 0x3E,
  0x00, 0x00, 0x00, 0x80, 0xB8, 0xB5, 0x5C, 0x3A, 0x1D, 0x7B,
  0x2D, 0x3E, 0x00, 0x00, 0x00, 0x80, 0x00, 0x00, 0x00, 0x80,
  0x0B, 0x64, 0xDD, 0xBD, 0x3E, 0x4D, 0x3A, 0x3E, 0x00, 0x00,
  0x00, 0x80, 0x00, 0x00, 0x00, 0x80, 0xFF, 0x61, 0x6B, 0x3D,
  0xE8, 0x92, 0xD7, 0xBD, 0x00, 0x00, 0x00, 0x00, 0x43, 0xC6,
  0x5D, 0xBD, 0x82, 0xCC, 0x84, 0x3E, 0x00, 0x00, 0x00, 0x80,
  0x00, 0x00, 0x00, 0x80, 0x00, 0x00, 0x00, 0x80, 0xE6, 0xCE,
  0x2D, 0x3E, 0x57, 0x5E, 0xB6, 0x3D, 0x00, 0x00, 0x00, 0x80,
  0x00, 0x00, 0x00, 0x80, 0x00, 0x00, 0x00, 0x80, 0xB2, 0xC8,
  0x47, 0x3E, 0xE8, 0xE0, 0x0A, 0x3E, 0xC4, 0x54, 0xA8, 0xBD,
  0x00, 0x00, 0x00, 0x80, 0x00, 0x00, 0x00, 0x80, 0x30, 0xC9,
  0x8C, 0x3D, 0xEA, 0xE4, 0x9D, 0x3E, 0x00, 0x00, 0x00, 0x80,
  0x00, 0x00, 0x00, 0x80, 0x49, 0xFC, 0xF7, 0xBC, 0x10, 0x82,
  0x22, 0x3E, 0x00, 0x00, 0x00, 0x80, 0x3A, 0x87, 0x27, 0xBE,
  0x00, 0x00, 0x00, 0x80, 0xAB, 0x6D, 0xC7, 0xBD, 0x00, 0x00,
  0x00, 0x80, 0x00, 0x00, 0x00, 0x80, 0xB2, 0x3E, 0xF9, 0xBD,
  0x46, 0xE3, 0x3A, 0xBE, 0x09, 0x8B, 0x50, 0xBE, 0x00, 0x00,
  0x00, 0x80, 0x00, 0x00, 0x00, 0x00, 0x00, 0x00, 0x00, 0x00,
  0x75, 0xDF, 0x06, 0xBE, 0x00, 0x00, 0x00, 0x80, 0xE2, 0x00,
  0x72, 0xBE, 0x2D, 0xDD, 0x35, 0xBE, 0xE7, 0x10, 0x63, 0xBE,
  0x00, 0x00, 0x00, 0x00, 0x00, 0x00, 0x00, 0x80, 0x00, 0x00,
  0x00, 0x80, 0x24, 0xBB, 0x90, 0xBE, 0x9E, 0x82, 0x41, 0xBE,
  0x00, 0x00, 0x00, 0x80, 0x00, 0x00, 0x00, 0x80, 0x91, 0x2E,
  0xAF, 0x3C, 0x00, 0x00, 0x00, 0x80, 0xD8, 0x7E, 0x2A, 0x3E,
  0x00, 0x00, 0x00, 0x80, 0x3F, 0x59, 0x96, 0xBE, 0x00, 0x00,
  0x00, 0x80, 0x19, 0xF4, 0x1B, 0xBE, 0x00, 0x00, 0x00, 0x80,
  0x1C, 0xED, 0x28, 0x3E, 0x34, 0xC6, 0xC6, 0xBE, 0x00, 0x00,
  0x00, 0x80, 0x00, 0x00, 0x00, 0x00, 0x96, 0x19, 0x72, 0x3D,
  0x00, 0x00, 0x00, 0x80, 0xFA, 0x21, 0xDF, 0xBD, 0x00, 0x00,
  0x00, 0x80, 0xAD, 0x5C, 0xC9, 0x3D, 0x00, 0x00, 0x00, 0x00,
  0x18, 0x5B, 0x9C, 0xBD, 0x00, 0x00, 0x00, 0x80, 0x8E, 0x5F,
  0x81, 0xBD, 0xFA, 0x43, 0x1E, 0xBE, 0x00, 0x00, 0x00, 0x80,
  0x56, 0xB5, 0xC5, 0xBD, 0x00, 0x00, 0x00, 0x80, 0x00, 0x00,
  0x00, 0x00, 0x93, 0x28, 0x34, 0xBE, 0x20, 0xE5, 0x5A, 0xBE,
  0x00, 0x00, 0x00, 0x80, 0x00, 0x00, 0x00, 0x80, 0x11, 0x25,
  0xFB, 0xBD, 0x69, 0xDB, 0x93, 0x3D, 0x00, 0x00, 0x00, 0x80,
  0x23, 0xDD, 0xAC, 0xBD, 0x00, 0x00, 0x00, 0x80, 0x00, 0x00,
  0x00, 0x80, 0x00, 0x00, 0x00, 0x80, 0x28, 0x79, 0x46, 0xBD,
  0x94, 0x15, 0x2C, 0xBE, 0x00, 0x00, 0x00, 0x80, 0x26, 0x6C,
  0xCC, 0xBD, 0x46, 0x9C, 0x13, 0x3E, 0x00, 0x00, 0x00, 0x80,
  0x00, 0x00, 0x00, 0x80, 0x45, 0x50, 0xA3, 0xBE, 0x00, 0x00,
  0x00, 0x80, 0x30, 0xF4, 0x65, 0xBD, 0x00, 0x00, 0x00, 0x80,
  0x00, 0x00, 0x00, 0x80, 0x75, 0xC4, 0x56, 0xBE, 0x06, 0x5A,
  0xDA, 0x3D, 0x00, 0x00, 0x00, 0x00, 0x00, 0x00, 0x00, 0x00,
  0xFA, 0x79, 0xBF, 0xBC, 0x46, 0x4B, 0x9A, 0xBD, 0xBD, 0xCE,
  0xAC, 0x3C, 0x8B, 0x13, 0xF9, 0x3D, 0x00, 0x00, 0x00, 0x80,
  0xA4, 0x07, 0xC3, 0x3D, 0x00, 0x00, 0x00, 0x80, 0x00, 0x00,
  0x00, 0x00, 0x43, 0x20, 0xF0, 0xBD, 0x00, 0x00, 0x00, 0x80,
  0x57, 0x64, 0xDF, 0xBD, 0x00, 0x00, 0x00, 0x80, 0xA2, 0x20,
  0xAE, 0x3D, 0xF6, 0x12, 0x81, 0x3D, 0x00, 0x00, 0x00, 0x80,
  0x00, 0x00, 0x00, 0x80, 0xFF, 0xD0, 0xEE, 0x3D, 0x00, 0x00,
  0x00, 0x80, 0x61, 0xCE, 0x47, 0xBE, 0x7E, 0x29, 0xD6, 0xBD,
  0x00, 0x00, 0x00, 0x80, 0x00, 0x00, 0x00, 0x80, 0x9F, 0xC3,
  0x8B, 0xBE, 0xB7, 0xEC, 0x46, 0xBE, 0x82, 0xBB, 0x3C, 0xBE,
  0x00, 0x00, 0x00, 0x80, 0x00, 0x00, 0x00, 0x80, 0xD1, 0x74,
  0xB1, 0xBD, 0x7D, 0x00, 0x2E, 0x3E, 0x00, 0x00, 0x00, 0x80,
  0x00, 0x00, 0x00, 0x80, 0x00, 0x00, 0x00, 0x80, 0x00, 0x00,
  0x00, 0x00, 0x78, 0x47, 0x55, 0x3E, 0x88, 0xE8, 0x05, 0xBE,
  0x00, 0x00, 0x00, 0x80, 0xFE, 0xDC, 0xF7, 0xBD, 0x00, 0x00,
  0x00, 0x80, 0x33, 0xE8, 0x13, 0xBE, 0x00, 0x00, 0x00, 0x80,
  0xF1, 0xCA, 0x64, 0xBE, 0xC4, 0xD1, 0x47, 0xBE, 0x00, 0x00,
  0x00, 0x80, 0x26, 0x91, 0xA6, 0xBE, 0x00, 0x00, 0x00, 0x80,
  0xCD, 0x50, 0xA9, 0x3D, 0x00, 0x00, 0x00, 0x80, 0x51, 0x1F,
  0x22, 0xBE, 0x00, 0x00, 0x00, 0x80, 0x00, 0x00, 0x00, 0x80,
  0x08, 0x19, 0xDD, 0xBD, 0x84, 0xA2, 0xD9, 0xBD, 0x00, 0x00,
  0x00, 0x80, 0x00, 0x00, 0x00, 0x80, 0xDD, 0x4F, 0x1F, 0xBE,
  0x00, 0x00, 0x00, 0x80, 0x00, 0x00, 0x00, 0x80, 0x77, 0x27,
  0xE4, 0x3D, 0xCC, 0x8C, 0x47, 0x3E, 0x92, 0x02, 0x65, 0xBE,
  0x00, 0x00, 0x00, 0x80, 0x5B, 0x30, 0xC8, 0xBD, 0x00, 0x00,
  0x00, 0x80, 0xE1, 0x3D, 0x02, 0x3E, 0x00, 0x00, 0x00, 0x80,
  0x00, 0x00, 0x00, 0x80, 0x9C, 0xD5, 0x38, 0x3E, 0x18, 0x28,
  0x37, 0xBE, 0x00, 0x00, 0x00, 0x00, 0xBF, 0xC8, 0x9F, 0x3D,
  0x00, 0x00, 0x00, 0x80, 0x49, 0xC1, 0x25, 0x3E, 0x92, 0xDF,
  0xF4, 0x3D, 0x00, 0x00, 0x00, 0x80, 0x00, 0x00, 0x00, 0x80,
  0x00, 0x00, 0x00, 0x80, 0x00, 0x00, 0x00, 0x80, 0xD2, 0x77,
  0x1D, 0xBE, 0x59, 0x5B, 0x1B, 0xBE, 0x8C, 0x10, 0x11, 0xBE,
  0x46, 0xA6, 0x15, 0xBE, 0x00, 0x00, 0x00, 0x80, 0x00, 0x00,
  0x00, 0x80, 0x00, 0x00, 0x00, 0x80, 0xC7, 0xF8, 0x36, 0x3E,
  0x00, 0x00, 0x00, 0x80, 0xEA, 0x41, 0x0E, 0x3D, 0x00, 0x00,
  0x00, 0x80, 0x4E, 0xBF, 0x70, 0x3E, 0x7C, 0x23, 0x36, 0x3E,
  0x00, 0x00, 0x00, 0x80, 0x00, 0x00, 0x00, 0x80, 0x00, 0x00,
  0x00, 0x80, 0x55, 0xF4, 0xC9, 0x3E, 0x63, 0xE6, 0x91, 0xBE,
  0x00, 0x00, 0x00, 0x80, 0xC2, 0x15, 0x6C, 0x3E, 0x00, 0x00,
  0x00, 0x80, 0x6B, 0x95, 0x88, 0x3E, 0xBB, 0xBC, 0x8A, 0xBE,
  0x00, 0x00, 0x00, 0x80, 0x72, 0xA0, 0x88, 0x3E, 0x00, 0x00,
  0x00, 0x80, 0x00, 0x00, 0x00, 0x80, 0x00, 0x00, 0x00, 0x80,
  0xE7, 0x31, 0x3C, 0x3E, 0x3D, 0xFF, 0x9A, 0x3E, 0x33, 0xB7,
  0xF0, 0x3D, 0x93, 0x1D, 0x64, 0x3D, 0x00, 0x00, 0x00, 0x80,
  0x00, 0x00, 0x00, 0x80, 0xEB, 0xB5, 0x37, 0xBD, 0x00, 0x00,
  0x00, 0x80, 0x02, 0xAF, 0x78, 0x3E, 0x00, 0x00, 0x00, 0x80,
  0x5E, 0x91, 0x43, 0xBE, 0x00, 0x00, 0x00, 0x80, 0x00, 0x00,
  0x00, 0x80, 0x0D, 0x6E, 0x4A, 0x3E, 0x02, 0x18, 0x85, 0x3D,
  0x00, 0x00, 0x00, 0x80, 0xAD, 0x1B, 0x19, 0xBE, 0x00, 0x00,
  0x00, 0x80, 0x6E, 0x6C, 0x04, 0x3E, 0x00, 0x00, 0x00, 0x80,
  0x6A, 0xBB, 0x57, 0x3E, 0x00, 0x00, 0x00, 0x80, 0x00, 0x00,
  0x00, 0x80, 0x10, 0xAC, 0x8D, 0x3D, 0x3A, 0x67, 0x4C, 0xBE,
  0x00, 0x00, 0x00, 0x80, 0x00, 0x00, 0x00, 0x80, 0xEE, 0x34,
  0xA0, 0xBE, 0x00, 0x00, 0x00, 0x80, 0x82, 0xC1, 0x8E, 0xBE,
  0x00, 0x00, 0x00, 0x80, 0x33, 0xFB, 0xB0, 0x3E, 0xE7, 0xF3,
  0x49, 0xBE, 0x00, 0x00, 0x00, 0x80, 0x00, 0x00, 0x00, 0x80,
  0xFC, 0x26, 0xB6, 0xBE, 0xA9, 0xF8, 0xEC, 0x3D, 0x00, 0x00,
  0x00, 0x80, 0xC1, 0xCA, 0x06, 0x3D, 0x14, 0x88, 0xE4, 0x3D,
  0x00, 0x00, 0x00, 0x80, 0x00, 0x00, 0x00, 0x80, 0x00, 0x00,
  0x00, 0x80, 0x12, 0x2B, 0xA0, 0x3E, 0x9B, 0xDC, 0x00, 0x3E,
  0x00, 0x00, 0x00, 0x80, 0x10, 0xF2, 0x19, 0x3E, 0x00, 0x00,
  0x00, 0x80, 0xD2, 0x19, 0x19, 0x3E, 0x00, 0x00, 0x00, 0x80,
  0x00, 0x00, 0x00, 0x80, 0x42, 0x5D, 0xA9, 0x3D, 0x00, 0x00,
  0x00, 0x80, 0xF8, 0x44, 0xE4, 0xBD, 0xFF, 0xEF, 0x57, 0xBE,
  0x00, 0x00, 0x00, 0x80, 0x00, 0x00, 0x00, 0x80, 0x0F, 0x4F,
  0x0E, 0xBE, 0x16, 0x08, 0x5F, 0xBE, 0x00, 0x00, 0x00, 0x80,
  0x00, 0x00, 0x00, 0x80, 0xA3, 0x76, 0x02, 0x3E, 0x00, 0x00,
  0x00, 0x80, 0x43, 0x7D, 0x96, 0x3D, 0x00, 0x00, 0x00, 0x80,
  0xBF, 0xDC, 0x04, 0x3E, 0x00, 0x00, 0x00, 0x80, 0x4B, 0x59,
  0x27, 0xBE, 0x00, 0x00, 0x00, 0x80, 0x91, 0xB2, 0x46, 0xBE,
  0x00, 0x00, 0x00, 0x80, 0x3E, 0xEC, 0x12, 0xBE, 0x00, 0x00,
  0x00, 0x80, 0xED, 0xD7, 0x43, 0xBD, 0x00, 0x00, 0x00, 0x80,
  0x00, 0x00, 0x00, 0x80, 0xFF, 0x12, 0xF3, 0x3C, 0x04, 0x2F,
  0xEC, 0xBC, 0x00, 0x00, 0x00, 0x80, 0x00, 0x00, 0x00, 0x80,
  0x3D, 0x17, 0x99, 0x3D, 0x38, 0xF7, 0x31, 0x3E, 0x2B, 0x35,
  0x1F, 0x3E, 0x00, 0x00, 0x00, 0x80, 0x00, 0x00, 0x00, 0x80,
  0x9C, 0x60, 0x4E, 0x3E, 0x1E, 0x96, 0x5A, 0x3E, 0x00, 0x00,
  0x00, 0x80, 0x02, 0xAB, 0xCF, 0xBD, 0x00, 0x00, 0x00, 0x80,
  0x00, 0x00, 0x00, 0x80, 0x9F, 0x6A, 0x9F, 0x3D, 0x00, 0x00,
  0x00, 0x80, 0xA3, 0x2A, 0xBF, 0x3C, 0x00, 0x00, 0x00, 0x80,
  0xAA, 0x0C, 0xFF, 0x3D, 0x00, 0x00, 0x00, 0x80, 0xBE, 0xB8,
  0x7A, 0xBD, 0x00, 0x00, 0x00, 0x80, 0x31, 0x36, 0xE2, 0x3D,
  0x00, 0x00, 0x00, 0x80, 0x32, 0xB6, 0xC8, 0xBD, 0x00, 0x00,
  0x00, 0x80, 0x00, 0x00, 0x00, 0x80, 0x3B, 0xEB, 0x84, 0x3D,
  0x6D, 0xA2, 0x00, 0x3E, 0x45, 0xB0, 0xD4, 0x3C, 0x00, 0x00,
  0x00, 0x80, 0x6B, 0x9A, 0xE9, 0xBD, 0x00, 0x00, 0x00, 0x80,
  0xDE, 0xED, 0xB4, 0xBD, 0xEC, 0x6B, 0xB3, 0xBD, 0x00, 0x00,
  0x00, 0x80, 0x00, 0x00, 0x00, 0x80, 0x69, 0xEA, 0xBC, 0x3C,
  0x00, 0x00, 0x00, 0x80, 0x00, 0x00, 0x00, 0x80, 0xCA, 0xD8,
  0xBD, 0xBD, 0x17, 0x4A, 0x52, 0x3D, 0x00, 0x00, 0x00, 0x80,
  0x92, 0x3F, 0x27, 0x3D, 0x00, 0x00, 0x00, 0x80, 0x00, 0x00,
  0x00, 0x80, 0xE7, 0xC8, 0x96, 0x3D, 0x00, 0x00, 0x00, 0x80,
  0x92, 0xE3, 0x05, 0x3E, 0x00, 0x00, 0x00, 0x80, 0x02, 0xDD,
  0x2A, 0x3E, 0x00, 0x00, 0x00, 0x80, 0x94, 0x6D, 0xA5, 0x3D,
  0x43, 0x34, 0x0F, 0xBE, 0x00, 0x00, 0x00, 0x80, 0x00, 0x00,
  0x00, 0x80, 0x81, 0x44, 0x00, 0x3E, 0x46, 0x5D, 0x88, 0x3D,
  0x00, 0x00, 0x00, 0x80, 0x07, 0x65, 0x6C, 0xBD, 0x00, 0x00,
  0x00, 0x80, 0x00, 0x00, 0x00, 0x80, 0x00, 0x00, 0x00, 0x80,
  0x6A, 0x45, 0xE6, 0xBB, 0x47, 0x5C, 0x2A, 0x3D, 0xAC, 0xD6,
  0x7A, 0xBD, 0x00, 0x00, 0x00, 0x00, 0x00, 0x00, 0x00, 0x80,
  0x34, 0x8F, 0xE1, 0x3D, 0x19, 0xC2, 0x3A, 0x3E, 0xA8, 0x9D,
  0x8C, 0x3D, 0x23, 0x8F, 0x2D, 0xBE, 0x00, 0x00, 0x00, 0x80,
  0x00, 0x00, 0x00, 0x80, 0x00, 0x00, 0x00, 0x80, 0x91, 0x88,
  0x19, 0xBD, 0x45, 0x28, 0x69, 0x3D, 0x00, 0x00, 0x00, 0x00,
  0xE0, 0x76, 0x71, 0x3E, 0x00, 0x00, 0x00, 0x00, 0x46, 0x0C,
  0x65, 0x3E, 0x00, 0x00, 0x00, 0x80, 0x9A, 0xD7, 0xF5, 0xBD,
  0x00, 0x00, 0x00, 0x00, 0x00, 0x00, 0x00, 0x00, 0x9C, 0x21,
  0x9B, 0x3E, 0x00, 0x00, 0x00, 0x00, 0x00, 0x00, 0x00, 0x00,
  0xE6, 0x80, 0x67, 0x3E, 0x3E, 0x50, 0x69, 0x3E, 0x00, 0x00,
  0x00, 0x00, 0x82, 0xAA, 0x54, 0x3E, 0xC0, 0x9B, 0x9B, 0x3E,
  0x00, 0x00, 0x00, 0x00, 0x87, 0x96, 0x1F, 0x3E, 0x00, 0x00,
  0x00, 0x00, 0xEA, 0xDD, 0x80, 0x3E, 0x00, 0x00, 0x00, 0x80,
  0x00, 0x00, 0x00, 0x00, 0xF6, 0x16, 0x64, 0x3E, 0x66, 0xAA,
  0x29, 0x3E, 0x00, 0x00, 0x00, 0x00, 0x00, 0x00, 0x00, 0x80,
  0xF7, 0x7B, 0x28, 0xBE, 0xB9, 0xFF, 0x96, 0x3D, 0x00, 0x00,
  0x00, 0x80, 0x00, 0x00, 0x00, 0x80, 0x00, 0x00, 0x00, 0x80,
  0x87, 0x2C, 0x0E, 0xBE, 0x6C, 0xDB, 0x0E, 0xBE, 0x34, 0x0E,
  0x1D, 0x3E, 0x00, 0x00, 0x00, 0x80, 0x00, 0x00, 0x00, 0x00,
  0xD8, 0x67, 0x4D, 0xBE, 0x00, 0x00, 0x00, 0x00, 0x00, 0x00,
  0x00, 0x00, 0x61, 0x47, 0x8B, 0xBC, 0x15, 0x48, 0x86, 0xBD,
  0x5E, 0xB4, 0x35, 0xBE, 0x42, 0x22, 0x4F, 0xBE, 0x00, 0x00,
  0x00, 0x00, 0x00, 0x00, 0x00, 0x00, 0x00, 0x00, 0x00, 0x00,
  0x1C, 0xA2, 0x18, 0xBE, 0x46, 0x7F, 0x49, 0xBE, 0x00, 0x00,
  0x00, 0x00, 0x28, 0x65, 0x59, 0x3E, 0x00, 0x00, 0x00, 0x00,
  0x00, 0x00, 0x00, 0x00, 0xEA, 0x9E, 0x95, 0xBD, 0x00, 0x00,
  0x00, 0x00, 0xB7, 0x94, 0x1F, 0x3E, 0x9D, 0xD6, 0x06, 0xBE,
  0x00, 0x00, 0x00, 0x80, 0x00, 0x00, 0x00, 0x80, 0x42, 0x8C,
  0xE4, 0x3D, 0xA2, 0xA7, 0x73, 0xBE, 0x00, 0x00, 0x00, 0x80,
  0x3A, 0x5C, 0xCA, 0xBD, 0x00, 0x00, 0x00, 0x80, 0xC9, 0x9E,
  0x7A, 0xBE, 0x00, 0x00, 0x00, 0x80, 0x00, 0x00, 0x00, 0x00,
  0xB8, 0x58, 0x63, 0xBC, 0x02, 0x62, 0x05, 0xBE, 0x00, 0x00,
  0x00, 0x80, 0xAA, 0x80, 0x15, 0xBE, 0x76, 0x60, 0x11, 0x3E,
  0x00, 0x00, 0x00, 0x00, 0x00, 0x00, 0x00, 0x00, 0x00, 0x00,
  0x00, 0x00, 0x00, 0x00, 0x00, 0x00, 0x83, 0xC9, 0x24, 0x3E,
  0xD7, 0x1A, 0x63, 0xBE, 0x46, 0xD1, 0x09, 0xBE, 0xF4, 0xBE,
  0x24, 0x3E, 0x00, 0x00, 0x00, 0x00, 0x00, 0x00, 0x00, 0x00,
  0x1A, 0x95, 0x50, 0xBE, 0x00, 0x00, 0x00, 0x00, 0x30, 0x83,
  0xFB, 0x3C, 0x00, 0x00, 0x00, 0x00, 0x00, 0x00, 0x00, 0x00,
  0xFE, 0xAC, 0x40, 0xBE, 0xFF, 0xFE, 0xC5, 0x3E, 0x00, 0x00,
  0x00, 0x00, 0x00, 0x00, 0x00, 0x80, 0x1C, 0xD9, 0x3A, 0x3E,
  0x00, 0x00, 0x00, 0x80, 0x7D, 0x8A, 0x8D, 0x3E, 0x00, 0x00,
  0x00, 0x80, 0x48, 0x5C, 0x5F, 0xBD, 0x00, 0x00, 0x00, 0x80,
  0x7D, 0xA5, 0x85, 0xBE, 0x00, 0x00, 0x00, 0x00, 0x00, 0x00,
  0x00, 0x80, 0x4B, 0xE5, 0x9C, 0xBE, 0xBC, 0x4C, 0x0F, 0x3E,
  0x00, 0x00, 0x00, 0x80, 0x00, 0x00, 0x00, 0x00, 0x7A, 0xE8,
  0x18, 0xBE, 0xC3, 0xF0, 0x21, 0xBE, 0x00, 0x00, 0x00, 0x00,
  0x99, 0xB8, 0x5F, 0x3E, 0x00, 0x00, 0x00, 0x00, 0x70, 0x18,
  0x19, 0x3E, 0x00, 0x00, 0x00, 0x00, 0x00, 0x00, 0x00, 0x00,
  0x33, 0x3E, 0xB7, 0xBD, 0x7F, 0x58, 0x5E, 0xBD, 0x00, 0x00,
  0x00, 0x00, 0x00, 0x00, 0x00, 0x00, 0xF9, 0x92, 0x3A, 0xBE,
  0x78, 0xFF, 0xDA, 0x3D, 0x00, 0x00, 0x00, 0x00, 0x00, 0x00,
  0x00, 0x80, 0xAF, 0xD2, 0x35, 0xBE, 0xAD, 0x91, 0xF4, 0x3D,
  0x09, 0x9D, 0xEF, 0xBD, 0x39, 0x1A, 0x30, 0x3E, 0x00, 0x00,
  0x00, 0x80, 0x00, 0x00, 0x00, 0x80, 0x8D, 0x8D, 0x2C, 0x3E,
  0xBD, 0xE5, 0x4D, 0x3D, 0x00, 0x00, 0x00, 0x80, 0x00, 0x00,
  0x00, 0x80, 0x00, 0x00, 0x00, 0x80, 0x79, 0x2F, 0x7B, 0xBE,
  0xC3, 0xFC, 0x90, 0xBE, 0x00, 0x00, 0x00, 0x80, 0x00, 0x00,
  0x00, 0x80, 0x57, 0x7D, 0xD1, 0xBD, 0xB6, 0xFB, 0x99, 0xBD,
  0x00, 0x00, 0x00, 0x80, 0x30, 0x67, 0x1F, 0xBE, 0x00, 0x00,
  0x00, 0x80, 0xA0, 0x6D, 0xAF, 0xBD, 0x00, 0x00, 0x00, 0x00,
  0x00, 0x00, 0x00, 0x00, 0x8A, 0xD9, 0x41, 0xBE, 0x32, 0x2C,
  0x88, 0xBD, 0x00, 0x00, 0x00, 0x80, 0x00, 0x00, 0x00, 0x00,
  0x6B, 0xB9, 0xC5, 0x3C, 0xE5, 0x58, 0x2D, 0xBE, 0x00, 0x00,
  0x00, 0x00, 0x00, 0x00, 0x00, 0x80, 0x00, 0x00, 0x00, 0x00,
  0x3C, 0x1B, 0x50, 0x3D, 0x0E, 0x32, 0xA1, 0xBD, 0x33, 0x52,
  0x06, 0x3E, 0x00, 0x00, 0x00, 0x80, 0x00, 0x00, 0x00, 0x00,
  0x67, 0x69, 0xAB, 0x3D, 0xDA, 0x3E, 0x4B, 0xBD, 0x21, 0x1C,
  0x2C, 0x3E, 0x00, 0x00, 0x00, 0x80, 0x00, 0x00, 0x00, 0x80,
  0x00, 0x00, 0x00, 0x00, 0x4A, 0xF6, 0xB3, 0xBE, 0x00, 0x00,
  0x00, 0x00, 0x4B, 0x41, 0x77, 0xBE, 0x00, 0x00, 0x00, 0x00,
  0xFE, 0x96, 0x96, 0xBE, 0xD7, 0xBC, 0x8D, 0xBE, 0x00, 0x00,
  0x00, 0x80, 0x00, 0x00, 0x00, 0x00, 0x00, 0x00, 0x00, 0x80,
  0xDF, 0x3B, 0xF8, 0xBD, 0x08, 0x93, 0x67, 0xBE, 0x00, 0x00,
  0x00, 0x80, 0xF6, 0x55, 0x68, 0x3E, 0x7A, 0x75, 0x0E, 0x3E,
  0x00, 0x00, 0x00, 0x00, 0xFA, 0xE6, 0x80, 0xBE, 0x9B, 0xDA,
  0x75, 0x3E, 0x00, 0x00, 0x00, 0x00, 0x00, 0x00, 0x00, 0x00,
  0x6C, 0x80, 0x18, 0x3E, 0x00, 0x00, 0x00, 0x00, 0x00, 0x00,
  0x00, 0x00, 0x09, 0x2F, 0x72, 0x3E, 0xC6, 0xCF, 0xBA, 0x3D,
  0xD8, 0x5A, 0x69, 0x3E, 0x00, 0x00, 0x00, 0x00, 0x00, 0x00,
  0x00, 0x00, 0x00, 0x00, 0x00, 0x00, 0x00, 0x00, 0x00, 0x00,
  0xA7, 0x7F, 0x8D, 0xBD, 0x05, 0x75, 0x7C, 0xBE, 0x78, 0xEA,
  0x73, 0x3E, 0x00, 0x00, 0x00, 0x00, 0x00, 0x00, 0x00, 0x00,
  0x6C, 0x04, 0xA1, 0xBD, 0xEA, 0xC0, 0xF6, 0xBD, 0x00, 0x00,
  0x00, 0x80, 0x5F, 0x48, 0x84, 0xBE, 0x00, 0x00, 0x00, 0x00,
  0x00, 0x00, 0x00, 0x00, 0xE8, 0xAD, 0xDA, 0xBD, 0x00, 0x00,
  0x00, 0x80, 0xB9, 0x6C, 0x4C, 0xBE, 0xB4, 0x89, 0x1A, 0xBE,
  0x00, 0x00, 0x00, 0x00, 0x00, 0x00, 0x00, 0x00, 0xBB, 0x8B,
  0x34, 0xBE, 0x00, 0x00, 0x00, 0x00, 0x00, 0x00, 0x00, 0x00,
  0x35, 0xDB, 0x3C, 0xBE, 0xA9, 0xDE, 0x95, 0xBE, 0x00, 0x00,
  0x00, 0x00, 0x00, 0x00, 0x00, 0x00, 0x1E, 0xD9, 0x00, 0x3E,
  0x1C, 0x1F, 0x33, 0xBE, 0x00, 0x00, 0x00, 0x00, 0x00, 0x00,
  0x00, 0x00, 0x76, 0xFF, 0xE8, 0xBD, 0x2E, 0x7D, 0xE8, 0xBD,
  0x19, 0x38, 0x3F, 0xBE, 0x00, 0x00, 0x00, 0x80, 0x00, 0x00,
  0x00, 0x00, 0xE9, 0xCB, 0x16, 0xBE, 0x84, 0xCC, 0xB4, 0xBD,
  0x00, 0x00, 0x00, 0x00, 0x00, 0x00, 0x00, 0x00, 0x5A, 0x86,
  0x04, 0xBE, 0x14, 0x35, 0x50, 0xBD, 0x00, 0x00, 0x00, 0x80,
  0x17, 0x48, 0x7A, 0xBD, 0x00, 0x00, 0x00, 0x00, 0x56, 0x8B,
  0xBD, 0xBD, 0x33, 0x11, 0x0D, 0x3E, 0x00, 0x00, 0x00, 0x00,
  0xDD, 0x0E, 0x06, 0xBE, 0x00, 0x00, 0x00, 0x00, 0x0E, 0x44,
  0x27, 0x3E, 0x20, 0x23, 0x51, 0xBD, 0x00, 0x00, 0x00, 0x00,
  0x00, 0x00, 0x00, 0x00, 0x00, 0x00, 0x00, 0x00, 0x19, 0xE4,
  0x0E, 0xBE, 0xB1, 0xF2, 0x37, 0x3D, 0x00, 0x00, 0x00, 0x00,
  0x22, 0x62, 0x12, 0xBE, 0x00, 0x00, 0x00, 0x00, 0x00, 0x00,
  0x00, 0x00, 0x76, 0xDF, 0x77, 0xBE, 0x00, 0x00, 0x00, 0x00,
  0x04, 0x14, 0x60, 0xBE, 0xBC, 0x2C, 0x48, 0xBE, 0x00, 0x00,
  0x00, 0x00, 0x00, 0x00, 0x00, 0x80, 0x00, 0x00, 0x00, 0x00,
  0x6F, 0x12, 0x09, 0xBE, 0xE5, 0x7B, 0x28, 0xBE, 0x00, 0x00,
  0x00, 0x00, 0x00, 0x00, 0x00, 0x80, 0x9C, 0x5A, 0x7F, 0xBE,
  0x95, 0xBC, 0x69, 0xBE, 0x00, 0x00, 0x00, 0x00, 0x00, 0x00,
  0x00, 0x00, 0x84, 0x46, 0xF9, 0xBD, 0x3C, 0x54, 0x5F, 0xBE,
  0xF3, 0x9F, 0xFD, 0xBD, 0x00, 0x00, 0x00, 0x00, 0x00, 0x00,
  0x00, 0x00, 0x1C, 0x5D, 0x49, 0x3E, 0x79, 0x67, 0x14, 0x3D,
  0x6A, 0x56, 0xB5, 0x3C, 0x00, 0x00, 0x00, 0x00, 0x00, 0x00,
  0x00, 0x00, 0x60, 0x07, 0x8C, 0x3E, 0x00, 0x00, 0x00, 0x00,
  0xE2, 0xAC, 0x11, 0x3E, 0x00, 0x00, 0x00, 0x00, 0x00, 0x00,
  0x00, 0x00, 0x72, 0x81, 0x46, 0x3E, 0x8C, 0xBB, 0xE0, 0x3D,
  0x00, 0x00, 0x00, 0x00, 0x00, 0x00, 0x00, 0x00, 0x8B, 0xC7,
  0x89, 0xBE, 0x3D, 0x61, 0x7D, 0xBD, 0x00, 0x00, 0x00, 0x00,
  0x00, 0x00, 0x00, 0x00, 0x00, 0x00, 0x00, 0x80, 0x24, 0x39,
  0xB4, 0xBE, 0xA9, 0x7F, 0x5D, 0xBE, 0x03, 0x98, 0xFA, 0x3D,
  0x00, 0x00, 0x00, 0x80, 0x00, 0x00, 0x00, 0x80, 0x2E, 0x0E,
  0x1A, 0xBE, 0xA8, 0x5D, 0xF4, 0xBD, 0xA4, 0x0B, 0x9D, 0x3D,
  0x00, 0x00, 0x00, 0x00, 0x00, 0x00, 0x00, 0x80, 0x00, 0x00,
  0x00, 0x00, 0xC6, 0x25, 0x2F, 0x3E, 0x2D, 0x17, 0x5A, 0xBC,
  0x00, 0x00, 0x00, 0x00, 0x2F, 0xDD, 0xBB, 0xBD, 0x00, 0x00,
  0x00, 0x00, 0x00, 0x00, 0x00, 0x00, 0x64, 0x07, 0x91, 0xBD,
  0x30, 0x97, 0x25, 0x3E, 0x00, 0x00, 0x00, 0x00, 0x00, 0x00,
  0x00, 0x00, 0xCE, 0xA6, 0x16, 0x3E, 0x00, 0x00, 0x00, 0x80,
  0xAC, 0x9C, 0x4A, 0x3E, 0x00, 0x00, 0x00, 0x80, 0x1C, 0xE9,
  0x21, 0x3E, 0xF1, 0xF0, 0x6D, 0x3E, 0x00, 0x00, 0x00, 0x80,
  0x00, 0x00, 0x00, 0x80, 0x2E, 0x40, 0xC3, 0x3D, 0x00, 0x00,
  0x00, 0x00, 0x56, 0x01, 0x66, 0x3E, 0x00, 0x00, 0x00, 0x80,
  0x8D, 0x34, 0x33, 0x3E, 0x7D, 0xA6, 0x26, 0x3E, 0x00, 0x00,
  0x00, 0x80, 0x00, 0x00, 0x00, 0x80, 0x0C, 0xC3, 0xF9, 0x3D,
  0x00, 0x00, 0x00, 0x80, 0x19, 0x0A, 0x7E, 0x3E, 0xB6, 0xB3,
  0xC3, 0xBC, 0x00, 0x00, 0x00, 0x00, 0x00, 0x00, 0x00, 0x80,
  0x67, 0x13, 0x19, 0x3E, 0xF2, 0x0B, 0x3F, 0x3E, 0x00, 0x00,
  0x00, 0x80, 0x00, 0x00, 0x00, 0x00, 0xF0, 0xDA, 0xBD, 0xBD,
  0xEC, 0xB3, 0x09, 0xBE, 0x00, 0x00, 0x00, 0x80, 0xBB, 0xD4,
  0x9A, 0xBD, 0x00, 0x00, 0x00, 0x80, 0xD2, 0x37, 0xD0, 0x3D,
  0x00, 0x00, 0x00, 0x00, 0x00, 0x00, 0x00, 0x00, 0x93, 0x31,
  0x98, 0xBD, 0x00, 0x00, 0x00, 0x80, 0x61, 0xD7, 0x05, 0x3E,
  0x00, 0x00, 0x00, 0x80, 0xF1, 0xE1, 0x93, 0x3E, 0x00, 0x00,
  0x00, 0x80, 0x29, 0x35, 0xC9, 0x3D, 0x77, 0x29, 0x13, 0xBE,
  0xE2, 0x9F, 0x7F, 0xBE, 0x00, 0x00, 0x00, 0x00, 0x00, 0x00,
  0x00, 0x80, 0x47, 0x5B, 0x81, 0xBE, 0x9A, 0x6D, 0x60, 0xBE,
  0x00, 0x00, 0x00, 0x80, 0x00, 0x00, 0x00, 0x00, 0x0A, 0xC1,
  0x22, 0x3E, 0x60, 0x05, 0x35, 0xBE, 0x00, 0x00, 0x00, 0x80,
  0x00, 0x00, 0x00, 0x80, 0xB8, 0xE4, 0x8D, 0xBE, 0x00, 0x00,
  0x00, 0x80, 0xA5, 0x85, 0xB1, 0xBD, 0x00, 0x00, 0x00, 0x80,
  0xF1, 0xD8, 0x1B, 0x3E, 0x00, 0x00, 0x00, 0x00, 0x00, 0x00,
  0x00, 0x80, 0x9D, 0x3B, 0x19, 0xBE, 0x00, 0x00, 0x00, 0x80,
  0xF7, 0x1B, 0x1C, 0x3D, 0x9F, 0x50, 0x02, 0x3E, 0x00, 0x00,
  0x00, 0x00, 0x00, 0x00, 0x00, 0x80, 0xE7, 0xC0, 0x3E, 0x3E,
  0x81, 0x14, 0x56, 0xBE, 0x00, 0x00, 0x00, 0x80, 0x1C, 0x53,
  0x28, 0x3E, 0xA6, 0x7A, 0x52, 0xBD, 0x00, 0x00, 0x00, 0x80,
  0x00, 0x00, 0x00, 0x80, 0xD9, 0xE9, 0x13, 0xBD, 0x00, 0x00,
  0x00, 0x80, 0x07, 0x78, 0xFB, 0xBD, 0x00, 0x00, 0x00, 0x80,
  0xFC, 0x69, 0x0F, 0xBE, 0x00, 0x00, 0x00, 0x00, 0xCF, 0xF8,
  0xFD, 0xBD, 0x00, 0x00, 0x00, 0x80, 0x02, 0xA0, 0x44, 0xBE,
  0x00, 0x00, 0x00, 0x80, 0x96, 0x6E, 0x9D, 0x3E, 0x00, 0x00,
  0x00, 0x00, 0xA8, 0x8B, 0x24, 0x3E, 0x7F, 0x98, 0xA1, 0x3D,
  0x00, 0x00, 0x00, 0x80, 0x00, 0x00, 0x00, 0x00, 0x80, 0xB5,
  0x84, 0x3E, 0x00, 0x00, 0x00, 0x00, 0x00, 0x00, 0x00, 0x80,
  0xE2, 0x1B, 0x64, 0xBC, 0x71, 0x23, 0x7F, 0xBE, 0x00, 0x00,
  0x00, 0x80, 0x00, 0x00, 0x00, 0x00, 0x81, 0x00, 0x22, 0xBE,
  0x88, 0x71, 0x59, 0xBE, 0x00, 0x00, 0x00, 0x80, 0x62, 0x7F,
  0x54, 0xBE, 0x00, 0x00, 0x00, 0x80, 0x93, 0x85, 0x1A, 0x3E,
  0x00, 0x00, 0x00, 0x00, 0x00, 0x00, 0x00, 0x00, 0x4D, 0x43,
  0x15, 0xBE, 0xD4, 0xCC, 0x99, 0xBE, 0x00, 0x00, 0x00, 0x00,
  0xB9, 0x9D, 0x07, 0xBE, 0x00, 0x00, 0x00, 0x00, 0x00, 0x00,
  0x00, 0x00, 0x5A, 0x60, 0xDA, 0xBD, 0x00, 0x00, 0x00, 0x80,
  0x61, 0x97, 0x94, 0xBE, 0x00, 0x00, 0x00, 0x80, 0x72, 0x17,
  0x9C, 0xBD, 0x00, 0x00, 0x00, 0x80, 0x3D, 0x64, 0xC2, 0x3D,
  0x00, 0x00, 0x00, 0x80, 0x00, 0x00, 0x00, 0x80, 0x83, 0xE8,
  0x3A, 0x3E, 0xA8, 0xBC, 0x8E, 0xBE, 0x00, 0x00, 0x00, 0x80,
  0x00, 0x00, 0x00, 0x80, 0x34, 0x80, 0x67, 0xBE, 0x4A, 0xF1,
  0x31, 0xBE, 0x1D, 0xEE, 0xDD, 0xBD, 0x00, 0x00, 0x00, 0x80,
  0x00, 0x00, 0x00, 0x80, 0xEC, 0xE3, 0xA1, 0xBE, 0x00, 0x00,
  0x00, 0x80, 0x00, 0x00, 0x00, 0x80, 0xA1, 0x30, 0x9B, 0xBE,
  0x42, 0x1E, 0xB3, 0xBE, 0x10, 0x4B, 0xB2, 0x3D, 0x00, 0x00,
  0x00, 0x80, 0x00, 0x00, 0x00, 0x00, 0x3A, 0x60, 0xD3, 0x3D,
  0x42, 0x34, 0xFB, 0x3D, 0x1E, 0xDE, 0x2F, 0x3D, 0x00, 0x00,
  0x00, 0x00, 0x00, 0x00, 0x00, 0x80, 0x23, 0x6A, 0x5F, 0x3E,
  0x4C, 0x67, 0x67, 0x3E, 0x00, 0x00, 0x00, 0x80, 0x00, 0x00,
  0x00, 0x00, 0xFB, 0x18, 0xDD, 0x3D, 0xC6, 0x51, 0x3C, 0x3E,
  0x00, 0x00, 0x00, 0x80, 0x00, 0x00, 0x00, 0x80, 0xA6, 0xE0,
  0xE4, 0xBD, 0x00, 0x00, 0x00, 0x80, 0x00, 0x00, 0x00, 0x80,
  0x22, 0xF8, 0x28, 0x3E, 0x00, 0x00, 0x00, 0x80, 0x00, 0x00,
  0x00, 0x80, 0x21, 0xFE, 0x7C, 0xBE, 0x74, 0x35, 0xF0, 0x3D,
  0x73, 0x4A, 0x29, 0x3E, 0xF9, 0x03, 0x98, 0x3E, 0x00, 0x00,
  0x00, 0x80, 0x00, 0x00, 0x00, 0x80, 0x00, 0x00, 0x00, 0x80,
  0x56, 0x18, 0x4D, 0xBE, 0x00, 0x00, 0x00, 0x00, 0x79, 0xC0,
  0x76, 0xBE, 0x97, 0x1A, 0x53, 0xBE, 0x00, 0x00, 0x00, 0x00,
  0x00, 0x00, 0x00, 0x00, 0x51, 0xB8, 0x77, 0x3E, 0xD8, 0x98,
  0x14, 0x3D, 0x00, 0x00, 0x00, 0x00, 0xE4, 0x87, 0x4A, 0xBE,
  0x00, 0x00, 0x00, 0x00, 0x25, 0xAE, 0x52, 0xBE, 0x00, 0x00,
  0x00, 0x80, 0x56, 0x49, 0x01, 0xBE, 0xEC, 0x06, 0xEF, 0xBD,
  0x00, 0x00, 0x00, 0x80, 0xAC, 0xC8, 0x2D, 0xBE, 0x58, 0xE5,
  0x7E, 0xBE, 0x00, 0x00, 0x00, 0x00, 0x00, 0x00, 0x00, 0x00,
  0x4C, 0x4F, 0xF0, 0x3D, 0xF2, 0x21, 0x0D, 0xBD, 0x00, 0x00,
  0x00, 0x80, 0x00, 0x00, 0x00, 0x80, 0x00, 0x00, 0x00, 0x00,
  0x00, 0x00, 0x00, 0x00, 0x3E, 0xDC, 0x50, 0x3E, 0x5D, 0x71,
  0x60, 0xBE, 0x00, 0x00, 0x00, 0x80, 0x84, 0x10, 0x92, 0x3D,
  0x00, 0x00, 0x00, 0x00, 0x64, 0x19, 0x61, 0x3E, 0xB5, 0x49,
  0xF1, 0xBD, 0x00, 0x00, 0x00, 0x80, 0x00, 0x00, 0x00, 0x00,
  0x4D, 0x88, 0xAF, 0xBD, 0x36, 0xB3, 0xCA, 0x3C, 0x1D, 0xEC,
  0x6B, 0x3D, 0x00, 0x00, 0x00, 0x00, 0x00, 0x00, 0x00, 0x00,
  0x9F, 0x3B, 0x26, 0xBE, 0x00, 0x00, 0x00, 0x00, 0xE4, 0x38,
  0x88, 0xBD, 0x00, 0x00, 0x00, 0x80, 0x00, 0x00, 0x00, 0x80,
  0xD8, 0x96, 0x2D, 0xBE, 0x00, 0x00, 0x00, 0x00, 0xB7, 0x27,
  0x5C, 0xBE, 0x87, 0xFC, 0x3C, 0xBE, 0x3B, 0x0D, 0x31, 0x3E,
  0x00, 0x00, 0x00, 0x00, 0x00, 0x00, 0x00, 0x00, 0xD6, 0xD1,
  0xDD, 0xBC, 0xB9, 0x58, 0xB0, 0xBD, 0x00, 0x00, 0x00, 0x00,
  0x00, 0x00, 0x00, 0x00, 0x00, 0x00, 0x00, 0x00, 0x00, 0x00,
  0x00, 0x00, 0xF2, 0xE9, 0x64, 0x3E, 0x06, 0x9F, 0xAE, 0xBD,
  0x00, 0x00, 0x00, 0x00, 0xCD, 0xAE, 0xE1, 0x3D, 0x00, 0x00,
  0x00, 0x00, 0x85, 0x00, 0xDA, 0xBD, 0x00, 0x00, 0x00, 0x00,
  0x32, 0xA0, 0xB6, 0x3D, 0x00, 0x00, 0x00, 0x00, 0xDD, 0x19,
  0x01, 0xBE, 0x09, 0x06, 0xE9, 0xBD, 0x00, 0x00, 0x00, 0x00,
  0x00, 0x00, 0x00, 0x00, 0x0F, 0xAF, 0xB1, 0x3C, 0x00, 0x00,
  0x00, 0x00, 0x00, 0x00, 0x00, 0x00, 0xA7, 0x9C, 0xB2, 0x3D,
  0x00, 0xB7, 0x41, 0x3D, 0x00, 0x00, 0x00, 0x00, 0x49, 0xEC,
  0xDF, 0x3D, 0xAE, 0xAF, 0x3D, 0xBE, 0x00, 0x00, 0x00, 0x00,
  0x63, 0x15, 0x0D, 0x3E, 0x00, 0x00, 0x00, 0x00, 0x00, 0x00,
  0x00, 0x80, 0x07, 0x3A, 0x16, 0x3E, 0xC5, 0x34, 0x88, 0x3D,
  0x00, 0x00, 0x00, 0x00, 0x00, 0x00, 0x00, 0x00, 0xA7, 0x77,
  0x64, 0xBE, 0x00, 0x00, 0x00, 0x00, 0x00, 0x00, 0x00, 0x00,
  0x9D, 0x1F, 0x12, 0x3E, 0xCA, 0x2D, 0xD0, 0xBD, 0xFF, 0x5A,
  0x06, 0xBE, 0xAC, 0x4C, 0x37, 0x3D, 0x00, 0x00, 0x00, 0x00,
  0x00, 0x00, 0x00, 0x00, 0xC4, 0xD8, 0x42, 0xBE, 0x00, 0x00,
  0x00, 0x00, 0x00, 0x00, 0x00, 0x00, 0x59, 0x47, 0x36, 0x3D,
  0xEC, 0xBD, 0x40, 0xBD, 0x00, 0x00, 0x00, 0x00, 0x89, 0x00,
  0xC3, 0xBD, 0x00, 0x00, 0x00, 0x00, 0x7D, 0xFB, 0x0F, 0x3E,
  0x00, 0x00, 0x00, 0x00, 0x00, 0x00, 0x00, 0x00, 0x24, 0x56,
  0x04, 0x3E, 0x00, 0x00, 0x00, 0x00, 0x4B, 0xDC, 0x40, 0x3E,
  0xE1, 0x81, 0x09, 0x3E, 0x00, 0x00, 0x00, 0x00, 0x00, 0x00,
  0x00, 0x00, 0x00, 0x00, 0x00, 0x00, 0x10, 0x03, 0xEE, 0xBD,
  0x4E, 0x79, 0x65, 0xBD, 0x00, 0x00, 0x00, 0x00, 0x00, 0x00,
  0x00, 0x00, 0x50, 0xC4, 0xBC, 0x3D, 0x77, 0xB8, 0xF9, 0x3D,
  0x00, 0x00, 0x00, 0x00, 0x67, 0xB2, 0x28, 0xBE, 0x00, 0x00,
  0x00, 0x00, 0xB6, 0x77, 0xA6, 0xBD, 0x00, 0x00, 0x00, 0x00,
  0xC3, 0xD0, 0xF3, 0x3D, 0xEC, 0x64, 0x62, 0xBE, 0x00, 0x00,
  0x00, 0x00, 0x00, 0x00, 0x00, 0x00, 0x47, 0xD8, 0x1A, 0x3E,
  0xFA, 0x8E, 0x40, 0x3E, 0x00, 0x00, 0x00, 0x00, 0x00, 0x00,
  0x00, 0x00, 0x9F, 0xA9, 0xFE, 0x3D, 0x40, 0x59, 0x91, 0xBD,
  0x00, 0x00, 0x00, 0x00, 0x00, 0x00, 0x00, 0x00, 0x00, 0x00,
  0x00, 0x00, 0xEF, 0xFB, 0xC4, 0x3D, 0x43, 0x3E, 0x7D, 0xBD,
  0x23, 0xCC, 0xA3, 0xBD, 0x00, 0x00, 0x00, 0x00, 0xF8, 0xDE,
  0xC7, 0x3D, 0x00, 0x00, 0x00, 0x00, 0x00, 0x00, 0x00, 0x00,
  0x00, 0x00, 0x00, 0x00, 0x1D, 0xCD, 0xAF, 0xBD, 0xC2, 0xC6,
  0x14, 0x3E, 0x3D, 0xD5, 0x7C, 0xBE, 0x00, 0x00, 0x00, 0x80,
  0x05, 0xEC, 0x0E, 0xBE, 0x00, 0x00, 0x00, 0x00, 0xD6, 0xFE,
  0x1E, 0xBE, 0x2E, 0x9A, 0x87, 0xBE, 0x00, 0x00, 0x00, 0x00,
  0x00, 0x00, 0x00, 0x00, 0x15, 0x35, 0x3F, 0x3E, 0xDA, 0x55,
  0xDF, 0xBD, 0x00, 0x00, 0x00, 0x80, 0x00, 0x00, 0x00, 0x00,
  0x00, 0x00, 0x00, 0x00, 0x63, 0xFB, 0x3A, 0xBD, 0xB3, 0x6C,
  0x43, 0x3E, 0x00, 0x00, 0x00, 0x00, 0x00, 0x00, 0x00, 0x00,
  0x01, 0xE6, 0x9F, 0xBD, 0x00, 0x64, 0x67, 0xBE, 0x00, 0x00,
  0x00, 0x00, 0x00, 0x00, 0x00, 0x00, 0xA5, 0xCD, 0xCC, 0xBD,
  0x00, 0x00, 0x00, 0x00, 0xFE, 0xF6, 0x98, 0xBD, 0x00, 0x00,
  0x00, 0x00, 0x1D, 0x8C, 0xC8, 0xBD, 0x00, 0x00, 0x00, 0x00,
  0x41, 0xAD, 0xBA, 0xBD, 0x30, 0x77, 0x46, 0x3E, 0x9E, 0x10,
  0x22, 0xBE, 0x00, 0x00, 0x00, 0x00, 0x00, 0x00, 0x00, 0x00,
  0x00, 0x00, 0x00, 0x00, 0x00, 0x00, 0x00, 0x80, 0x80, 0xA6,
  0xB7, 0x3D, 0x8E, 0xFC, 0x0A, 0x3E, 0xDD, 0xA6, 0xC4, 0xBE,
  0x00, 0x00, 0x00, 0x80, 0x21, 0xC6, 0x78, 0xBE, 0x00, 0x00,
  0x00, 0x00, 0x00, 0x00, 0x00, 0x00, 0x21, 0xFC, 0x93, 0xBD,
  0x21, 0x96, 0x3E, 0xBE, 0x00, 0x00, 0x00, 0x00, 0x43, 0xA8,
  0xA4, 0xBD, 0x8F, 0x8E, 0x4F, 0xBD, 0x00, 0x00, 0x00, 0x00,
  0x00, 0x00, 0x00, 0x00, 0xCF, 0xDF, 0x7D, 0xBE, 0x00, 0x00,
  0x00, 0x00, 0x92, 0x8E, 0x19, 0xBD, 0x00, 0x00, 0x00, 0x00,
  0x00, 0x00, 0x00, 0x00, 0x00, 0x00, 0x00, 0x80, 0x5A, 0xB8,
  0x0E, 0xBE, 0xB5, 0x43, 0x1E, 0xBE, 0x00, 0x00, 0x00, 0x00,
  0xAA, 0xC1, 0xBD, 0x3D, 0xDE, 0x6C, 0x06, 0xBE, 0x00, 0x00,
  0x00, 0x00, 0x00, 0x00, 0x00, 0x00, 0x00, 0x00, 0x00, 0x80,
  0x1E, 0xB0, 0x87, 0x3D, 0xE4, 0x27, 0x72, 0xBE, 0x5B, 0xE0,
  0x9D, 0x3D, 0x00, 0x00, 0x00, 0x00, 0xC6, 0x8A, 0x22, 0xBD,
  0x00, 0x00, 0x00, 0x00, 0xDC, 0xCE, 0x1D, 0xBE, 0x00, 0x00,
  0x00, 0x80, 0xE1, 0x84, 0xC0, 0xBB, 0x00, 0x00, 0x00, 0x80,
  0x09, 0x90, 0xC3, 0xBE, 0x00, 0x00, 0x00, 0x00, 0x00, 0x00,
  0x00, 0x00, 0xA3, 0x7A, 0x13, 0x3E, 0x3E, 0xBC, 0x04, 0x3E,
  0x00, 0x00, 0x00, 0x80, 0x53, 0x4A, 0xF1, 0xBE, 0x00, 0x00,
  0x00, 0x00, 0x00, 0x00, 0x00, 0x00, 0x5E, 0xB4, 0x16, 0x3D,
  0x00, 0x00, 0x00, 0x00, 0x8E, 0x80, 0x13, 0xBF, 0x00, 0x00,
  0x00, 0x00, 0xC4, 0x73, 0xD5, 0x3D, 0x03, 0xE5, 0x2B, 0x3E,
  0x00, 0x00, 0x00, 0x00, 0xB5, 0x00, 0x11, 0xBF, 0x00, 0x00,
  0x00, 0x00, 0x00, 0x00, 0x00, 0x80, 0x0A, 0x19, 0x28, 0x3E,
  0x00, 0x00, 0x00, 0x80, 0xDB, 0x92, 0x80, 0xBE, 0x00, 0x00,
  0x00, 0x80, 0xFF, 0xBD, 0xDD, 0xBD, 0x00, 0x00, 0x00, 0x80,
  0x6C, 0x04, 0x51, 0x3D, 0x40, 0x3B, 0x9E, 0xBE, 0x00, 0x00,
  0x00, 0x80, 0x00, 0x00, 0x00, 0x80, 0xB6, 0x27, 0x4D, 0xBE,
  0xBB, 0x0B, 0xCF, 0xBD, 0x00, 0x00, 0x00, 0x00, 0xB1, 0xE1,
  0x1F, 0xBE, 0x00, 0x00, 0x00, 0x00, 0x0A, 0x74, 0x6F, 0xBE,
  0xF2, 0x1E, 0x8C, 0xBE, 0x00, 0x00, 0x00, 0x00, 0x00, 0x00,
  0x00, 0x80, 0xAE, 0x26, 0x32, 0xBE, 0x9D, 0x78, 0x6E, 0xBE,
  0x00, 0x00, 0x00, 0x80, 0x00, 0x00, 0x00, 0x00, 0x00, 0x00,
  0x00, 0x80, 0x8B, 0xED, 0x50, 0xBE, 0x96, 0x47, 0x17, 0xBE,
  0xD4, 0x5A, 0xA4, 0xBD, 0x6A, 0x61, 0xB1, 0xBD, 0x00, 0x00,
  0x00, 0x80, 0x00, 0x00, 0x00, 0x00, 0xA1, 0xA9, 0x29, 0xBE,
  0x00, 0x00, 0x00, 0x80, 0xDD, 0x36, 0x39, 0xBE, 0x00, 0x00,
  0x00, 0x80, 0x00, 0x00, 0x00, 0x00, 0xC5, 0xCE, 0x6D, 0xBE,
  0x00, 0x00, 0x00, 0x80, 0x9D, 0x82, 0xA5, 0xBD, 0x00, 0x00,
  0x00, 0x80, 0x00, 0x00, 0x00, 0x00, 0xE3, 0x7C, 0x36, 0xBE,
  0x22, 0x5C, 0x4B, 0xBE, 0x00, 0x00, 0x00, 0x00, 0x00, 0x00,
  0x00, 0x00, 0xB5, 0x88, 0x65, 0xBE, 0x7C, 0xAA, 0x03, 0xBE,
  0xFC, 0x95, 0xBE, 0xBE, 0x00, 0x00, 0x00, 0x00, 0x89, 0xDB,
  0xAD, 0xBE, 0x00, 0x00, 0x00, 0x00, 0x9E, 0xAD, 0x83, 0xBE,
  0x00, 0x00, 0x00, 0x80, 0x00, 0x00, 0x00, 0x80, 0x73, 0x86,
  0x6A, 0xBE, 0xFF, 0xC3, 0x0C, 0xBF, 0x00, 0x00, 0x00, 0x80,
  0x00, 0x00, 0x00, 0x80, 0x0E, 0x9C, 0x8B, 0xBE, 0x00, 0x00,
  0x00, 0x80, 0x77, 0x81, 0x85, 0xBD, 0xC3, 0x55, 0x84, 0xBE,
  0x00, 0x00, 0x00, 0x80, 0xA3, 0x4F, 0xC6, 0xBD, 0xCE, 0x58,
  0xFB, 0xBC, 0x00, 0x00, 0x00, 0x80, 0x00, 0x00, 0x00, 0x80,
  0xB1, 0x00, 0x43, 0x3E, 0x00, 0x00, 0x00, 0x00, 0xEC, 0x8F,
  0x18, 0xBC, 0x00, 0x00, 0x00, 0x00, 0x00, 0x00, 0x00, 0x00,
  0x39, 0xA9, 0x5F, 0x3E, 0x00, 0x00, 0x00, 0x00, 0x15, 0xA0,
  0x24, 0xBE, 0x00, 0x00, 0x00, 0x00, 0xAC, 0x3D, 0x5E, 0xBE,
  0x69, 0x31, 0x6F, 0xBD, 0x00, 0x00, 0x00, 0x00, 0x00, 0x00,
  0x00, 0x00, 0x7F, 0x4B, 0x38, 0xBE, 0x00, 0x00, 0x00, 0x80,
  0x38, 0x92, 0x26, 0xBE, 0xBE, 0xDD, 0xFE, 0xBD, 0x00, 0x00,
  0x00, 0x80, 0x47, 0x7B, 0xD4, 0xBE, 0x00, 0x00, 0x00, 0x80,
  0x00, 0x00, 0x00, 0x80, 0xF9, 0x2F, 0x07, 0x3E, 0x56, 0x44,
  0xC4, 0xBE, 0x00, 0x00, 0x00, 0x80, 0x98, 0xF1, 0x3F, 0x3E,
  0x5F, 0xEC, 0x51, 0x3D, 0x00, 0x00, 0x00, 0x80, 0x00, 0x00,
  0x00, 0x00, 0xBA, 0xF7, 0x0C, 0x3E, 0x21, 0x17, 0x1D, 0x3E,
  0x00, 0x00, 0x00, 0x80, 0x00, 0x00, 0x00, 0x00, 0x45, 0x5F,
  0x1C, 0x3E, 0x00, 0x00, 0x00, 0x80, 0x7E, 0xF0, 0xE1, 0x3D,
  0x00, 0x00, 0x00, 0x00, 0x42, 0x22, 0x16, 0xBE, 0xD2, 0x90,
  0x3F, 0x3D, 0x00, 0x00, 0x00, 0x80, 0x00, 0x00, 0x00, 0x00,
  0x03, 0x0A, 0x12, 0x3E, 0x0A, 0xEE, 0x37, 0xBE, 0x00, 0x00,
  0x00, 0x00, 0x00, 0x00, 0x00, 0x00, 0xCC, 0x5E, 0x0C, 0x3E,
  0x00, 0x00, 0x00, 0x80, 0x00, 0x00, 0x00, 0x00, 0x26, 0x8F,
  0x78, 0x3D, 0x00, 0x00, 0x00, 0x80, 0x12, 0x7F, 0x32, 0xBD,
  0x23, 0x5F, 0x10, 0xBE, 0x00, 0x00, 0x00, 0x80, 0xB5, 0xD4,
  0xCA, 0xBD, 0xBD, 0x1E, 0xBF, 0xBA, 0x00, 0x00, 0x00, 0x80,
  0x00, 0x00, 0x00, 0x80, 0x27, 0xE0, 0x0F, 0x3E, 0xE9, 0xCB,
  0xFE, 0xBD, 0x00, 0x00, 0x00, 0x80, 0x00, 0x00, 0x00, 0x00,
  0x00, 0x00, 0x00, 0x00, 0xAF, 0x6E, 0x61, 0x3D, 0x00, 0x00,
  0x00, 0x80, 0xC7, 0xC3, 0xB4, 0x3D, 0x00, 0x00, 0x00, 0x00,
  0xA0, 0x7E, 0x3A, 0x3E, 0x71, 0xC7, 0x76, 0xBE, 0x00, 0x00,
  0x00, 0x00, 0x99, 0x10, 0x9A, 0xB9, 0x00, 0x00, 0x00, 0x00,
  0x00, 0x00, 0x00, 0x00, 0x98, 0xAF, 0xE3, 0x3D, 0x00, 0x00,
  0x00, 0x00, 0xE2, 0xF8, 0xA8, 0x3D, 0x00, 0x00, 0x00, 0x00,
  0x8B, 0x94, 0x6A, 0x3E, 0x00, 0x00, 0x00, 0x00, 0x00, 0x00,
  0x00, 0x00, 0x89, 0xBD, 0xB7, 0xBD, 0x8A, 0x40, 0x40, 0x3E,
  0x00, 0x00, 0x00, 0x00, 0x20, 0x41, 0x9D, 0xBE, 0x65, 0x46,
  0x5A, 0x3E, 0x00, 0x00, 0x00, 0x80, 0xF2, 0xEE, 0x5D, 0xBE,
  0x00, 0x00, 0x00, 0x80, 0x7A, 0xE9, 0xFC, 0xBE, 0x00, 0x00,
  0x00, 0x80, 0x00, 0x00, 0x00, 0x80, 0x00, 0x00, 0x00, 0x80,
  0x5A, 0xF7, 0x6F, 0xBE, 0x28, 0x1B, 0x7B, 0xBE, 0x00, 0x00,
  0x00, 0x80, 0x6F, 0xA0, 0xD1, 0x3D, 0xD5, 0xE1, 0x0D, 0x3E,
  0x00, 0x00, 0x00, 0x00, 0xAF, 0x35, 0x5C, 0xBE, 0x05, 0xBA,
  0x20, 0x3D, 0x00, 0x00, 0x00, 0x00, 0x00, 0x00, 0x00, 0x00,
  0xFE, 0x4C, 0x12, 0xBD, 0x00, 0x00, 0x00, 0x80, 0x00, 0x00,
  0x00, 0x00, 0x51, 0x6F, 0x9F, 0xBD, 0x00, 0x00, 0x00, 0x80,
  0x60, 0x80, 0x11, 0x3D, 0x00, 0x00, 0x00, 0x80, 0xD2, 0x0D,
  0x9C, 0x3D, 0x00, 0x00, 0x00, 0x80, 0xAC, 0x3C, 0x8B, 0xBD,
  0x00, 0x00, 0x00, 0x80, 0x69, 0xD7, 0x78, 0xBE, 0xE6, 0x5F,
  0x88, 0x3D, 0x00, 0x00, 0x00, 0x80, 0x00, 0x00, 0x00, 0x80,
  0x7B, 0x27, 0x50, 0xBE, 0x54, 0x6B, 0xD6, 0xBE, 0x00, 0x00,
  0x00, 0x80, 0x75, 0x20, 0x5C, 0xBE, 0x00, 0x00, 0x00, 0x80,
  0x00, 0x00, 0x00, 0x80, 0xBB, 0xCE, 0x43, 0xBE, 0x00, 0x00,
  0x00, 0x80, 0xEA, 0x01, 0x57, 0xBE, 0x00, 0x00, 0x00, 0x00,
  0x98, 0xEF, 0x51, 0xBD, 0x00, 0x00, 0x00, 0x00, 0xDB, 0x12,
  0x70, 0xBE, 0x00, 0x00, 0x00, 0x80, 0x06, 0x0F, 0xB0, 0x3D,
  0x75, 0x20, 0xC1, 0x3C, 0x00, 0x00, 0x00, 0x80, 0x00, 0x00,
  0x00, 0x00, 0x00, 0x00, 0x00, 0x80, 0xFD, 0x7D, 0x4C, 0xBE,
  0x1B, 0x4B, 0x6F, 0xBE, 0x01, 0x53, 0xB1, 0x3D, 0x00, 0x00,
  0x00, 0x80, 0x62, 0x48, 0x37, 0xBE, 0x00, 0x00, 0x00, 0x00,
  0xBB, 0x9F, 0x83, 0xBE, 0x00, 0x00, 0x00, 0x80, 0xA5, 0x4A,
  0xE7, 0x3D, 0x00, 0x00, 0x00, 0x80, 0x00, 0x00, 0x00, 0x00,
  0x00, 0x00, 0x00, 0x80, 0x3C, 0xD9, 0x34, 0xBE, 0x3A, 0xB9,
  0x0F, 0xBE, 0x00, 0x00, 0x00, 0x80, 0x11, 0x95, 0x0E, 0xBE,
  0x00, 0x00, 0x00, 0x80, 0x03, 0x9B, 0x2D, 0xBE, 0x67, 0x98,
  0x53, 0x3C, 0x00, 0x00, 0x00, 0x80, 0x00, 0x00, 0x00, 0x80,
  0x2E, 0x20, 0xCD, 0xBD, 0xB1, 0xDA, 0x38, 0x3D, 0x00, 0x00,
  0x00, 0x80, 0x52, 0xC1, 0xA0, 0xBC, 0x00, 0x00, 0x00, 0x00,
  0x0D, 0xE9, 0x08, 0x3E, 0x1F, 0x4F, 0x91, 0xBD, 0x00, 0x00,
  0x00, 0x00, 0x00, 0x00, 0x00, 0x80, 0x00, 0x00, 0x00, 0x00,
  0x00, 0x00, 0x00, 0x00, 0xDD, 0x8C, 0xDB, 0x3D, 0x80, 0x6D,
  0x11, 0xBE, 0x00, 0x00, 0x00, 0x80, 0x00, 0x00, 0x00, 0x00,
  0xDF, 0xB0, 0x64, 0x3E, 0x51, 0x26, 0x29, 0x3E, 0x9E, 0x01,
  0x9B, 0x3D, 0x00, 0x00, 0x00, 0x80, 0xD8, 0xC9, 0x47, 0xBD,
  0x00, 0x00, 0x00, 0x00, 0x00, 0x00, 0x00, 0x00, 0xB4, 0xB4,
  0x4C, 0xBD, 0x00, 0x00, 0x00, 0x80, 0xE9, 0x44, 0x31, 0x3E,
  0x00, 0x00, 0x00, 0x00, 0xAE, 0xCA, 0xAA, 0xBC, 0x26, 0x8E,
  0xE6, 0x3D, 0x00, 0x00, 0x00, 0x80, 0xAF, 0x05, 0x17, 0x3E,
  0x00, 0x00, 0x00, 0x80, 0x00, 0x00, 0x00, 0x00, 0xF6, 0xC0,
  0x66, 0x3E, 0x94, 0x35, 0x23, 0x3E, 0x00, 0x00, 0x00, 0x80,
  0x89, 0x5D, 0x1E, 0x3E, 0x00, 0x00, 0x00, 0x00, 0x9B, 0x76,
  0x0E, 0xBC, 0x36, 0xFD, 0xFF, 0xFF, 0x10, 0x00, 0x00, 0x00,
  0x07, 0x00, 0x00, 0x00, 0x14, 0x00, 0x00, 0x00, 0x38, 0x00,
  0x00, 0x00, 0x02, 0x00, 0x00, 0x00, 0x0A, 0x00, 0x00, 0x00,
  0xF5, 0x00, 0x00, 0x00, 0x22, 0x00, 0x00, 0x00, 0x6D, 0x6F,
  0x64, 0x65, 0x6C, 0x5F, 0x39, 0x2F, 0x6D, 0x6F, 0x64, 0x65,
  0x6C, 0x5F, 0x32, 0x2F, 0x65, 0x78, 0x69, 0x74, 0x31, 0x2F,
  0x64, 0x65, 0x6E, 0x73, 0x65, 0x2F, 0x4D, 0x61, 0x74, 0x4D,
  0x75, 0x6C, 0x00, 0x00, 0x3C, 0xFD, 0xFF, 0xFF, 0x16, 0xFE,
  0xFF, 0xFF, 0x04, 0x00, 0x00, 0x00, 0x08, 0x00, 0x00, 0x00,
  0xFF, 0xFF, 0xFF, 0xFF, 0xF5, 0x00, 0x00, 0x00, 0x06, 0xFE,
  0xFF, 0xFF, 0x00, 0x00, 0x00, 0x02, 0x10, 0x00, 0x00, 0x00,
  0x06, 0x00, 0x00, 0x00, 0x10, 0x00, 0x00, 0x00, 0x34, 0x00,
  0x00, 0x00, 0x01, 0x00, 0x00, 0x00, 0x02, 0x00, 0x00, 0x00,
  0x23, 0x00, 0x00, 0x00, 0x6D, 0x6F, 0x64, 0x65, 0x6C, 0x5F,
  0x39, 0x2F, 0x6D, 0x6F, 0x64, 0x65, 0x6C, 0x5F, 0x32, 0x2F,
  0x65, 0x78, 0x69, 0x74, 0x31, 0x2F, 0x66, 0x6C, 0x61, 0x74,
  0x74, 0x65, 0x6E, 0x2F, 0x43, 0x6F, 0x6E, 0x73, 0x74, 0x00,
  0x9C, 0xFD, 0xFF, 0xFF, 0x76, 0xFE, 0xFF, 0xFF, 0x04, 0x00,
  0x00, 0x00, 0x28, 0x00, 0x00, 0x00, 0xBF, 0x33, 0x04, 0xBC,
  0x55, 0x3C, 0xFC, 0x3D, 0x9F, 0x49, 0x8E, 0x3C, 0xF6, 0xDF,
  0xBA, 0xBD, 0x9F, 0xD5, 0x9D, 0xBB, 0xCF, 0x4B, 0xF4, 0x3C,
  0x74, 0x4B, 0x1D, 0x3C, 0xDB, 0xEF, 0x82, 0x3D, 0x28, 0x81,
  0xD6, 0xBD, 0xE0, 0x22, 0x63, 0xBC, 0x16, 0xFE, 0xFF, 0xFF,
  0x10, 0x00, 0x00, 0x00, 0x05, 0x00, 0x00, 0x00, 0x10, 0x00,
  0x00, 0x00, 0x44, 0x00, 0x00, 0x00, 0x01, 0x00, 0x00, 0x00,
  0x0A, 0x00, 0x00, 0x00, 0x32, 0x00, 0x00, 0x00, 0x6D, 0x6F,
  0x64, 0x65, 0x6C, 0x5F, 0x39, 0x2F, 0x6D, 0x6F, 0x64, 0x65,
  0x6C, 0x5F, 0x32, 0x2F, 0x65, 0x78, 0x69, 0x74, 0x31, 0x2F,
  0x64, 0x65, 0x6E, 0x73, 0x65, 0x2F, 0x42, 0x69, 0x61, 0x73,
  0x41, 0x64, 0x64, 0x2F, 0x52, 0x65, 0x61, 0x64, 0x56, 0x61,
  0x72, 0x69, 0x61, 0x62, 0x6C, 0x65, 0x4F, 0x70, 0x00, 0x00,
  0x28, 0xFE, 0xFF, 0xFF, 0x02, 0xFF, 0xFF, 0xFF, 0x04, 0x00,
  0x00, 0x00, 0x14, 0x00, 0x00, 0x00, 0x05, 0x81, 0x04, 0x3D,
  0x83, 0xB6, 0x7C, 0xBA, 0x3A, 0xB2, 0xC3, 0xBB, 0x11, 0x24,
  0x0B, 0x3E, 0x43, 0x88, 0x41, 0xBD, 0x8E, 0xFE, 0xFF, 0xFF,
  0x10, 0x00, 0x00, 0x00, 0x04, 0x00, 0x00, 0x00, 0x10, 0x00,
  0x00, 0x00, 0x48, 0x00, 0x00, 0x00, 0x01, 0x00, 0x00, 0x00,
  0x05, 0x00, 0x00, 0x00, 0x35, 0x00, 0x00, 0x00, 0x6D, 0x6F,
  0x64, 0x65, 0x6C, 0x5F, 0x39, 0x2F, 0x6D, 0x6F, 0x64, 0x65,
  0x6C, 0x5F, 0x32, 0x2F, 0x65, 0x78, 0x69, 0x74, 0x31, 0x2F,
  0x63, 0x6F, 0x6E, 0x76, 0x32, 0x64, 0x5F, 0x31, 0x2F, 0x42,
  0x69, 0x61, 0x73, 0x41, 0x64, 0x64, 0x2F, 0x52, 0x65, 0x61,
  0x64, 0x56, 0x61, 0x72, 0x69, 0x61, 0x62, 0x6C, 0x65, 0x4F,
  0x70, 0x00, 0x00, 0x00, 0xA4, 0xFE, 0xFF, 0xFF, 0x7E, 0xFF,
  0xFF, 0xFF, 0x04, 0x00, 0x00, 0x00, 0x14, 0x00, 0x00, 0x00,
  0xCF, 0xE4, 0x81, 0x3B, 0x4E, 0x89, 0x29, 0x3C, 0x3F, 0x29,
  0xD5, 0x3C, 0x41, 0xB2, 0xFD, 0xBA, 0xF7, 0x4A, 0x09, 0x3D,
  0x0A, 0xFF, 0xFF, 0xFF, 0x10, 0x00, 0x00, 0x00, 0x03, 0x00,
  0x00, 0x00, 0x10, 0x00, 0x00, 0x00, 0x4C, 0x00, 0x00, 0x00,
  0x01, 0x00, 0x00, 0x00, 0x05, 0x00, 0x00, 0x00, 0x39, 0x00,
  0x00, 0x00, 0x6D, 0x6F, 0x64, 0x65, 0x6C, 0x5F, 0x39, 0x2F,
  0x6D, 0x6F, 0x64, 0x65, 0x6C, 0x5F, 0x31, 0x2F, 0x62, 0x61,
  0x73, 0x65, 0x5F, 0x6D, 0x6F, 0x64, 0x65, 0x6C, 0x31, 0x2F,
  0x63, 0x6F, 0x6E, 0x76, 0x32, 0x64, 0x2F, 0x42, 0x69, 0x61,
  0x73, 0x41, 0x64, 0x64, 0x2F, 0x52, 0x65, 0x61, 0x64, 0x56,
  0x61, 0x72, 0x69, 0x61, 0x62, 0x6C, 0x65, 0x4F, 0x70, 0x00,
  0x00, 0x00, 0x70, 0xFF, 0xFF, 0xFF, 0x00, 0x00, 0x06, 0x00,
  0x08, 0x00, 0x04, 0x00, 0x06, 0x00, 0x00, 0x00, 0x04, 0x00,
  0x00, 0x00, 0x10, 0x00, 0x00, 0x00, 0x01, 0x00, 0x00, 0x00,
  0x1C, 0x00, 0x00, 0x00, 0x1C, 0x00, 0x00, 0x00, 0x01, 0x00,
  0x00, 0x00, 0x00, 0x00, 0x0E, 0x00, 0x18, 0x00, 0x08, 0x00,
  0x07, 0x00, 0x0C, 0x00, 0x10, 0x00, 0x14, 0x00, 0x0E, 0x00,
  0x00, 0x00, 0x00, 0x00, 0x00, 0x02, 0x10, 0x00, 0x00, 0x00,
  0x02, 0x00, 0x00, 0x00, 0x10, 0x00, 0x00, 0x00, 0x48, 0x00,
  0x00, 0x00, 0x01, 0x00, 0x00, 0x00, 0x04, 0x00, 0x00, 0x00,
  0x31, 0x00, 0x00, 0x00, 0x6D, 0x6F, 0x64, 0x65, 0x6C, 0x5F,
  0x39, 0x2F, 0x6D, 0x6F, 0x64, 0x65, 0x6C, 0x5F, 0x31, 0x2F,
  0x62, 0x61, 0x73, 0x65, 0x5F, 0x6D, 0x6F, 0x64, 0x65, 0x6C,
  0x31, 0x2F, 0x72, 0x65, 0x73, 0x68, 0x61, 0x70, 0x65, 0x2F,
  0x52, 0x65, 0x73, 0x68, 0x61, 0x70, 0x65, 0x2F, 0x73, 0x68,
  0x61, 0x70, 0x65, 0x00, 0x00, 0x00, 0x04, 0x00, 0x06, 0x00,
  0x04, 0x00, 0x00, 0x00, 0x00, 0x00, 0x0E, 0x00, 0x14, 0x00,
  0x04, 0x00, 0x00, 0x00, 0x08, 0x00, 0x0C, 0x00, 0x10, 0x00,
  0x0E, 0x00, 0x00, 0x00, 0x10, 0x00, 0x00, 0x00, 0x01, 0x00,
  0x00, 0x00, 0x18, 0x00, 0x00, 0x00, 0x20, 0x00, 0x00, 0x00,
  0x03, 0x00, 0x00, 0x00, 0x01, 0x00, 0x00, 0x00, 0x1C, 0x00,
  0x00, 0x00, 0x1C, 0x00, 0x00, 0x00, 0x05, 0x00, 0x00, 0x00,
  0x69, 0x6E, 0x70, 0x75, 0x74, 0x00, 0x00, 0x00, 0xFC, 0xFF,
  0xFF, 0xFF, 0x04, 0x00, 0x04, 0x00, 0x04, 0x00, 0x00, 0x00
};

const int pruned_model_chunk1_len = 13840;

